unsigned char models_complex_sine_model_quantized_tflite[] = {
  0x20, 0x00, 0x00, 0x00, 0x54, 0x46, 0x4c, 0x33, 0x00, 0x00, 0x00, 0x00,
  0x14, 0x00, 0x20, 0x00, 0x1c, 0x00, 0x18, 0x00, 0x14, 0x00, 0x10, 0x00,
  0x0c, 0x00, 0x00, 0x00, 0x08, 0x00, 0x04, 0x00, 0x14, 0x00, 0x00, 0x00,
  0x1c, 0x00, 0x00, 0x00, 0x8c, 0x00, 0x00, 0x00, 0x0c, 0x01, 0x00, 0x00,
  0x68, 0x08, 0x00, 0x00, 0x78, 0x08, 0x00, 0x00, 0xa4, 0x19, 0x00, 0x00,
  0x03, 0x00, 0x00, 0x00, 0x01, 0x00, 0x00, 0x00, 0x04, 0x00, 0x00, 0x00,
  0x3e, 0xf7, 0xff, 0xff, 0x0c, 0x00, 0x00, 0x00, 0x1c, 0x00, 0x00, 0x00,
  0x3c, 0x00, 0x00, 0x00, 0x0f, 0x00, 0x00, 0x00, 0x73, 0x65, 0x72, 0x76,
  0x69, 0x6e, 0x67, 0x5f, 0x64, 0x65, 0x66, 0x61, 0x75, 0x6c, 0x74, 0x00,
  0x01, 0x00, 0x00, 0x00, 0x04, 0x00, 0x00, 0x00, 0x68, 0xff, 0xff, 0xff,
  0x11, 0x00, 0x00, 0x00, 0x04, 0x00, 0x00, 0x00, 0x08, 0x00, 0x00, 0x00,
  0x6f, 0x75, 0x74, 0x70, 0x75, 0x74, 0x5f, 0x30, 0x00, 0x00, 0x00, 0x00,
  0x01, 0x00, 0x00, 0x00, 0x04, 0x00, 0x00, 0x00, 0x1e, 0xf8, 0xff, 0xff,
  0x04, 0x00, 0x00, 0x00, 0x0c, 0x00, 0x00, 0x00, 0x6b, 0x65, 0x72, 0x61,
  0x73, 0x5f, 0x74, 0x65, 0x6e, 0x73, 0x6f, 0x72, 0x00, 0x00, 0x00, 0x00,
  0x03, 0x00, 0x00, 0x00, 0x5c, 0x00, 0x00, 0x00, 0x2c, 0x00, 0x00, 0x00,
  0x04, 0x00, 0x00, 0x00, 0xb8, 0xff, 0xff, 0xff, 0x15, 0x00, 0x00, 0x00,
  0x04, 0x00, 0x00, 0x00, 0x13, 0x00, 0x00, 0x00, 0x43, 0x4f, 0x4e, 0x56,
  0x45, 0x52, 0x53, 0x49, 0x4f, 0x4e, 0x5f, 0x4d, 0x45, 0x54, 0x41, 0x44,
  0x41, 0x54, 0x41, 0x00, 0xdc, 0xff, 0xff, 0xff, 0x14, 0x00, 0x00, 0x00,
  0x04, 0x00, 0x00, 0x00, 0x13, 0x00, 0x00, 0x00, 0x6d, 0x69, 0x6e, 0x5f,
  0x72, 0x75, 0x6e, 0x74, 0x69, 0x6d, 0x65, 0x5f, 0x76, 0x65, 0x72, 0x73,
  0x69, 0x6f, 0x6e, 0x00, 0x08, 0x00, 0x0c, 0x00, 0x08, 0x00, 0x04, 0x00,
  0x08, 0x00, 0x00, 0x00, 0x13, 0x00, 0x00, 0x00, 0x04, 0x00, 0x00, 0x00,
  0x13, 0x00, 0x00, 0x00, 0x6d, 0x69, 0x6e, 0x5f, 0x72, 0x75, 0x6e, 0x74,
  0x69, 0x6d, 0x65, 0x5f, 0x76, 0x65, 0x72, 0x73, 0x69, 0x6f, 0x6e, 0x00,
  0x16, 0x00, 0x00, 0x00, 0x58, 0x07, 0x00, 0x00, 0x50, 0x07, 0x00, 0x00,
  0x3c, 0x07, 0x00, 0x00, 0x14, 0x07, 0x00, 0x00, 0xc4, 0x06, 0x00, 0x00,
  0xb4, 0x04, 0x00, 0x00, 0x24, 0x04, 0x00, 0x00, 0x14, 0x02, 0x00, 0x00,
  0xc4, 0x01, 0x00, 0x00, 0x34, 0x01, 0x00, 0x00, 0x04, 0x01, 0x00, 0x00,
  0xec, 0x00, 0x00, 0x00, 0xe4, 0x00, 0x00, 0x00, 0xdc, 0x00, 0x00, 0x00,
  0xd4, 0x00, 0x00, 0x00, 0xcc, 0x00, 0x00, 0x00, 0xc4, 0x00, 0x00, 0x00,
  0xbc, 0x00, 0x00, 0x00, 0xb4, 0x00, 0x00, 0x00, 0x94, 0x00, 0x00, 0x00,
  0x74, 0x00, 0x00, 0x00, 0x04, 0x00, 0x00, 0x00, 0x1a, 0xf9, 0xff, 0xff,
  0x04, 0x00, 0x00, 0x00, 0x60, 0x00, 0x00, 0x00, 0x0c, 0x00, 0x00, 0x00,
  0x08, 0x00, 0x0e, 0x00, 0x08, 0x00, 0x04, 0x00, 0x08, 0x00, 0x00, 0x00,
  0x10, 0x00, 0x00, 0x00, 0x28, 0x00, 0x00, 0x00, 0x00, 0x00, 0x06, 0x00,
  0x08, 0x00, 0x04, 0x00, 0x06, 0x00, 0x00, 0x00, 0x04, 0x00, 0x00, 0x00,
  0x01, 0x00, 0x00, 0x00, 0xeb, 0x03, 0x00, 0x00, 0x0c, 0x00, 0x18, 0x00,
  0x14, 0x00, 0x10, 0x00, 0x0c, 0x00, 0x04, 0x00, 0x0c, 0x00, 0x00, 0x00,
  0x4a, 0xcd, 0x4c, 0x6f, 0x69, 0x7e, 0x44, 0x16, 0x02, 0x00, 0x00, 0x00,
  0x02, 0x00, 0x00, 0x00, 0x04, 0x00, 0x00, 0x00, 0x06, 0x00, 0x00, 0x00,
  0x32, 0x2e, 0x31, 0x39, 0x2e, 0x30, 0x00, 0x00, 0x86, 0xf9, 0xff, 0xff,
  0x04, 0x00, 0x00, 0x00, 0x10, 0x00, 0x00, 0x00, 0x00, 0x00, 0x00, 0x00,
  0x00, 0x00, 0x00, 0x00, 0x00, 0x00, 0x00, 0x00, 0x00, 0x00, 0x00, 0x00,
  0xa2, 0xf9, 0xff, 0xff, 0x04, 0x00, 0x00, 0x00, 0x10, 0x00, 0x00, 0x00,
  0x31, 0x2e, 0x31, 0x34, 0x2e, 0x30, 0x00, 0x00, 0x00, 0x00, 0x00, 0x00,
  0x00, 0x00, 0x00, 0x00, 0x94, 0xe8, 0xff, 0xff, 0x98, 0xe8, 0xff, 0xff,
  0x9c, 0xe8, 0xff, 0xff, 0xa0, 0xe8, 0xff, 0xff, 0xa4, 0xe8, 0xff, 0xff,
  0xa8, 0xe8, 0xff, 0xff, 0xac, 0xe8, 0xff, 0xff, 0xda, 0xf9, 0xff, 0xff,
  0x04, 0x00, 0x00, 0x00, 0x08, 0x00, 0x00, 0x00, 0x7f, 0x7f, 0x7f, 0x7f,
  0x7f, 0x81, 0x81, 0x7f, 0xee, 0xf9, 0xff, 0xff, 0x04, 0x00, 0x00, 0x00,
  0x20, 0x00, 0x00, 0x00, 0xc0, 0xf6, 0xff, 0xff, 0xd0, 0x08, 0x00, 0x00,
  0xc5, 0xeb, 0xff, 0xff, 0xe6, 0x0a, 0x00, 0x00, 0x45, 0xe9, 0xff, 0xff,
  0x00, 0x00, 0x00, 0x00, 0x00, 0x00, 0x00, 0x00, 0xcd, 0xff, 0xff, 0xff,
  0x1a, 0xfa, 0xff, 0xff, 0x04, 0x00, 0x00, 0x00, 0x80, 0x00, 0x00, 0x00,
  0xa1, 0x7e, 0xea, 0x1b, 0x81, 0x38, 0x07, 0xd8, 0xbb, 0x16, 0x7f, 0x86,
  0x8e, 0x2c, 0x12, 0xb5, 0x0a, 0x1f, 0xc3, 0x43, 0xd1, 0x2e, 0x88, 0x81,
  0x34, 0x81, 0x67, 0xc3, 0xf6, 0xb8, 0xf8, 0x86, 0x26, 0xf2, 0x7f, 0x5e,
  0x42, 0x28, 0x52, 0xa4, 0x00, 0x2e, 0x81, 0xd0, 0x2f, 0x44, 0x40, 0x3d,
  0x38, 0x45, 0xc8, 0x2b, 0xe6, 0x7f, 0xd5, 0x85, 0x2c, 0xc2, 0x7f, 0x01,
  0x24, 0xeb, 0xc0, 0x04, 0x05, 0x34, 0x81, 0x0c, 0x6e, 0x45, 0x44, 0x37,
  0xc0, 0x04, 0x7f, 0xde, 0xa1, 0xee, 0xac, 0xe9, 0x03, 0x5d, 0xde, 0x28,
  0xc2, 0x56, 0x7d, 0x7f, 0x20, 0x5a, 0xd5, 0x7f, 0x9c, 0xc5, 0xfe, 0x78,
  0x48, 0xc1, 0x79, 0xa5, 0x1f, 0x7f, 0xb2, 0x76, 0xb1, 0xe0, 0xbc, 0xd7,
  0x91, 0x18, 0x81, 0xe0, 0x0d, 0x91, 0x8c, 0x7f, 0xdc, 0x91, 0xba, 0x9a,
  0xc9, 0x52, 0x53, 0x8b, 0x7f, 0x6f, 0x69, 0x1c, 0xa6, 0xfa, 0xff, 0xff,
  0x04, 0x00, 0x00, 0x00, 0x40, 0x00, 0x00, 0x00, 0xbb, 0x15, 0x00, 0x00,
  0xc2, 0xfe, 0xff, 0xff, 0xc5, 0x0a, 0x00, 0x00, 0x00, 0x00, 0x00, 0x00,
  0x9a, 0xf3, 0xff, 0xff, 0xfb, 0x13, 0x00, 0x00, 0xd0, 0x03, 0x00, 0x00,
  0x6e, 0xe8, 0xff, 0xff, 0x68, 0xfa, 0xff, 0xff, 0x53, 0x0a, 0x00, 0x00,
  0x2f, 0x05, 0x00, 0x00, 0xbf, 0x00, 0x00, 0x00, 0xcb, 0xf0, 0xff, 0xff,
  0x00, 0x00, 0x00, 0x00, 0x00, 0x00, 0x00, 0x00, 0x72, 0xf5, 0xff, 0xff,
  0xf2, 0xfa, 0xff, 0xff, 0x04, 0x00, 0x00, 0x00, 0x00, 0x02, 0x00, 0x00,
  0x73, 0x35, 0x0f, 0x31, 0x7f, 0x03, 0x26, 0x03, 0x0b, 0x1e, 0x3b, 0x5f,
  0x55, 0x54, 0x15, 0x2c, 0xe4, 0x17, 0xf8, 0x61, 0x81, 0x89, 0xf6, 0xee,
  0x46, 0x5f, 0xa9, 0x28, 0x98, 0xb0, 0x25, 0x3a, 0xce, 0x2b, 0x92, 0x41,
  0xb3, 0x2c, 0x78, 0x81, 0x30, 0x3f, 0x54, 0x2e, 0xef, 0xff, 0xf5, 0xd7,
  0x37, 0xeb, 0xc7, 0x0c, 0x81, 0x16, 0x23, 0xea, 0xe3, 0xbc, 0x4d, 0x00,
  0xb0, 0x39, 0xf9, 0xee, 0x81, 0xf9, 0xa3, 0xbb, 0xc7, 0xf7, 0xca, 0x94,
  0xb4, 0x08, 0x3a, 0x21, 0x1c, 0xc1, 0x4c, 0x44, 0x9f, 0x17, 0x1c, 0x52,
  0x86, 0x73, 0xed, 0x12, 0x2c, 0xb8, 0x7f, 0x0d, 0xec, 0x9c, 0xff, 0x64,
  0x7f, 0x3b, 0x3f, 0x01, 0xa0, 0x34, 0x1c, 0x03, 0x07, 0x13, 0xef, 0xc1,
  0xd1, 0x3a, 0x51, 0xe3, 0x81, 0x40, 0x37, 0xe2, 0x0f, 0x4d, 0x20, 0xca,
  0x49, 0x4c, 0xc0, 0x57, 0x4b, 0x2f, 0xf8, 0xed, 0x81, 0xb7, 0xa9, 0xde,
  0x37, 0x45, 0xf7, 0x18, 0x3b, 0x29, 0x46, 0x17, 0xef, 0xb2, 0x3b, 0xb2,
  0xc4, 0x7f, 0xe6, 0x42, 0xaa, 0xe1, 0xc3, 0xbb, 0xd9, 0x00, 0xd6, 0x49,
  0x2e, 0xaf, 0xdf, 0x23, 0x7f, 0x46, 0xac, 0x1f, 0x9d, 0x2d, 0x3d, 0xd0,
  0x96, 0xad, 0x32, 0xfc, 0xe4, 0x6b, 0xa2, 0x48, 0x4a, 0x35, 0x1d, 0xd3,
  0xb3, 0x78, 0x2e, 0x81, 0xae, 0xc7, 0x1c, 0x5f, 0x82, 0xcf, 0xbb, 0x4d,
  0xfd, 0xa4, 0xd5, 0x28, 0x47, 0xf7, 0x36, 0x19, 0x2b, 0x45, 0x8b, 0x27,
  0x25, 0x7f, 0x8a, 0xb6, 0xa8, 0x55, 0xa6, 0x64, 0x9c, 0x56, 0xd7, 0x81,
  0xab, 0x2a, 0x2c, 0x41, 0x2b, 0x42, 0x5d, 0x46, 0x88, 0xbb, 0xb6, 0x47,
  0x7f, 0x8f, 0x6c, 0x3c, 0xcd, 0x18, 0xa2, 0xd3, 0x41, 0x95, 0xb6, 0x48,
  0x81, 0x50, 0x25, 0xe7, 0x70, 0xd0, 0x04, 0x4e, 0x0f, 0xcc, 0xc5, 0x56,
  0x18, 0x35, 0xe1, 0x50, 0x7f, 0xbb, 0x04, 0xd5, 0xef, 0xd9, 0xbc, 0x42,
  0xe9, 0x9c, 0x3e, 0x34, 0x33, 0xcb, 0xe3, 0x26, 0x7f, 0x03, 0x16, 0x18,
  0x1d, 0xbf, 0x03, 0x57, 0xb4, 0x8e, 0x3b, 0xc9, 0x3e, 0x0f, 0xeb, 0x17,
  0x45, 0xb0, 0x57, 0xf4, 0x0f, 0xbd, 0x73, 0xaf, 0x8a, 0x7f, 0xf9, 0xf3,
  0xcf, 0x31, 0x19, 0xc2, 0x7f, 0x16, 0x3d, 0x1e, 0x21, 0xf7, 0x0c, 0x4e,
  0xda, 0x18, 0x09, 0x0e, 0xfd, 0x2d, 0xdc, 0xee, 0x7f, 0x9a, 0xa7, 0x17,
  0x4d, 0xbb, 0x45, 0x03, 0xf2, 0xda, 0xe8, 0xf0, 0x4c, 0x93, 0xac, 0x69,
  0xbb, 0xbd, 0x62, 0xbf, 0xc8, 0x7f, 0x48, 0xc6, 0xb8, 0x16, 0x08, 0x36,
  0xaa, 0x1d, 0xb6, 0xa8, 0x81, 0x15, 0xb1, 0xe4, 0x2b, 0xd4, 0x1a, 0xab,
  0x25, 0xeb, 0xf9, 0x2e, 0x32, 0x03, 0xce, 0xfe, 0x00, 0x08, 0xe7, 0x48,
  0x81, 0x31, 0x0b, 0x9c, 0xc0, 0x9c, 0x37, 0x4e, 0x3a, 0xd7, 0xb0, 0xae,
  0xe9, 0x23, 0x3d, 0x24, 0x33, 0xd3, 0xa3, 0x7f, 0xd6, 0x2a, 0xf3, 0x44,
  0x44, 0xe7, 0x34, 0xbf, 0x7f, 0x45, 0x57, 0xf4, 0x01, 0x49, 0x39, 0xe0,
  0xce, 0x6e, 0xbe, 0xa3, 0xf1, 0xb0, 0x01, 0xb7, 0x64, 0x0d, 0x01, 0x6f,
  0x08, 0x21, 0x10, 0x67, 0x30, 0x92, 0x09, 0x7e, 0x86, 0x4c, 0xec, 0x7f,
  0x65, 0x54, 0x54, 0xc9, 0xe0, 0xb7, 0x5f, 0x04, 0xa4, 0x62, 0x08, 0x9c,
  0xa1, 0x42, 0xb5, 0x81, 0x30, 0x22, 0xd3, 0x07, 0xb4, 0xf2, 0xd3, 0xfd,
  0xe3, 0xf4, 0x02, 0x13, 0x81, 0x45, 0xf6, 0x90, 0x8e, 0x41, 0x98, 0x1a,
  0x9a, 0x00, 0x90, 0x1e, 0x7f, 0xac, 0x8d, 0x91, 0x84, 0xb7, 0x00, 0xb1,
  0x81, 0x14, 0x17, 0xd3, 0x29, 0x4e, 0x55, 0x20, 0x21, 0xf2, 0xf6, 0xef,
  0x45, 0x1b, 0x11, 0x2a, 0x81, 0x28, 0x86, 0x1d, 0x40, 0xd2, 0x35, 0x99,
  0x6e, 0xa7, 0x2d, 0xb8, 0xe0, 0xcf, 0x20, 0xaf, 0xfe, 0xfc, 0xff, 0xff,
  0x04, 0x00, 0x00, 0x00, 0x80, 0x00, 0x00, 0x00, 0xe8, 0xf8, 0xff, 0xff,
  0x00, 0x00, 0x00, 0x00, 0xe5, 0x15, 0x00, 0x00, 0xac, 0x13, 0x00, 0x00,
  0x71, 0xf8, 0xff, 0xff, 0x26, 0x07, 0x00, 0x00, 0x78, 0x0c, 0x00, 0x00,
  0x95, 0x03, 0x00, 0x00, 0x4c, 0xf2, 0xff, 0xff, 0xe4, 0xfe, 0xff, 0xff,
  0x80, 0x02, 0x00, 0x00, 0x60, 0x1d, 0x00, 0x00, 0xfb, 0xff, 0xff, 0xff,
  0xe8, 0x05, 0x00, 0x00, 0x46, 0xff, 0xff, 0xff, 0xb2, 0xf8, 0xff, 0xff,
  0x93, 0xfd, 0xff, 0xff, 0x91, 0xff, 0xff, 0xff, 0xbb, 0x0b, 0x00, 0x00,
  0xdc, 0xf7, 0xff, 0xff, 0xc8, 0xf7, 0xff, 0xff, 0xf3, 0x31, 0x00, 0x00,
  0xa6, 0x01, 0x00, 0x00, 0xb6, 0x07, 0x00, 0x00, 0x30, 0xed, 0xff, 0xff,
  0xb9, 0x09, 0x00, 0x00, 0x12, 0xf1, 0xff, 0xff, 0x10, 0x05, 0x00, 0x00,
  0x11, 0xfc, 0xff, 0xff, 0xb4, 0x00, 0x00, 0x00, 0x50, 0xfe, 0xff, 0xff,
  0x56, 0xff, 0xff, 0xff, 0x8a, 0xfd, 0xff, 0xff, 0x04, 0x00, 0x00, 0x00,
  0x00, 0x02, 0x00, 0x00, 0xd5, 0xea, 0xbc, 0xd5, 0x0f, 0x77, 0xb3, 0x05,
  0x5d, 0xc5, 0x9d, 0xb0, 0xd5, 0xd3, 0xf8, 0xd6, 0xb1, 0xd7, 0x2c, 0x16,
  0x55, 0xaa, 0xea, 0x6b, 0x1a, 0x55, 0x5d, 0x7f, 0x3a, 0x29, 0xd6, 0xa0,
  0x11, 0x47, 0x01, 0xd5, 0x22, 0x4d, 0x3b, 0x2d, 0x01, 0xdc, 0xf4, 0xd3,
  0xbe, 0x5e, 0x0d, 0xcd, 0xf8, 0xba, 0xf9, 0xa8, 0xcd, 0x7b, 0x37, 0x30,
  0xcf, 0xb0, 0x4a, 0x81, 0x20, 0xe1, 0xaa, 0x3f, 0xc2, 0xf4, 0x2f, 0xdd,
  0xf2, 0xdb, 0x45, 0x81, 0xf8, 0xf9, 0xf2, 0xef, 0x0b, 0xb5, 0x25, 0xd0,
  0xfe, 0xfd, 0x1b, 0x08, 0xfc, 0x2b, 0x0b, 0xcb, 0x37, 0x1a, 0xa3, 0x58,
  0xb9, 0x3d, 0x16, 0xdd, 0x2b, 0xd5, 0x2e, 0x56, 0xfb, 0x34, 0x56, 0xda,
  0xf5, 0xc9, 0x00, 0xcd, 0x36, 0xc9, 0xde, 0xf4, 0xdd, 0xf8, 0xf7, 0x1a,
  0x2f, 0x81, 0x18, 0x1f, 0x1d, 0xe8, 0x21, 0x1f, 0x27, 0x2b, 0x16, 0xf4,
  0x01, 0xff, 0x5f, 0x75, 0x25, 0xa2, 0x4f, 0xf4, 0xbd, 0xd9, 0x50, 0x92,
  0xbc, 0xf9, 0x1d, 0xd3, 0x08, 0xdc, 0xa9, 0x57, 0x7f, 0x91, 0xb2, 0x6c,
  0x6c, 0x83, 0x77, 0x53, 0xda, 0x62, 0xab, 0x2e, 0x17, 0xcb, 0x3d, 0xc2,
  0x20, 0x22, 0x03, 0xde, 0x13, 0xed, 0xd8, 0x2b, 0xf0, 0xef, 0x2a, 0x18,
  0xd8, 0xec, 0x02, 0x0e, 0x20, 0x7f, 0x27, 0x0a, 0xe8, 0xda, 0x18, 0xf9,
  0x1a, 0x33, 0x03, 0x1e, 0x95, 0x04, 0x0f, 0xff, 0x81, 0xf2, 0x60, 0xe9,
  0xb4, 0x33, 0x49, 0x18, 0x5a, 0xb3, 0xb4, 0xde, 0x0e, 0x5f, 0x1c, 0xd5,
  0xb0, 0x3b, 0xf0, 0x04, 0x89, 0x4b, 0x16, 0x1e, 0xe4, 0x9a, 0xd7, 0xca,
  0x23, 0xb7, 0x32, 0x49, 0x89, 0xe8, 0xe5, 0x95, 0xb2, 0x3f, 0x81, 0x57,
  0x23, 0xb4, 0xbd, 0xba, 0xaf, 0xef, 0x04, 0xde, 0x59, 0xe7, 0xc1, 0xd2,
  0x3c, 0x07, 0xba, 0x0c, 0x97, 0xeb, 0xcc, 0x3b, 0xc9, 0x53, 0x55, 0xc5,
  0x48, 0x56, 0xd9, 0x40, 0xf1, 0x4a, 0xd9, 0x12, 0x2d, 0x60, 0xf4, 0xee,
  0x0f, 0xcc, 0xb3, 0x81, 0x32, 0x2c, 0x3c, 0x2e, 0x3a, 0x06, 0xfc, 0x09,
  0x40, 0xcb, 0x1e, 0xdb, 0x1a, 0xeb, 0x0e, 0x5d, 0xfc, 0x05, 0xd6, 0x2d,
  0xf3, 0x13, 0x11, 0x02, 0x22, 0xfc, 0x1c, 0x1b, 0x15, 0xf5, 0x0b, 0x0b,
  0x37, 0x81, 0xe1, 0x20, 0x0e, 0xfa, 0xe7, 0x0f, 0x25, 0x14, 0x06, 0xd6,
  0xde, 0x07, 0x2e, 0xb5, 0xe6, 0x2f, 0xa4, 0x3a, 0xfb, 0xc8, 0x4e, 0xd4,
  0xdf, 0x34, 0xa9, 0xd1, 0x51, 0xc0, 0x56, 0xe9, 0xe6, 0x56, 0x14, 0x21,
  0xeb, 0xb5, 0xd1, 0x81, 0x3a, 0x13, 0x3a, 0xf8, 0xc8, 0xe4, 0x36, 0x42,
  0x46, 0xea, 0x51, 0xa6, 0x81, 0x94, 0x27, 0x5c, 0xa0, 0x7e, 0x33, 0x24,
  0xa6, 0x0a, 0xcd, 0xfd, 0x54, 0x41, 0x35, 0xd6, 0xc7, 0xce, 0x6f, 0x88,
  0x73, 0x34, 0x63, 0xa1, 0x2d, 0xda, 0xeb, 0x5f, 0x22, 0x16, 0x15, 0xe7,
  0x24, 0xf8, 0x11, 0xdd, 0x1c, 0x14, 0xf8, 0xeb, 0x29, 0x30, 0xf5, 0x18,
  0x13, 0x81, 0xf3, 0xe8, 0x0c, 0xf6, 0x22, 0xf8, 0xe5, 0xf2, 0xe2, 0x13,
  0xa1, 0xe7, 0xab, 0x03, 0xd2, 0xcb, 0xf7, 0x8e, 0x0d, 0x56, 0x3d, 0x43,
  0x48, 0x1c, 0x9c, 0xcb, 0xcd, 0xc1, 0xf9, 0x1c, 0x41, 0x61, 0x8d, 0x81,
  0x33, 0x81, 0x6b, 0x04, 0xa2, 0x6b, 0x10, 0x67, 0xc5, 0x27, 0x28, 0x7f,
  0xd6, 0x26, 0x02, 0x10, 0xaa, 0xb2, 0x6a, 0x4d, 0xda, 0x22, 0x2b, 0xaa,
  0x09, 0x22, 0xaf, 0xfb, 0xd3, 0x4f, 0xdb, 0x36, 0xc0, 0xd7, 0xdb, 0xb1,
  0x0e, 0x2b, 0xde, 0xfd, 0xcf, 0x3d, 0xea, 0xfc, 0xc7, 0xb4, 0x61, 0x8e,
  0xd5, 0xd9, 0xa2, 0x7f, 0xd4, 0x86, 0xb5, 0x15, 0x49, 0x02, 0x63, 0x7d,
  0xbf, 0x3b, 0xa8, 0xbe, 0xd8, 0x3c, 0xec, 0xe5, 0xbb, 0xa2, 0xb6, 0xdf,
  0x96, 0xff, 0xff, 0xff, 0x04, 0x00, 0x00, 0x00, 0x40, 0x00, 0x00, 0x00,
  0x1c, 0xff, 0xff, 0xff, 0x38, 0x02, 0x00, 0x00, 0x16, 0x04, 0x00, 0x00,
  0x7a, 0xfe, 0xff, 0xff, 0xd1, 0xfc, 0xff, 0xff, 0xd0, 0x01, 0x00, 0x00,
  0x7f, 0x01, 0x00, 0x00, 0xd4, 0xfa, 0xff, 0xff, 0xe9, 0x01, 0x00, 0x00,
  0x8d, 0xfe, 0xff, 0xff, 0x55, 0x02, 0x00, 0x00, 0x8b, 0x05, 0x00, 0x00,
  0xb8, 0xfe, 0xff, 0xff, 0xd3, 0xfe, 0xff, 0xff, 0x44, 0x0d, 0x00, 0x00,
  0x8e, 0x09, 0x00, 0x00, 0xe2, 0xff, 0xff, 0xff, 0x04, 0x00, 0x00, 0x00,
  0x10, 0x00, 0x00, 0x00, 0x1d, 0xb4, 0xcf, 0x3a, 0x41, 0xdd, 0xc3, 0x4a,
  0x99, 0x48, 0xc8, 0xfa, 0x53, 0xde, 0x7f, 0xce, 0x00, 0x00, 0x06, 0x00,
  0x08, 0x00, 0x04, 0x00, 0x06, 0x00, 0x00, 0x00, 0x04, 0x00, 0x00, 0x00,
  0x04, 0x00, 0x00, 0x00, 0x6b, 0xfd, 0xff, 0xff, 0xec, 0xee, 0xff, 0xff,
  0xf0, 0xee, 0xff, 0xff, 0x0f, 0x00, 0x00, 0x00, 0x4d, 0x4c, 0x49, 0x52,
  0x20, 0x43, 0x6f, 0x6e, 0x76, 0x65, 0x72, 0x74, 0x65, 0x64, 0x2e, 0x00,
  0x01, 0x00, 0x00, 0x00, 0x14, 0x00, 0x00, 0x00, 0x00, 0x00, 0x0e, 0x00,
  0x18, 0x00, 0x14, 0x00, 0x10, 0x00, 0x0c, 0x00, 0x08, 0x00, 0x04, 0x00,
  0x0e, 0x00, 0x00, 0x00, 0x14, 0x00, 0x00, 0x00, 0x1c, 0x00, 0x00, 0x00,
  0xb8, 0x01, 0x00, 0x00, 0xbc, 0x01, 0x00, 0x00, 0xc0, 0x01, 0x00, 0x00,
  0x04, 0x00, 0x00, 0x00, 0x6d, 0x61, 0x69, 0x6e, 0x00, 0x00, 0x00, 0x00,
  0x07, 0x00, 0x00, 0x00, 0x80, 0x01, 0x00, 0x00, 0x30, 0x01, 0x00, 0x00,
  0xe4, 0x00, 0x00, 0x00, 0xa8, 0x00, 0x00, 0x00, 0x6c, 0x00, 0x00, 0x00,
  0x34, 0x00, 0x00, 0x00, 0x10, 0x00, 0x00, 0x00, 0x00, 0x00, 0x0a, 0x00,
  0x10, 0x00, 0x0c, 0x00, 0x08, 0x00, 0x04, 0x00, 0x0a, 0x00, 0x00, 0x00,
  0x0c, 0x00, 0x00, 0x00, 0x10, 0x00, 0x00, 0x00, 0x02, 0x00, 0x00, 0x00,
  0x01, 0x00, 0x00, 0x00, 0x11, 0x00, 0x00, 0x00, 0x01, 0x00, 0x00, 0x00,
  0x10, 0x00, 0x00, 0x00, 0x22, 0xff, 0xff, 0xff, 0x14, 0x00, 0x00, 0x00,
  0x00, 0x00, 0x00, 0x08, 0x10, 0x00, 0x00, 0x00, 0x14, 0x00, 0x00, 0x00,
  0x01, 0x00, 0x00, 0x00, 0xa8, 0xef, 0xff, 0xff, 0x01, 0x00, 0x00, 0x00,
  0x10, 0x00, 0x00, 0x00, 0x03, 0x00, 0x00, 0x00, 0x0f, 0x00, 0x00, 0x00,
  0x02, 0x00, 0x00, 0x00, 0x01, 0x00, 0x00, 0x00, 0x56, 0xff, 0xff, 0xff,
  0x14, 0x00, 0x00, 0x00, 0x00, 0x00, 0x00, 0x08, 0x14, 0x00, 0x00, 0x00,
  0x18, 0x00, 0x00, 0x00, 0x01, 0x00, 0x00, 0x00, 0x46, 0xff, 0xff, 0xff,
  0x00, 0x00, 0x00, 0x01, 0x01, 0x00, 0x00, 0x00, 0x0f, 0x00, 0x00, 0x00,
  0x03, 0x00, 0x00, 0x00, 0x0e, 0x00, 0x00, 0x00, 0x04, 0x00, 0x00, 0x00,
  0x03, 0x00, 0x00, 0x00, 0x8e, 0xff, 0xff, 0xff, 0x14, 0x00, 0x00, 0x00,
  0x00, 0x00, 0x00, 0x08, 0x14, 0x00, 0x00, 0x00, 0x18, 0x00, 0x00, 0x00,
  0x01, 0x00, 0x00, 0x00, 0x7e, 0xff, 0xff, 0xff, 0x00, 0x00, 0x00, 0x01,
  0x01, 0x00, 0x00, 0x00, 0x0e, 0x00, 0x00, 0x00, 0x03, 0x00, 0x00, 0x00,
  0x0d, 0x00, 0x00, 0x00, 0x06, 0x00, 0x00, 0x00, 0x05, 0x00, 0x00, 0x00,
  0xc6, 0xff, 0xff, 0xff, 0x14, 0x00, 0x00, 0x00, 0x00, 0x00, 0x00, 0x08,
  0x14, 0x00, 0x00, 0x00, 0x18, 0x00, 0x00, 0x00, 0x01, 0x00, 0x00, 0x00,
  0xb6, 0xff, 0xff, 0xff, 0x00, 0x00, 0x00, 0x01, 0x01, 0x00, 0x00, 0x00,
  0x0d, 0x00, 0x00, 0x00, 0x03, 0x00, 0x00, 0x00, 0x0c, 0x00, 0x00, 0x00,
  0x08, 0x00, 0x00, 0x00, 0x07, 0x00, 0x00, 0x00, 0x00, 0x00, 0x0e, 0x00,
  0x1a, 0x00, 0x14, 0x00, 0x10, 0x00, 0x0c, 0x00, 0x0b, 0x00, 0x04, 0x00,
  0x0e, 0x00, 0x00, 0x00, 0x1c, 0x00, 0x00, 0x00, 0x00, 0x00, 0x00, 0x08,
  0x1c, 0x00, 0x00, 0x00, 0x20, 0x00, 0x00, 0x00, 0x01, 0x00, 0x00, 0x00,
  0x00, 0x00, 0x06, 0x00, 0x08, 0x00, 0x07, 0x00, 0x06, 0x00, 0x00, 0x00,
  0x00, 0x00, 0x00, 0x01, 0x01, 0x00, 0x00, 0x00, 0x0c, 0x00, 0x00, 0x00,
  0x03, 0x00, 0x00, 0x00, 0x0b, 0x00, 0x00, 0x00, 0x0a, 0x00, 0x00, 0x00,
  0x09, 0x00, 0x00, 0x00, 0x00, 0x00, 0x0a, 0x00, 0x0c, 0x00, 0x00, 0x00,
  0x08, 0x00, 0x04, 0x00, 0x0a, 0x00, 0x00, 0x00, 0x08, 0x00, 0x00, 0x00,
  0x0c, 0x00, 0x00, 0x00, 0x01, 0x00, 0x00, 0x00, 0x0b, 0x00, 0x00, 0x00,
  0x01, 0x00, 0x00, 0x00, 0x00, 0x00, 0x00, 0x00, 0x01, 0x00, 0x00, 0x00,
  0x11, 0x00, 0x00, 0x00, 0x01, 0x00, 0x00, 0x00, 0x00, 0x00, 0x00, 0x00,
  0x12, 0x00, 0x00, 0x00, 0xe0, 0x0e, 0x00, 0x00, 0x58, 0x0e, 0x00, 0x00,
  0xd8, 0x0d, 0x00, 0x00, 0xc4, 0x0c, 0x00, 0x00, 0xa8, 0x0b, 0x00, 0x00,
  0xd4, 0x09, 0x00, 0x00, 0xf8, 0x07, 0x00, 0x00, 0xe4, 0x06, 0x00, 0x00,
  0xc8, 0x05, 0x00, 0x00, 0x14, 0x05, 0x00, 0x00, 0x58, 0x04, 0x00, 0x00,
  0xe4, 0x03, 0x00, 0x00, 0x18, 0x03, 0x00, 0x00, 0x5c, 0x02, 0x00, 0x00,
  0xa0, 0x01, 0x00, 0x00, 0xe4, 0x00, 0x00, 0x00, 0x60, 0x00, 0x00, 0x00,
  0x04, 0x00, 0x00, 0x00, 0x7e, 0xf1, 0xff, 0xff, 0x00, 0x00, 0x00, 0x01,
  0x14, 0x00, 0x00, 0x00, 0x1c, 0x00, 0x00, 0x00, 0x1c, 0x00, 0x00, 0x00,
  0x12, 0x00, 0x00, 0x00, 0x34, 0x00, 0x00, 0x00, 0x02, 0x00, 0x00, 0x00,
  0xff, 0xff, 0xff, 0xff, 0x01, 0x00, 0x00, 0x00, 0x68, 0xf1, 0xff, 0xff,
  0x1b, 0x00, 0x00, 0x00, 0x53, 0x74, 0x61, 0x74, 0x65, 0x66, 0x75, 0x6c,
  0x50, 0x61, 0x72, 0x74, 0x69, 0x74, 0x69, 0x6f, 0x6e, 0x65, 0x64, 0x43,
  0x61, 0x6c, 0x6c, 0x5f, 0x31, 0x3a, 0x30, 0x00, 0x02, 0x00, 0x00, 0x00,
  0x01, 0x00, 0x00, 0x00, 0x01, 0x00, 0x00, 0x00, 0xa6, 0xfc, 0xff, 0xff,
  0x00, 0x00, 0x00, 0x01, 0x18, 0x00, 0x00, 0x00, 0x20, 0x00, 0x00, 0x00,
  0x40, 0x00, 0x00, 0x00, 0x11, 0x00, 0x00, 0x00, 0x00, 0x00, 0x00, 0x09,
  0x58, 0x00, 0x00, 0x00, 0x02, 0x00, 0x00, 0x00, 0xff, 0xff, 0xff, 0xff,
  0x01, 0x00, 0x00, 0x00, 0x54, 0xf2, 0xff, 0xff, 0x08, 0x00, 0x00, 0x00,
  0x14, 0x00, 0x00, 0x00, 0x01, 0x00, 0x00, 0x00, 0x01, 0x00, 0x00, 0x00,
  0x00, 0x00, 0x00, 0x00, 0x00, 0x00, 0x00, 0x00, 0x01, 0x00, 0x00, 0x00,
  0x73, 0x77, 0x02, 0x3c, 0x1c, 0x00, 0x00, 0x00, 0x53, 0x74, 0x61, 0x74,
  0x65, 0x66, 0x75, 0x6c, 0x50, 0x61, 0x72, 0x74, 0x69, 0x74, 0x69, 0x6f,
  0x6e, 0x65, 0x64, 0x43, 0x61, 0x6c, 0x6c, 0x5f, 0x31, 0x3a, 0x30, 0x31,
  0x00, 0x00, 0x00, 0x00, 0x02, 0x00, 0x00, 0x00, 0x01, 0x00, 0x00, 0x00,
  0x01, 0x00, 0x00, 0x00, 0x26, 0xfd, 0xff, 0xff, 0x00, 0x00, 0x00, 0x01,
  0x18, 0x00, 0x00, 0x00, 0x20, 0x00, 0x00, 0x00, 0x3c, 0x00, 0x00, 0x00,
  0x10, 0x00, 0x00, 0x00, 0x00, 0x00, 0x00, 0x09, 0x90, 0x00, 0x00, 0x00,
  0x02, 0x00, 0x00, 0x00, 0xff, 0xff, 0xff, 0xff, 0x10, 0x00, 0x00, 0x00,
  0xd4, 0xf2, 0xff, 0xff, 0x08, 0x00, 0x00, 0x00, 0x10, 0x00, 0x00, 0x00,
  0x01, 0x00, 0x00, 0x00, 0x80, 0xff, 0xff, 0xff, 0xff, 0xff, 0xff, 0xff,
  0x01, 0x00, 0x00, 0x00, 0x43, 0xe2, 0xfa, 0x3b, 0x58, 0x00, 0x00, 0x00,
  0x73, 0x65, 0x71, 0x75, 0x65, 0x6e, 0x74, 0x69, 0x61, 0x6c, 0x5f, 0x31,
  0x2f, 0x64, 0x65, 0x6e, 0x73, 0x65, 0x5f, 0x33, 0x5f, 0x31, 0x2f, 0x4d,
  0x61, 0x74, 0x4d, 0x75, 0x6c, 0x3b, 0x73, 0x65, 0x71, 0x75, 0x65, 0x6e,
  0x74, 0x69, 0x61, 0x6c, 0x5f, 0x31, 0x2f, 0x64, 0x65, 0x6e, 0x73, 0x65,
  0x5f, 0x33, 0x5f, 0x31, 0x2f, 0x52, 0x65, 0x6c, 0x75, 0x3b, 0x73, 0x65,
  0x71, 0x75, 0x65, 0x6e, 0x74, 0x69, 0x61, 0x6c, 0x5f, 0x31, 0x2f, 0x64,
  0x65, 0x6e, 0x73, 0x65, 0x5f, 0x33, 0x5f, 0x31, 0x2f, 0x42, 0x69, 0x61,
  0x73, 0x41, 0x64, 0x64, 0x00, 0x00, 0x00, 0x00, 0x02, 0x00, 0x00, 0x00,
  0x01, 0x00, 0x00, 0x00, 0x10, 0x00, 0x00, 0x00, 0xde, 0xfd, 0xff, 0xff,
  0x00, 0x00, 0x00, 0x01, 0x18, 0x00, 0x00, 0x00, 0x20, 0x00, 0x00, 0x00,
  0x3c, 0x00, 0x00, 0x00, 0x0f, 0x00, 0x00, 0x00, 0x00, 0x00, 0x00, 0x09,
  0x90, 0x00, 0x00, 0x00, 0x02, 0x00, 0x00, 0x00, 0xff, 0xff, 0xff, 0xff,
  0x20, 0x00, 0x00, 0x00, 0x8c, 0xf3, 0xff, 0xff, 0x08, 0x00, 0x00, 0x00,
  0x10, 0x00, 0x00, 0x00, 0x01, 0x00, 0x00, 0x00, 0x80, 0xff, 0xff, 0xff,
  0xff, 0xff, 0xff, 0xff, 0x01, 0x00, 0x00, 0x00, 0x4f, 0xa6, 0x2d, 0x3c,
  0x58, 0x00, 0x00, 0x00, 0x73, 0x65, 0x71, 0x75, 0x65, 0x6e, 0x74, 0x69,
  0x61, 0x6c, 0x5f, 0x31, 0x2f, 0x64, 0x65, 0x6e, 0x73, 0x65, 0x5f, 0x32,
  0x5f, 0x31, 0x2f, 0x4d, 0x61, 0x74, 0x4d, 0x75, 0x6c, 0x3b, 0x73, 0x65,
  0x71, 0x75, 0x65, 0x6e, 0x74, 0x69, 0x61, 0x6c, 0x5f, 0x31, 0x2f, 0x64,
  0x65, 0x6e, 0x73, 0x65, 0x5f, 0x32, 0x5f, 0x31, 0x2f, 0x52, 0x65, 0x6c,
  0x75, 0x3b, 0x73, 0x65, 0x71, 0x75, 0x65, 0x6e, 0x74, 0x69, 0x61, 0x6c,
  0x5f, 0x31, 0x2f, 0x64, 0x65, 0x6e, 0x73, 0x65, 0x5f, 0x32, 0x5f, 0x31,
  0x2f, 0x42, 0x69, 0x61, 0x73, 0x41, 0x64, 0x64, 0x00, 0x00, 0x00, 0x00,
  0x02, 0x00, 0x00, 0x00, 0x01, 0x00, 0x00, 0x00, 0x20, 0x00, 0x00, 0x00,
  0x96, 0xfe, 0xff, 0xff, 0x00, 0x00, 0x00, 0x01, 0x18, 0x00, 0x00, 0x00,
  0x20, 0x00, 0x00, 0x00, 0x3c, 0x00, 0x00, 0x00, 0x0e, 0x00, 0x00, 0x00,
  0x00, 0x00, 0x00, 0x09, 0x90, 0x00, 0x00, 0x00, 0x02, 0x00, 0x00, 0x00,
  0xff, 0xff, 0xff, 0xff, 0x10, 0x00, 0x00, 0x00, 0x44, 0xf4, 0xff, 0xff,
  0x08, 0x00, 0x00, 0x00, 0x10, 0x00, 0x00, 0x00, 0x01, 0x00, 0x00, 0x00,
  0x80, 0xff, 0xff, 0xff, 0xff, 0xff, 0xff, 0xff, 0x01, 0x00, 0x00, 0x00,
  0xb0, 0x20, 0x46, 0x3c, 0x58, 0x00, 0x00, 0x00, 0x73, 0x65, 0x71, 0x75,
  0x65, 0x6e, 0x74, 0x69, 0x61, 0x6c, 0x5f, 0x31, 0x2f, 0x64, 0x65, 0x6e,
  0x73, 0x65, 0x5f, 0x31, 0x5f, 0x32, 0x2f, 0x4d, 0x61, 0x74, 0x4d, 0x75,
  0x6c, 0x3b, 0x73, 0x65, 0x71, 0x75, 0x65, 0x6e, 0x74, 0x69, 0x61, 0x6c,
  0x5f, 0x31, 0x2f, 0x64, 0x65, 0x6e, 0x73, 0x65, 0x5f, 0x31, 0x5f, 0x32,
  0x2f, 0x52, 0x65, 0x6c, 0x75, 0x3b, 0x73, 0x65, 0x71, 0x75, 0x65, 0x6e,
  0x74, 0x69, 0x61, 0x6c, 0x5f, 0x31, 0x2f, 0x64, 0x65, 0x6e, 0x73, 0x65,
  0x5f, 0x31, 0x5f, 0x32, 0x2f, 0x42, 0x69, 0x61, 0x73, 0x41, 0x64, 0x64,
  0x00, 0x00, 0x00, 0x00, 0x02, 0x00, 0x00, 0x00, 0x01, 0x00, 0x00, 0x00,
  0x10, 0x00, 0x00, 0x00, 0x4e, 0xff, 0xff, 0xff, 0x00, 0x00, 0x00, 0x01,
  0x18, 0x00, 0x00, 0x00, 0x20, 0x00, 0x00, 0x00, 0x3c, 0x00, 0x00, 0x00,
  0x0d, 0x00, 0x00, 0x00, 0x00, 0x00, 0x00, 0x09, 0x88, 0x00, 0x00, 0x00,
  0x02, 0x00, 0x00, 0x00, 0xff, 0xff, 0xff, 0xff, 0x08, 0x00, 0x00, 0x00,
  0xfc, 0xf4, 0xff, 0xff, 0x08, 0x00, 0x00, 0x00, 0x10, 0x00, 0x00, 0x00,
  0x01, 0x00, 0x00, 0x00, 0x80, 0xff, 0xff, 0xff, 0xff, 0xff, 0xff, 0xff,
  0x01, 0x00, 0x00, 0x00, 0xd0, 0x1e, 0x87, 0x3c, 0x52, 0x00, 0x00, 0x00,
  0x73, 0x65, 0x71, 0x75, 0x65, 0x6e, 0x74, 0x69, 0x61, 0x6c, 0x5f, 0x31,
  0x2f, 0x64, 0x65, 0x6e, 0x73, 0x65, 0x5f, 0x31, 0x2f, 0x4d, 0x61, 0x74,
  0x4d, 0x75, 0x6c, 0x3b, 0x73, 0x65, 0x71, 0x75, 0x65, 0x6e, 0x74, 0x69,
  0x61, 0x6c, 0x5f, 0x31, 0x2f, 0x64, 0x65, 0x6e, 0x73, 0x65, 0x5f, 0x31,
  0x2f, 0x52, 0x65, 0x6c, 0x75, 0x3b, 0x73, 0x65, 0x71, 0x75, 0x65, 0x6e,
  0x74, 0x69, 0x61, 0x6c, 0x5f, 0x31, 0x2f, 0x64, 0x65, 0x6e, 0x73, 0x65,
  0x5f, 0x31, 0x2f, 0x42, 0x69, 0x61, 0x73, 0x41, 0x64, 0x64, 0x00, 0x00,
  0x02, 0x00, 0x00, 0x00, 0x01, 0x00, 0x00, 0x00, 0x08, 0x00, 0x00, 0x00,
  0x00, 0x00, 0x16, 0x00, 0x20, 0x00, 0x1c, 0x00, 0x1b, 0x00, 0x14, 0x00,
  0x10, 0x00, 0x0c, 0x00, 0x00, 0x00, 0x00, 0x00, 0x08, 0x00, 0x07, 0x00,
  0x16, 0x00, 0x00, 0x00, 0x00, 0x00, 0x00, 0x01, 0x18, 0x00, 0x00, 0x00,
  0x20, 0x00, 0x00, 0x00, 0x40, 0x00, 0x00, 0x00, 0x0c, 0x00, 0x00, 0x00,
  0x00, 0x00, 0x00, 0x09, 0x48, 0x00, 0x00, 0x00, 0x02, 0x00, 0x00, 0x00,
  0xff, 0xff, 0xff, 0xff, 0x01, 0x00, 0x00, 0x00, 0xc4, 0xf5, 0xff, 0xff,
  0x08, 0x00, 0x00, 0x00, 0x14, 0x00, 0x00, 0x00, 0x01, 0x00, 0x00, 0x00,
  0x80, 0xff, 0xff, 0xff, 0xff, 0xff, 0xff, 0xff, 0x00, 0x00, 0x00, 0x00,
  0x01, 0x00, 0x00, 0x00, 0x0d, 0xe2, 0xc7, 0x3c, 0x0c, 0x00, 0x00, 0x00,
  0x74, 0x66, 0x6c, 0x2e, 0x71, 0x75, 0x61, 0x6e, 0x74, 0x69, 0x7a, 0x65,
  0x00, 0x00, 0x00, 0x00, 0x02, 0x00, 0x00, 0x00, 0x01, 0x00, 0x00, 0x00,
  0x01, 0x00, 0x00, 0x00, 0x3a, 0xf6, 0xff, 0xff, 0x00, 0x00, 0x00, 0x01,
  0x14, 0x00, 0x00, 0x00, 0x88, 0x00, 0x00, 0x00, 0x0b, 0x00, 0x00, 0x00,
  0x00, 0x00, 0x00, 0x09, 0x94, 0x00, 0x00, 0x00, 0x24, 0xf6, 0xff, 0xff,
  0x08, 0x00, 0x00, 0x00, 0x4c, 0x00, 0x00, 0x00, 0x08, 0x00, 0x00, 0x00,
  0x00, 0x00, 0x00, 0x00, 0x00, 0x00, 0x00, 0x00, 0x00, 0x00, 0x00, 0x00,
  0x00, 0x00, 0x00, 0x00, 0x00, 0x00, 0x00, 0x00, 0x00, 0x00, 0x00, 0x00,
  0x00, 0x00, 0x00, 0x00, 0x00, 0x00, 0x00, 0x00, 0x00, 0x00, 0x00, 0x00,
  0x00, 0x00, 0x00, 0x00, 0x00, 0x00, 0x00, 0x00, 0x00, 0x00, 0x00, 0x00,
  0x00, 0x00, 0x00, 0x00, 0x00, 0x00, 0x00, 0x00, 0x00, 0x00, 0x00, 0x00,
  0x00, 0x00, 0x00, 0x00, 0x00, 0x00, 0x00, 0x00, 0x08, 0x00, 0x00, 0x00,
  0x54, 0x5f, 0xad, 0x3b, 0x93, 0x0f, 0xa3, 0x3b, 0x22, 0xa7, 0x5c, 0x3b,
  0x33, 0xc4, 0x73, 0x3a, 0x83, 0xce, 0xdb, 0x3a, 0x1a, 0xc2, 0x93, 0x3b,
  0x16, 0xab, 0x09, 0x39, 0x46, 0xe5, 0x7e, 0x3b, 0x12, 0x00, 0x00, 0x00,
  0x74, 0x66, 0x6c, 0x2e, 0x70, 0x73, 0x65, 0x75, 0x64, 0x6f, 0x5f, 0x71,
  0x63, 0x6f, 0x6e, 0x73, 0x74, 0x39, 0x00, 0x00, 0x02, 0x00, 0x00, 0x00,
  0x08, 0x00, 0x00, 0x00, 0x01, 0x00, 0x00, 0x00, 0xf2, 0xf6, 0xff, 0xff,
  0x00, 0x00, 0x00, 0x01, 0x14, 0x00, 0x00, 0x00, 0x84, 0x00, 0x00, 0x00,
  0x0a, 0x00, 0x00, 0x00, 0x00, 0x00, 0x00, 0x02, 0x90, 0x00, 0x00, 0x00,
  0xdc, 0xf6, 0xff, 0xff, 0x08, 0x00, 0x00, 0x00, 0x48, 0x00, 0x00, 0x00,
  0x08, 0x00, 0x00, 0x00, 0x00, 0x00, 0x00, 0x00, 0x00, 0x00, 0x00, 0x00,
  0x00, 0x00, 0x00, 0x00, 0x00, 0x00, 0x00, 0x00, 0x00, 0x00, 0x00, 0x00,
  0x00, 0x00, 0x00, 0x00, 0x00, 0x00, 0x00, 0x00, 0x00, 0x00, 0x00, 0x00,
  0x00, 0x00, 0x00, 0x00, 0x00, 0x00, 0x00, 0x00, 0x00, 0x00, 0x00, 0x00,
  0x00, 0x00, 0x00, 0x00, 0x00, 0x00, 0x00, 0x00, 0x00, 0x00, 0x00, 0x00,
  0x00, 0x00, 0x00, 0x00, 0x00, 0x00, 0x00, 0x00, 0x08, 0x00, 0x00, 0x00,
  0x31, 0x5e, 0x07, 0x39, 0x2f, 0xa2, 0xfe, 0x38, 0xc2, 0x48, 0xac, 0x38,
  0xc3, 0x54, 0xbe, 0x37, 0x9f, 0x9f, 0x2b, 0x38, 0xb6, 0xbc, 0xe6, 0x38,
  0x1c, 0xfb, 0x56, 0x36, 0x4d, 0x05, 0xc7, 0x38, 0x12, 0x00, 0x00, 0x00,
  0x74, 0x66, 0x6c, 0x2e, 0x70, 0x73, 0x65, 0x75, 0x64, 0x6f, 0x5f, 0x71,
  0x63, 0x6f, 0x6e, 0x73, 0x74, 0x38, 0x00, 0x00, 0x01, 0x00, 0x00, 0x00,
  0x08, 0x00, 0x00, 0x00, 0xa2, 0xf7, 0xff, 0xff, 0x00, 0x00, 0x00, 0x01,
  0x14, 0x00, 0x00, 0x00, 0xe8, 0x00, 0x00, 0x00, 0x09, 0x00, 0x00, 0x00,
  0x00, 0x00, 0x00, 0x09, 0xf4, 0x00, 0x00, 0x00, 0x8c, 0xf7, 0xff, 0xff,
  0x08, 0x00, 0x00, 0x00, 0x8c, 0x00, 0x00, 0x00, 0x10, 0x00, 0x00, 0x00,
  0x00, 0x00, 0x00, 0x00, 0x00, 0x00, 0x00, 0x00, 0x00, 0x00, 0x00, 0x00,
  0x00, 0x00, 0x00, 0x00, 0x00, 0x00, 0x00, 0x00, 0x00, 0x00, 0x00, 0x00,
  0x00, 0x00, 0x00, 0x00, 0x00, 0x00, 0x00, 0x00, 0x00, 0x00, 0x00, 0x00,
  0x00, 0x00, 0x00, 0x00, 0x00, 0x00, 0x00, 0x00, 0x00, 0x00, 0x00, 0x00,
  0x00, 0x00, 0x00, 0x00, 0x00, 0x00, 0x00, 0x00, 0x00, 0x00, 0x00, 0x00,
  0x00, 0x00, 0x00, 0x00, 0x00, 0x00, 0x00, 0x00, 0x00, 0x00, 0x00, 0x00,
  0x00, 0x00, 0x00, 0x00, 0x00, 0x00, 0x00, 0x00, 0x00, 0x00, 0x00, 0x00,
  0x00, 0x00, 0x00, 0x00, 0x00, 0x00, 0x00, 0x00, 0x00, 0x00, 0x00, 0x00,
  0x00, 0x00, 0x00, 0x00, 0x00, 0x00, 0x00, 0x00, 0x00, 0x00, 0x00, 0x00,
  0x00, 0x00, 0x00, 0x00, 0x00, 0x00, 0x00, 0x00, 0x00, 0x00, 0x00, 0x00,
  0x00, 0x00, 0x00, 0x00, 0x00, 0x00, 0x00, 0x00, 0x00, 0x00, 0x00, 0x00,
  0x10, 0x00, 0x00, 0x00, 0x59, 0x96, 0x83, 0x3b, 0x8e, 0xe8, 0x56, 0x3b,
  0x65, 0x7a, 0x3a, 0x3b, 0x6f, 0xb5, 0x7a, 0x3b, 0xf2, 0x00, 0x91, 0x3b,
  0xc1, 0x29, 0x80, 0x3b, 0x0a, 0x93, 0x79, 0x3b, 0x01, 0x49, 0x85, 0x3b,
  0x5a, 0x6d, 0x55, 0x3b, 0x3d, 0xdc, 0x79, 0x3b, 0x42, 0x4f, 0x63, 0x3b,
  0xcf, 0x6c, 0x83, 0x3b, 0x67, 0x8b, 0x6f, 0x3b, 0x67, 0xf9, 0x65, 0x3b,
  0x7f, 0x03, 0x69, 0x3b, 0x30, 0x34, 0x73, 0x3b, 0x12, 0x00, 0x00, 0x00,
  0x74, 0x66, 0x6c, 0x2e, 0x70, 0x73, 0x65, 0x75, 0x64, 0x6f, 0x5f, 0x71,
  0x63, 0x6f, 0x6e, 0x73, 0x74, 0x37, 0x00, 0x00, 0x02, 0x00, 0x00, 0x00,
  0x10, 0x00, 0x00, 0x00, 0x08, 0x00, 0x00, 0x00, 0xba, 0xf8, 0xff, 0xff,
  0x00, 0x00, 0x00, 0x01, 0x14, 0x00, 0x00, 0x00, 0xe4, 0x00, 0x00, 0x00,
  0x08, 0x00, 0x00, 0x00, 0x00, 0x00, 0x00, 0x02, 0xf0, 0x00, 0x00, 0x00,
  0xa4, 0xf8, 0xff, 0xff, 0x08, 0x00, 0x00, 0x00, 0x88, 0x00, 0x00, 0x00,
  0x10, 0x00, 0x00, 0x00, 0x00, 0x00, 0x00, 0x00, 0x00, 0x00, 0x00, 0x00,
  0x00, 0x00, 0x00, 0x00, 0x00, 0x00, 0x00, 0x00, 0x00, 0x00, 0x00, 0x00,
  0x00, 0x00, 0x00, 0x00, 0x00, 0x00, 0x00, 0x00, 0x00, 0x00, 0x00, 0x00,
  0x00, 0x00, 0x00, 0x00, 0x00, 0x00, 0x00, 0x00, 0x00, 0x00, 0x00, 0x00,
  0x00, 0x00, 0x00, 0x00, 0x00, 0x00, 0x00, 0x00, 0x00, 0x00, 0x00, 0x00,
  0x00, 0x00, 0x00, 0x00, 0x00, 0x00, 0x00, 0x00, 0x00, 0x00, 0x00, 0x00,
  0x00, 0x00, 0x00, 0x00, 0x00, 0x00, 0x00, 0x00, 0x00, 0x00, 0x00, 0x00,
  0x00, 0x00, 0x00, 0x00, 0x00, 0x00, 0x00, 0x00, 0x00, 0x00, 0x00, 0x00,
  0x00, 0x00, 0x00, 0x00, 0x00, 0x00, 0x00, 0x00, 0x00, 0x00, 0x00, 0x00,
  0x00, 0x00, 0x00, 0x00, 0x00, 0x00, 0x00, 0x00, 0x00, 0x00, 0x00, 0x00,
  0x00, 0x00, 0x00, 0x00, 0x00, 0x00, 0x00, 0x00, 0x00, 0x00, 0x00, 0x00,
  0x10, 0x00, 0x00, 0x00, 0x3f, 0xe8, 0x8a, 0x38, 0x01, 0xdd, 0x62, 0x38,
  0xfa, 0xd9, 0x44, 0x38, 0xda, 0x53, 0x84, 0x38, 0xe7, 0x11, 0x99, 0x38,
  0xe4, 0x4a, 0x87, 0x38, 0x94, 0xba, 0x83, 0x38, 0x15, 0xb3, 0x8c, 0x38,
  0xb5, 0x4c, 0x61, 0x38, 0x37, 0xe1, 0x83, 0x38, 0x50, 0xf4, 0x6f, 0x38,
  0x65, 0xbc, 0x8a, 0x38, 0xb1, 0xde, 0x7c, 0x38, 0x67, 0xc4, 0x72, 0x38,
  0xc7, 0xf9, 0x75, 0x38, 0xcb, 0x5d, 0x80, 0x38, 0x12, 0x00, 0x00, 0x00,
  0x74, 0x66, 0x6c, 0x2e, 0x70, 0x73, 0x65, 0x75, 0x64, 0x6f, 0x5f, 0x71,
  0x63, 0x6f, 0x6e, 0x73, 0x74, 0x36, 0x00, 0x00, 0x01, 0x00, 0x00, 0x00,
  0x10, 0x00, 0x00, 0x00, 0xca, 0xf9, 0xff, 0xff, 0x00, 0x00, 0x00, 0x01,
  0x14, 0x00, 0x00, 0x00, 0xa8, 0x01, 0x00, 0x00, 0x07, 0x00, 0x00, 0x00,
  0x00, 0x00, 0x00, 0x09, 0xb4, 0x01, 0x00, 0x00, 0xb4, 0xf9, 0xff, 0xff,
  0x08, 0x00, 0x00, 0x00, 0x0c, 0x01, 0x00, 0x00, 0x20, 0x00, 0x00, 0x00,
  0x00, 0x00, 0x00, 0x00, 0x00, 0x00, 0x00, 0x00, 0x00, 0x00, 0x00, 0x00,
  0x00, 0x00, 0x00, 0x00, 0x00, 0x00, 0x00, 0x00, 0x00, 0x00, 0x00, 0x00,
  0x00, 0x00, 0x00, 0x00, 0x00, 0x00, 0x00, 0x00, 0x00, 0x00, 0x00, 0x00,
  0x00, 0x00, 0x00, 0x00, 0x00, 0x00, 0x00, 0x00, 0x00, 0x00, 0x00, 0x00,
  0x00, 0x00, 0x00, 0x00, 0x00, 0x00, 0x00, 0x00, 0x00, 0x00, 0x00, 0x00,
  0x00, 0x00, 0x00, 0x00, 0x00, 0x00, 0x00, 0x00, 0x00, 0x00, 0x00, 0x00,
  0x00, 0x00, 0x00, 0x00, 0x00, 0x00, 0x00, 0x00, 0x00, 0x00, 0x00, 0x00,
  0x00, 0x00, 0x00, 0x00, 0x00, 0x00, 0x00, 0x00, 0x00, 0x00, 0x00, 0x00,
  0x00, 0x00, 0x00, 0x00, 0x00, 0x00, 0x00, 0x00, 0x00, 0x00, 0x00, 0x00,
  0x00, 0x00, 0x00, 0x00, 0x00, 0x00, 0x00, 0x00, 0x00, 0x00, 0x00, 0x00,
  0x00, 0x00, 0x00, 0x00, 0x00, 0x00, 0x00, 0x00, 0x00, 0x00, 0x00, 0x00,
  0x00, 0x00, 0x00, 0x00, 0x00, 0x00, 0x00, 0x00, 0x00, 0x00, 0x00, 0x00,
  0x00, 0x00, 0x00, 0x00, 0x00, 0x00, 0x00, 0x00, 0x00, 0x00, 0x00, 0x00,
  0x00, 0x00, 0x00, 0x00, 0x00, 0x00, 0x00, 0x00, 0x00, 0x00, 0x00, 0x00,
  0x00, 0x00, 0x00, 0x00, 0x00, 0x00, 0x00, 0x00, 0x00, 0x00, 0x00, 0x00,
  0x00, 0x00, 0x00, 0x00, 0x00, 0x00, 0x00, 0x00, 0x00, 0x00, 0x00, 0x00,
  0x00, 0x00, 0x00, 0x00, 0x00, 0x00, 0x00, 0x00, 0x00, 0x00, 0x00, 0x00,
  0x00, 0x00, 0x00, 0x00, 0x00, 0x00, 0x00, 0x00, 0x00, 0x00, 0x00, 0x00,
  0x00, 0x00, 0x00, 0x00, 0x00, 0x00, 0x00, 0x00, 0x00, 0x00, 0x00, 0x00,
  0x00, 0x00, 0x00, 0x00, 0x00, 0x00, 0x00, 0x00, 0x00, 0x00, 0x00, 0x00,
  0x00, 0x00, 0x00, 0x00, 0x00, 0x00, 0x00, 0x00, 0x00, 0x00, 0x00, 0x00,
  0x00, 0x00, 0x00, 0x00, 0x00, 0x00, 0x00, 0x00, 0x20, 0x00, 0x00, 0x00,
  0x12, 0x36, 0x66, 0x3b, 0xa6, 0x25, 0x34, 0x3b, 0xad, 0x1f, 0x79, 0x3b,
  0xa1, 0xfa, 0xa2, 0x3b, 0x35, 0x8f, 0x87, 0x3b, 0x3f, 0x14, 0x27, 0x3b,
  0x32, 0xd7, 0x70, 0x3b, 0xc8, 0x89, 0x85, 0x3b, 0x82, 0x77, 0x8c, 0x3b,
  0x7c, 0x8e, 0x35, 0x3b, 0x13, 0x29, 0x56, 0x3b, 0x8f, 0x53, 0x34, 0x3b,
  0xcd, 0x5a, 0x2d, 0x3b, 0x9a, 0xb5, 0x35, 0x3b, 0xc1, 0xba, 0x30, 0x3b,
  0x71, 0xdf, 0x8c, 0x3b, 0xf6, 0x91, 0x91, 0x3b, 0xf8, 0x90, 0x87, 0x3b,
  0x43, 0xcd, 0x76, 0x3b, 0x41, 0x10, 0xf3, 0x3b, 0x70, 0x9d, 0x53, 0x3b,
  0x57, 0x0f, 0x5f, 0x3b, 0x4b, 0x55, 0xa7, 0x3b, 0xb7, 0x64, 0x80, 0x3b,
  0x5e, 0x50, 0x8e, 0x3b, 0x0e, 0x24, 0x5e, 0x3b, 0xb8, 0xf5, 0x25, 0x3b,
  0xdb, 0x79, 0x73, 0x3b, 0xf0, 0x7a, 0x6d, 0x3b, 0xf3, 0x2a, 0x2a, 0x3b,
  0x87, 0xd6, 0x81, 0x3b, 0xa4, 0xc1, 0x33, 0x3b, 0x12, 0x00, 0x00, 0x00,
  0x74, 0x66, 0x6c, 0x2e, 0x70, 0x73, 0x65, 0x75, 0x64, 0x6f, 0x5f, 0x71,
  0x63, 0x6f, 0x6e, 0x73, 0x74, 0x35, 0x00, 0x00, 0x02, 0x00, 0x00, 0x00,
  0x20, 0x00, 0x00, 0x00, 0x10, 0x00, 0x00, 0x00, 0xa2, 0xfb, 0xff, 0xff,
  0x00, 0x00, 0x00, 0x01, 0x14, 0x00, 0x00, 0x00, 0xa4, 0x01, 0x00, 0x00,
  0x06, 0x00, 0x00, 0x00, 0x00, 0x00, 0x00, 0x02, 0xb0, 0x01, 0x00, 0x00,
  0x8c, 0xfb, 0xff, 0xff, 0x08, 0x00, 0x00, 0x00, 0x08, 0x01, 0x00, 0x00,
  0x20, 0x00, 0x00, 0x00, 0x00, 0x00, 0x00, 0x00, 0x00, 0x00, 0x00, 0x00,
  0x00, 0x00, 0x00, 0x00, 0x00, 0x00, 0x00, 0x00, 0x00, 0x00, 0x00, 0x00,
  0x00, 0x00, 0x00, 0x00, 0x00, 0x00, 0x00, 0x00, 0x00, 0x00, 0x00, 0x00,
  0x00, 0x00, 0x00, 0x00, 0x00, 0x00, 0x00, 0x00, 0x00, 0x00, 0x00, 0x00,
  0x00, 0x00, 0x00, 0x00, 0x00, 0x00, 0x00, 0x00, 0x00, 0x00, 0x00, 0x00,
  0x00, 0x00, 0x00, 0x00, 0x00, 0x00, 0x00, 0x00, 0x00, 0x00, 0x00, 0x00,
  0x00, 0x00, 0x00, 0x00, 0x00, 0x00, 0x00, 0x00, 0x00, 0x00, 0x00, 0x00,
  0x00, 0x00, 0x00, 0x00, 0x00, 0x00, 0x00, 0x00, 0x00, 0x00, 0x00, 0x00,
  0x00, 0x00, 0x00, 0x00, 0x00, 0x00, 0x00, 0x00, 0x00, 0x00, 0x00, 0x00,
  0x00, 0x00, 0x00, 0x00, 0x00, 0x00, 0x00, 0x00, 0x00, 0x00, 0x00, 0x00,
  0x00, 0x00, 0x00, 0x00, 0x00, 0x00, 0x00, 0x00, 0x00, 0x00, 0x00, 0x00,
  0x00, 0x00, 0x00, 0x00, 0x00, 0x00, 0x00, 0x00, 0x00, 0x00, 0x00, 0x00,
  0x00, 0x00, 0x00, 0x00, 0x00, 0x00, 0x00, 0x00, 0x00, 0x00, 0x00, 0x00,
  0x00, 0x00, 0x00, 0x00, 0x00, 0x00, 0x00, 0x00, 0x00, 0x00, 0x00, 0x00,
  0x00, 0x00, 0x00, 0x00, 0x00, 0x00, 0x00, 0x00, 0x00, 0x00, 0x00, 0x00,
  0x00, 0x00, 0x00, 0x00, 0x00, 0x00, 0x00, 0x00, 0x00, 0x00, 0x00, 0x00,
  0x00, 0x00, 0x00, 0x00, 0x00, 0x00, 0x00, 0x00, 0x00, 0x00, 0x00, 0x00,
  0x00, 0x00, 0x00, 0x00, 0x00, 0x00, 0x00, 0x00, 0x00, 0x00, 0x00, 0x00,
  0x00, 0x00, 0x00, 0x00, 0x00, 0x00, 0x00, 0x00, 0x00, 0x00, 0x00, 0x00,
  0x00, 0x00, 0x00, 0x00, 0x00, 0x00, 0x00, 0x00, 0x00, 0x00, 0x00, 0x00,
  0x00, 0x00, 0x00, 0x00, 0x00, 0x00, 0x00, 0x00, 0x00, 0x00, 0x00, 0x00,
  0x00, 0x00, 0x00, 0x00, 0x00, 0x00, 0x00, 0x00, 0x20, 0x00, 0x00, 0x00,
  0x37, 0x2b, 0x32, 0x38, 0x1f, 0x6c, 0x0b, 0x38, 0x4f, 0xce, 0x40, 0x38,
  0x50, 0x45, 0x7c, 0x38, 0x24, 0xd4, 0x51, 0x38, 0xfe, 0x4e, 0x01, 0x38,
  0x31, 0x65, 0x3a, 0x38, 0x3b, 0xb3, 0x4e, 0x38, 0xbc, 0x6c, 0x59, 0x38,
  0x63, 0x83, 0x0c, 0x38, 0x1d, 0xbf, 0x25, 0x38, 0xa7, 0x8f, 0x0b, 0x38,
  0x5d, 0x2a, 0x06, 0x38, 0xa9, 0xa1, 0x0c, 0x38, 0x02, 0xc7, 0x08, 0x38,
  0x9c, 0x0d, 0x5a, 0x38, 0xf5, 0x52, 0x61, 0x38, 0xde, 0xd6, 0x51, 0x38,
  0x45, 0x02, 0x3f, 0x38, 0x9b, 0x1d, 0xbc, 0x38, 0xca, 0xc6, 0x23, 0x38,
  0x59, 0xa2, 0x2c, 0x38, 0x56, 0x81, 0x81, 0x38, 0x95, 0xbc, 0x46, 0x38,
  0xa9, 0x48, 0x5c, 0x38, 0x40, 0xec, 0x2b, 0x38, 0x3d, 0x71, 0x00, 0x38,
  0x56, 0x6f, 0x3c, 0x38, 0x68, 0xcb, 0x37, 0x38, 0xf2, 0xb2, 0x03, 0x38,
  0x01, 0xf9, 0x48, 0x38, 0xb9, 0x1e, 0x0b, 0x38, 0x12, 0x00, 0x00, 0x00,
  0x74, 0x66, 0x6c, 0x2e, 0x70, 0x73, 0x65, 0x75, 0x64, 0x6f, 0x5f, 0x71,
  0x63, 0x6f, 0x6e, 0x73, 0x74, 0x34, 0x00, 0x00, 0x01, 0x00, 0x00, 0x00,
  0x20, 0x00, 0x00, 0x00, 0x72, 0xfd, 0xff, 0xff, 0x00, 0x00, 0x00, 0x01,
  0x14, 0x00, 0x00, 0x00, 0xe8, 0x00, 0x00, 0x00, 0x05, 0x00, 0x00, 0x00,
  0x00, 0x00, 0x00, 0x09, 0xf4, 0x00, 0x00, 0x00, 0x5c, 0xfd, 0xff, 0xff,
  0x08, 0x00, 0x00, 0x00, 0x8c, 0x00, 0x00, 0x00, 0x10, 0x00, 0x00, 0x00,
  0x00, 0x00, 0x00, 0x00, 0x00, 0x00, 0x00, 0x00, 0x00, 0x00, 0x00, 0x00,
  0x00, 0x00, 0x00, 0x00, 0x00, 0x00, 0x00, 0x00, 0x00, 0x00, 0x00, 0x00,
  0x00, 0x00, 0x00, 0x00, 0x00, 0x00, 0x00, 0x00, 0x00, 0x00, 0x00, 0x00,
  0x00, 0x00, 0x00, 0x00, 0x00, 0x00, 0x00, 0x00, 0x00, 0x00, 0x00, 0x00,
  0x00, 0x00, 0x00, 0x00, 0x00, 0x00, 0x00, 0x00, 0x00, 0x00, 0x00, 0x00,
  0x00, 0x00, 0x00, 0x00, 0x00, 0x00, 0x00, 0x00, 0x00, 0x00, 0x00, 0x00,
  0x00, 0x00, 0x00, 0x00, 0x00, 0x00, 0x00, 0x00, 0x00, 0x00, 0x00, 0x00,
  0x00, 0x00, 0x00, 0x00, 0x00, 0x00, 0x00, 0x00, 0x00, 0x00, 0x00, 0x00,
  0x00, 0x00, 0x00, 0x00, 0x00, 0x00, 0x00, 0x00, 0x00, 0x00, 0x00, 0x00,
  0x00, 0x00, 0x00, 0x00, 0x00, 0x00, 0x00, 0x00, 0x00, 0x00, 0x00, 0x00,
  0x00, 0x00, 0x00, 0x00, 0x00, 0x00, 0x00, 0x00, 0x00, 0x00, 0x00, 0x00,
  0x10, 0x00, 0x00, 0x00, 0xbd, 0x6c, 0x2c, 0x3b, 0xe3, 0x0f, 0x86, 0x3b,
  0x8b, 0x18, 0xbc, 0x3b, 0x78, 0x3d, 0xcc, 0x3b, 0x62, 0x0a, 0x29, 0x3b,
  0x6f, 0x63, 0xb8, 0x3b, 0x89, 0x7f, 0x5b, 0x3b, 0x95, 0xe5, 0x3f, 0x3b,
  0x00, 0xa1, 0x81, 0x3b, 0x43, 0x18, 0xe2, 0x3b, 0xd2, 0x09, 0x85, 0x3b,
  0xc5, 0x09, 0x36, 0x3b, 0x08, 0xcc, 0xf1, 0x3b, 0x28, 0x3b, 0x35, 0x3b,
  0x09, 0xab, 0xb5, 0x3b, 0xa9, 0x5d, 0x4c, 0x3b, 0x12, 0x00, 0x00, 0x00,
  0x74, 0x66, 0x6c, 0x2e, 0x70, 0x73, 0x65, 0x75, 0x64, 0x6f, 0x5f, 0x71,
  0x63, 0x6f, 0x6e, 0x73, 0x74, 0x33, 0x00, 0x00, 0x02, 0x00, 0x00, 0x00,
  0x10, 0x00, 0x00, 0x00, 0x20, 0x00, 0x00, 0x00, 0x8a, 0xfe, 0xff, 0xff,
  0x00, 0x00, 0x00, 0x01, 0x14, 0x00, 0x00, 0x00, 0xe4, 0x00, 0x00, 0x00,
  0x04, 0x00, 0x00, 0x00, 0x00, 0x00, 0x00, 0x02, 0xf0, 0x00, 0x00, 0x00,
  0x74, 0xfe, 0xff, 0xff, 0x08, 0x00, 0x00, 0x00, 0x88, 0x00, 0x00, 0x00,
  0x10, 0x00, 0x00, 0x00, 0x00, 0x00, 0x00, 0x00, 0x00, 0x00, 0x00, 0x00,
  0x00, 0x00, 0x00, 0x00, 0x00, 0x00, 0x00, 0x00, 0x00, 0x00, 0x00, 0x00,
  0x00, 0x00, 0x00, 0x00, 0x00, 0x00, 0x00, 0x00, 0x00, 0x00, 0x00, 0x00,
  0x00, 0x00, 0x00, 0x00, 0x00, 0x00, 0x00, 0x00, 0x00, 0x00, 0x00, 0x00,
  0x00, 0x00, 0x00, 0x00, 0x00, 0x00, 0x00, 0x00, 0x00, 0x00, 0x00, 0x00,
  0x00, 0x00, 0x00, 0x00, 0x00, 0x00, 0x00, 0x00, 0x00, 0x00, 0x00, 0x00,
  0x00, 0x00, 0x00, 0x00, 0x00, 0x00, 0x00, 0x00, 0x00, 0x00, 0x00, 0x00,
  0x00, 0x00, 0x00, 0x00, 0x00, 0x00, 0x00, 0x00, 0x00, 0x00, 0x00, 0x00,
  0x00, 0x00, 0x00, 0x00, 0x00, 0x00, 0x00, 0x00, 0x00, 0x00, 0x00, 0x00,
  0x00, 0x00, 0x00, 0x00, 0x00, 0x00, 0x00, 0x00, 0x00, 0x00, 0x00, 0x00,
  0x00, 0x00, 0x00, 0x00, 0x00, 0x00, 0x00, 0x00, 0x00, 0x00, 0x00, 0x00,
  0x10, 0x00, 0x00, 0x00, 0xff, 0xea, 0xe9, 0x37, 0xa8, 0xdf, 0x35, 0x38,
  0x90, 0x2d, 0x7f, 0x38, 0x39, 0x8a, 0x8a, 0x38, 0xaa, 0x53, 0xe5, 0x37,
  0xf7, 0x25, 0x7a, 0x38, 0xc8, 0xe3, 0x14, 0x38, 0xd0, 0x2a, 0x02, 0x38,
  0x07, 0xdc, 0x2f, 0x38, 0x47, 0x5d, 0x99, 0x38, 0x21, 0x7c, 0x34, 0x38,
  0xb9, 0xf5, 0xf6, 0x37, 0xf6, 0x03, 0xa4, 0x38, 0x6d, 0xdd, 0xf5, 0x37,
  0x34, 0x75, 0x76, 0x38, 0x0f, 0xa0, 0x0a, 0x38, 0x12, 0x00, 0x00, 0x00,
  0x74, 0x66, 0x6c, 0x2e, 0x70, 0x73, 0x65, 0x75, 0x64, 0x6f, 0x5f, 0x71,
  0x63, 0x6f, 0x6e, 0x73, 0x74, 0x32, 0x00, 0x00, 0x01, 0x00, 0x00, 0x00,
  0x10, 0x00, 0x00, 0x00, 0x9a, 0xff, 0xff, 0xff, 0x00, 0x00, 0x00, 0x01,
  0x14, 0x00, 0x00, 0x00, 0x34, 0x00, 0x00, 0x00, 0x03, 0x00, 0x00, 0x00,
  0x00, 0x00, 0x00, 0x09, 0x40, 0x00, 0x00, 0x00, 0x84, 0xff, 0xff, 0xff,
  0x08, 0x00, 0x00, 0x00, 0x14, 0x00, 0x00, 0x00, 0x01, 0x00, 0x00, 0x00,
  0x00, 0x00, 0x00, 0x00, 0x00, 0x00, 0x00, 0x00, 0x00, 0x00, 0x00, 0x00,
  0x01, 0x00, 0x00, 0x00, 0xef, 0x62, 0xc0, 0x3b, 0x12, 0x00, 0x00, 0x00,
  0x74, 0x66, 0x6c, 0x2e, 0x70, 0x73, 0x65, 0x75, 0x64, 0x6f, 0x5f, 0x71,
  0x63, 0x6f, 0x6e, 0x73, 0x74, 0x31, 0x00, 0x00, 0x02, 0x00, 0x00, 0x00,
  0x01, 0x00, 0x00, 0x00, 0x10, 0x00, 0x00, 0x00, 0x00, 0x00, 0x16, 0x00,
  0x1c, 0x00, 0x18, 0x00, 0x17, 0x00, 0x10, 0x00, 0x0c, 0x00, 0x08, 0x00,
  0x00, 0x00, 0x00, 0x00, 0x00, 0x00, 0x07, 0x00, 0x16, 0x00, 0x00, 0x00,
  0x00, 0x00, 0x00, 0x01, 0x20, 0x00, 0x00, 0x00, 0x40, 0x00, 0x00, 0x00,
  0x02, 0x00, 0x00, 0x00, 0x00, 0x00, 0x00, 0x02, 0x4c, 0x00, 0x00, 0x00,
  0x0c, 0x00, 0x0c, 0x00, 0x00, 0x00, 0x00, 0x00, 0x08, 0x00, 0x04, 0x00,
  0x0c, 0x00, 0x00, 0x00, 0x08, 0x00, 0x00, 0x00, 0x14, 0x00, 0x00, 0x00,
  0x01, 0x00, 0x00, 0x00, 0x00, 0x00, 0x00, 0x00, 0x00, 0x00, 0x00, 0x00,
  0x00, 0x00, 0x00, 0x00, 0x01, 0x00, 0x00, 0x00, 0xa7, 0x8a, 0x3c, 0x38,
  0x11, 0x00, 0x00, 0x00, 0x74, 0x66, 0x6c, 0x2e, 0x70, 0x73, 0x65, 0x75,
  0x64, 0x6f, 0x5f, 0x71, 0x63, 0x6f, 0x6e, 0x73, 0x74, 0x00, 0x00, 0x00,
  0x01, 0x00, 0x00, 0x00, 0x01, 0x00, 0x00, 0x00, 0x00, 0x00, 0x16, 0x00,
  0x1c, 0x00, 0x18, 0x00, 0x00, 0x00, 0x14, 0x00, 0x10, 0x00, 0x0c, 0x00,
  0x00, 0x00, 0x00, 0x00, 0x08, 0x00, 0x07, 0x00, 0x16, 0x00, 0x00, 0x00,
  0x00, 0x00, 0x00, 0x01, 0x14, 0x00, 0x00, 0x00, 0x20, 0x00, 0x00, 0x00,
  0x20, 0x00, 0x00, 0x00, 0x01, 0x00, 0x00, 0x00, 0x3c, 0x00, 0x00, 0x00,
  0x02, 0x00, 0x00, 0x00, 0xff, 0xff, 0xff, 0xff, 0x01, 0x00, 0x00, 0x00,
  0x04, 0x00, 0x04, 0x00, 0x04, 0x00, 0x00, 0x00, 0x1e, 0x00, 0x00, 0x00,
  0x73, 0x65, 0x72, 0x76, 0x69, 0x6e, 0x67, 0x5f, 0x64, 0x65, 0x66, 0x61,
  0x75, 0x6c, 0x74, 0x5f, 0x6b, 0x65, 0x72, 0x61, 0x73, 0x5f, 0x74, 0x65,
  0x6e, 0x73, 0x6f, 0x72, 0x3a, 0x30, 0x00, 0x00, 0x02, 0x00, 0x00, 0x00,
  0x01, 0x00, 0x00, 0x00, 0x01, 0x00, 0x00, 0x00, 0x03, 0x00, 0x00, 0x00,
  0x44, 0x00, 0x00, 0x00, 0x24, 0x00, 0x00, 0x00, 0x04, 0x00, 0x00, 0x00,
  0xf0, 0xff, 0xff, 0xff, 0x06, 0x00, 0x00, 0x00, 0x02, 0x00, 0x00, 0x00,
  0x00, 0x00, 0x00, 0x06, 0x0c, 0x00, 0x10, 0x00, 0x0f, 0x00, 0x00, 0x00,
  0x08, 0x00, 0x04, 0x00, 0x0c, 0x00, 0x00, 0x00, 0x09, 0x00, 0x00, 0x00,
  0x04, 0x00, 0x00, 0x00, 0x00, 0x00, 0x00, 0x09, 0x0c, 0x00, 0x0c, 0x00,
  0x0b, 0x00, 0x00, 0x00, 0x00, 0x00, 0x04, 0x00, 0x0c, 0x00, 0x00, 0x00,
  0x72, 0x00, 0x00, 0x00, 0x00, 0x00, 0x00, 0x72
};
unsigned int models_complex_sine_model_quantized_tflite_len = 6704;
