unsigned char models_complex_sine_model_quantized_tflite[] = {
  0x20, 0x00, 0x00, 0x00, 0x54, 0x46, 0x4c, 0x33, 0x00, 0x00, 0x00, 0x00,
  0x14, 0x00, 0x20, 0x00, 0x1c, 0x00, 0x18, 0x00, 0x14, 0x00, 0x10, 0x00,
  0x0c, 0x00, 0x00, 0x00, 0x08, 0x00, 0x04, 0x00, 0x14, 0x00, 0x00, 0x00,
  0x1c, 0x00, 0x00, 0x00, 0x8c, 0x00, 0x00, 0x00, 0x0c, 0x01, 0x00, 0x00,
  0x08, 0x16, 0x00, 0x00, 0x18, 0x16, 0x00, 0x00, 0x10, 0x2e, 0x00, 0x00,
  0x03, 0x00, 0x00, 0x00, 0x01, 0x00, 0x00, 0x00, 0x04, 0x00, 0x00, 0x00,
  0x76, 0xe8, 0xff, 0xff, 0x0c, 0x00, 0x00, 0x00, 0x1c, 0x00, 0x00, 0x00,
  0x3c, 0x00, 0x00, 0x00, 0x0f, 0x00, 0x00, 0x00, 0x73, 0x65, 0x72, 0x76,
  0x69, 0x6e, 0x67, 0x5f, 0x64, 0x65, 0x66, 0x61, 0x75, 0x6c, 0x74, 0x00,
  0x01, 0x00, 0x00, 0x00, 0x04, 0x00, 0x00, 0x00, 0x68, 0xff, 0xff, 0xff,
  0x13, 0x00, 0x00, 0x00, 0x04, 0x00, 0x00, 0x00, 0x08, 0x00, 0x00, 0x00,
  0x6f, 0x75, 0x74, 0x70, 0x75, 0x74, 0x5f, 0x30, 0x00, 0x00, 0x00, 0x00,
  0x01, 0x00, 0x00, 0x00, 0x04, 0x00, 0x00, 0x00, 0x7e, 0xea, 0xff, 0xff,
  0x04, 0x00, 0x00, 0x00, 0x0c, 0x00, 0x00, 0x00, 0x6b, 0x65, 0x72, 0x61,
  0x73, 0x5f, 0x74, 0x65, 0x6e, 0x73, 0x6f, 0x72, 0x00, 0x00, 0x00, 0x00,
  0x03, 0x00, 0x00, 0x00, 0x5c, 0x00, 0x00, 0x00, 0x2c, 0x00, 0x00, 0x00,
  0x04, 0x00, 0x00, 0x00, 0xb8, 0xff, 0xff, 0xff, 0x17, 0x00, 0x00, 0x00,
  0x04, 0x00, 0x00, 0x00, 0x13, 0x00, 0x00, 0x00, 0x43, 0x4f, 0x4e, 0x56,
  0x45, 0x52, 0x53, 0x49, 0x4f, 0x4e, 0x5f, 0x4d, 0x45, 0x54, 0x41, 0x44,
  0x41, 0x54, 0x41, 0x00, 0xdc, 0xff, 0xff, 0xff, 0x16, 0x00, 0x00, 0x00,
  0x04, 0x00, 0x00, 0x00, 0x13, 0x00, 0x00, 0x00, 0x6d, 0x69, 0x6e, 0x5f,
  0x72, 0x75, 0x6e, 0x74, 0x69, 0x6d, 0x65, 0x5f, 0x76, 0x65, 0x72, 0x73,
  0x69, 0x6f, 0x6e, 0x00, 0x08, 0x00, 0x0c, 0x00, 0x08, 0x00, 0x04, 0x00,
  0x08, 0x00, 0x00, 0x00, 0x15, 0x00, 0x00, 0x00, 0x04, 0x00, 0x00, 0x00,
  0x13, 0x00, 0x00, 0x00, 0x6d, 0x69, 0x6e, 0x5f, 0x72, 0x75, 0x6e, 0x74,
  0x69, 0x6d, 0x65, 0x5f, 0x76, 0x65, 0x72, 0x73, 0x69, 0x6f, 0x6e, 0x00,
  0x18, 0x00, 0x00, 0x00, 0xf8, 0x14, 0x00, 0x00, 0xf0, 0x14, 0x00, 0x00,
  0xdc, 0x14, 0x00, 0x00, 0xa4, 0x14, 0x00, 0x00, 0x14, 0x14, 0x00, 0x00,
  0x04, 0x0c, 0x00, 0x00, 0xf4, 0x0a, 0x00, 0x00, 0xe4, 0x02, 0x00, 0x00,
  0x54, 0x02, 0x00, 0x00, 0x44, 0x01, 0x00, 0x00, 0x14, 0x01, 0x00, 0x00,
  0xfc, 0x00, 0x00, 0x00, 0xf4, 0x00, 0x00, 0x00, 0xec, 0x00, 0x00, 0x00,
  0xe4, 0x00, 0x00, 0x00, 0xdc, 0x00, 0x00, 0x00, 0xd4, 0x00, 0x00, 0x00,
  0xcc, 0x00, 0x00, 0x00, 0xc4, 0x00, 0x00, 0x00, 0xbc, 0x00, 0x00, 0x00,
  0xb4, 0x00, 0x00, 0x00, 0x94, 0x00, 0x00, 0x00, 0x74, 0x00, 0x00, 0x00,
  0x04, 0x00, 0x00, 0x00, 0x82, 0xeb, 0xff, 0xff, 0x04, 0x00, 0x00, 0x00,
  0x60, 0x00, 0x00, 0x00, 0x0c, 0x00, 0x00, 0x00, 0x08, 0x00, 0x0e, 0x00,
  0x08, 0x00, 0x04, 0x00, 0x08, 0x00, 0x00, 0x00, 0x10, 0x00, 0x00, 0x00,
  0x28, 0x00, 0x00, 0x00, 0x00, 0x00, 0x06, 0x00, 0x08, 0x00, 0x04, 0x00,
  0x06, 0x00, 0x00, 0x00, 0x04, 0x00, 0x00, 0x00, 0x01, 0x00, 0x00, 0x00,
  0xeb, 0x03, 0x00, 0x00, 0x0c, 0x00, 0x18, 0x00, 0x14, 0x00, 0x10, 0x00,
  0x0c, 0x00, 0x04, 0x00, 0x0c, 0x00, 0x00, 0x00, 0x2c, 0xd5, 0x98, 0x21,
  0xde, 0x61, 0x1b, 0x92, 0x02, 0x00, 0x00, 0x00, 0x02, 0x00, 0x00, 0x00,
  0x04, 0x00, 0x00, 0x00, 0x06, 0x00, 0x00, 0x00, 0x32, 0x2e, 0x31, 0x39,
  0x2e, 0x30, 0x00, 0x00, 0xee, 0xeb, 0xff, 0xff, 0x04, 0x00, 0x00, 0x00,
  0x10, 0x00, 0x00, 0x00, 0x00, 0x00, 0x00, 0x00, 0x00, 0x00, 0x00, 0x00,
  0x00, 0x00, 0x00, 0x00, 0x00, 0x00, 0x00, 0x00, 0x0a, 0xec, 0xff, 0xff,
  0x04, 0x00, 0x00, 0x00, 0x10, 0x00, 0x00, 0x00, 0x31, 0x2e, 0x31, 0x34,
  0x2e, 0x30, 0x00, 0x00, 0x00, 0x00, 0x00, 0x00, 0x00, 0x00, 0x00, 0x00,
  0x20, 0xea, 0xff, 0xff, 0x24, 0xea, 0xff, 0xff, 0x28, 0xea, 0xff, 0xff,
  0x2c, 0xea, 0xff, 0xff, 0x30, 0xea, 0xff, 0xff, 0x34, 0xea, 0xff, 0xff,
  0x38, 0xea, 0xff, 0xff, 0x3c, 0xea, 0xff, 0xff, 0x40, 0xea, 0xff, 0xff,
  0x4a, 0xec, 0xff, 0xff, 0x04, 0x00, 0x00, 0x00, 0x08, 0x00, 0x00, 0x00,
  0x81, 0x7f, 0x81, 0x81, 0x81, 0x81, 0x81, 0x81, 0x5e, 0xec, 0xff, 0xff,
  0x04, 0x00, 0x00, 0x00, 0x20, 0x00, 0x00, 0x00, 0xe1, 0x17, 0x00, 0x00,
  0xcb, 0xfe, 0xff, 0xff, 0x8d, 0x25, 0x00, 0x00, 0xf6, 0x01, 0x00, 0x00,
  0x4c, 0x1c, 0x00, 0x00, 0xe5, 0x08, 0x00, 0x00, 0x40, 0x02, 0x00, 0x00,
  0xfb, 0x0c, 0x00, 0x00, 0x8a, 0xec, 0xff, 0xff, 0x04, 0x00, 0x00, 0x00,
  0x00, 0x01, 0x00, 0x00, 0x7a, 0x3b, 0xe6, 0x8e, 0x72, 0x7f, 0xd3, 0x60,
  0xad, 0x74, 0x7f, 0x15, 0x35, 0x65, 0xf4, 0xc2, 0x6c, 0xbc, 0x7f, 0x54,
  0xa1, 0x78, 0x9f, 0xe4, 0x91, 0xb1, 0x81, 0x2e, 0xb8, 0x82, 0xef, 0x81,
  0x42, 0x82, 0xa5, 0xac, 0xbc, 0x81, 0xad, 0xab, 0x1b, 0xbd, 0x7f, 0x28,
  0xc2, 0x00, 0x1a, 0xeb, 0x9b, 0x81, 0x29, 0xa5, 0x92, 0xe4, 0x00, 0xf6,
  0x81, 0xea, 0x45, 0xa2, 0xb8, 0x81, 0x06, 0xe0, 0x34, 0x52, 0x81, 0xf2,
  0x3a, 0x8c, 0x7f, 0xd9, 0x52, 0x81, 0xbe, 0x35, 0x50, 0xda, 0x21, 0x0c,
  0x6a, 0xaf, 0x7f, 0xf3, 0xf6, 0xd1, 0xd5, 0x29, 0xbb, 0xf9, 0x43, 0x81,
  0x90, 0x10, 0x36, 0xbe, 0xcc, 0xd5, 0x18, 0xf2, 0x7c, 0x08, 0x7f, 0xca,
  0x3e, 0x59, 0x1a, 0xba, 0x7b, 0xdd, 0x22, 0x7f, 0x10, 0x6c, 0xf9, 0x42,
  0x7f, 0x67, 0xc9, 0x5b, 0xc5, 0x13, 0x5f, 0x22, 0x28, 0x3e, 0x19, 0x7f,
  0x62, 0x5b, 0xa2, 0x08, 0x9a, 0x49, 0x00, 0x7f, 0xa5, 0xc2, 0x81, 0x38,
  0xe8, 0x38, 0xd0, 0xc5, 0x1f, 0x9e, 0xc6, 0xdf, 0xc6, 0x69, 0x81, 0x1f,
  0x0d, 0x20, 0x7f, 0xea, 0x76, 0xc9, 0xd9, 0x4e, 0x66, 0xad, 0x7f, 0x92,
  0xe8, 0x12, 0xe4, 0xb4, 0xc4, 0x46, 0x3f, 0x16, 0x97, 0x81, 0x78, 0x04,
  0xff, 0xfa, 0x30, 0x17, 0x49, 0xba, 0x7f, 0x0e, 0xf9, 0x06, 0x2a, 0xce,
  0x7f, 0x76, 0x05, 0xf0, 0xef, 0x3a, 0x7f, 0x0f, 0x15, 0x33, 0x5c, 0xab,
  0x9f, 0x8e, 0x7f, 0x79, 0xc4, 0xad, 0x6d, 0x5f, 0x44, 0xbf, 0x81, 0xbf,
  0xb1, 0x17, 0xca, 0x11, 0x7c, 0x1d, 0x67, 0x81, 0x56, 0x10, 0xd3, 0x44,
  0x0c, 0xb2, 0x88, 0xea, 0xe9, 0x5b, 0x7f, 0x01, 0x03, 0x6e, 0x7f, 0xb0,
  0xe4, 0x5d, 0x00, 0x5e, 0x63, 0xa0, 0x5f, 0x81, 0xc6, 0xb0, 0x53, 0x0d,
  0x32, 0x76, 0xe0, 0x00, 0x7f, 0x7d, 0x28, 0xb3, 0x96, 0xed, 0xff, 0xff,
  0x04, 0x00, 0x00, 0x00, 0x80, 0x00, 0x00, 0x00, 0x2d, 0x07, 0x00, 0x00,
  0x9f, 0xfe, 0xff, 0xff, 0xb6, 0x05, 0x00, 0x00, 0x6b, 0xf2, 0xff, 0xff,
  0xd1, 0xfa, 0xff, 0xff, 0x73, 0x0f, 0x00, 0x00, 0x68, 0xf8, 0xff, 0xff,
  0x08, 0xfc, 0xff, 0xff, 0xa7, 0xf7, 0xff, 0xff, 0x6f, 0xfe, 0xff, 0xff,
  0xe0, 0x06, 0x00, 0x00, 0xde, 0xfa, 0xff, 0xff, 0x9f, 0x02, 0x00, 0x00,
  0x5a, 0x0a, 0x00, 0x00, 0x0d, 0x04, 0x00, 0x00, 0x20, 0x0a, 0x00, 0x00,
  0xb5, 0x06, 0x00, 0x00, 0xfe, 0xf8, 0xff, 0xff, 0x99, 0x05, 0x00, 0x00,
  0x81, 0x0e, 0x00, 0x00, 0x65, 0xfe, 0xff, 0xff, 0x9a, 0xf7, 0xff, 0xff,
  0x69, 0xfe, 0xff, 0xff, 0x73, 0x06, 0x00, 0x00, 0x30, 0x04, 0x00, 0x00,
  0xe2, 0xff, 0xff, 0xff, 0x88, 0xfd, 0xff, 0xff, 0x6d, 0x0f, 0x00, 0x00,
  0x77, 0xfe, 0xff, 0xff, 0x94, 0xfc, 0xff, 0xff, 0xc5, 0x04, 0x00, 0x00,
  0xb4, 0x06, 0x00, 0x00, 0x22, 0xee, 0xff, 0xff, 0x04, 0x00, 0x00, 0x00,
  0x00, 0x08, 0x00, 0x00, 0x51, 0xbe, 0x2d, 0x81, 0x16, 0xe4, 0x0b, 0xb7,
  0xd7, 0x53, 0x12, 0x18, 0x3e, 0xd1, 0x71, 0x2e, 0xef, 0x0b, 0x1e, 0xd8,
  0x00, 0x9e, 0x0a, 0x43, 0x50, 0x0a, 0x00, 0x5a, 0x14, 0x45, 0xd8, 0x28,
  0xf4, 0xef, 0x31, 0x15, 0xee, 0x16, 0x9d, 0xf4, 0xc6, 0x3b, 0x43, 0x27,
  0x2d, 0x6a, 0xe5, 0x22, 0x3f, 0x81, 0xc3, 0x5f, 0xf8, 0xfe, 0xa1, 0xeb,
  0xb3, 0xf3, 0xc5, 0x4a, 0xb8, 0xf2, 0xef, 0x4f, 0x7f, 0xcb, 0x51, 0x93,
  0x14, 0xc6, 0x06, 0x23, 0xf6, 0x36, 0xf3, 0x00, 0xef, 0x51, 0x43, 0x52,
  0x33, 0xcb, 0x23, 0x1b, 0xaa, 0x00, 0x4a, 0x19, 0x5f, 0x4e, 0x40, 0x6c,
  0xfb, 0xda, 0xd2, 0x19, 0x28, 0xdb, 0xf3, 0xd1, 0x35, 0x32, 0x09, 0xba,
  0xc1, 0xf3, 0xcf, 0xe8, 0xe5, 0x0b, 0x49, 0x3a, 0xf2, 0xc1, 0x58, 0xff,
  0x81, 0x2c, 0xe7, 0x00, 0xbf, 0xe4, 0x32, 0xe9, 0xf1, 0xf0, 0x1c, 0x04,
  0x3d, 0x1d, 0xfd, 0x7f, 0x40, 0xec, 0xb9, 0x1f, 0x24, 0xb7, 0xca, 0xda,
  0xe0, 0x91, 0xa3, 0xa8, 0xa8, 0x18, 0x1c, 0xf3, 0xd3, 0xc2, 0xe3, 0xe6,
  0xcd, 0x8e, 0xd3, 0x47, 0xff, 0xbe, 0x27, 0x0c, 0xbe, 0x06, 0xe0, 0x44,
  0x5a, 0x2c, 0x66, 0xe6, 0xf4, 0xdc, 0x20, 0x56, 0x35, 0xe0, 0xfc, 0xb1,
  0xe3, 0x1a, 0x1b, 0x03, 0x81, 0xe2, 0xed, 0xfc, 0x17, 0x12, 0x51, 0xca,
  0xdc, 0x94, 0x31, 0xda, 0x9d, 0x85, 0x02, 0xff, 0xe4, 0xdb, 0x1c, 0x92,
  0xc5, 0xc8, 0x17, 0xab, 0xc9, 0x0f, 0xe4, 0x9e, 0x35, 0xee, 0xb4, 0x69,
  0x5f, 0xa2, 0x3a, 0xe6, 0x32, 0x4f, 0x67, 0x75, 0xd1, 0x81, 0x58, 0xa4,
  0xa9, 0xf2, 0xfa, 0xbc, 0xe4, 0xe2, 0x38, 0x22, 0x68, 0x59, 0xf5, 0xbd,
  0xc0, 0x91, 0x38, 0x86, 0x30, 0xff, 0xc9, 0xd6, 0x32, 0x5f, 0x41, 0x81,
  0xb2, 0xab, 0x1e, 0x93, 0x1e, 0x19, 0xc6, 0xbc, 0xd0, 0xe4, 0x0f, 0x77,
  0x67, 0x81, 0xdc, 0x1c, 0x0e, 0x96, 0x5e, 0x15, 0x70, 0x5e, 0x44, 0xd6,
  0xc0, 0x46, 0x06, 0xb2, 0x0d, 0x93, 0x3f, 0xaf, 0x6f, 0xb5, 0x6f, 0x89,
  0x0a, 0xfa, 0x74, 0xc5, 0x0f, 0xc9, 0xbd, 0xd8, 0x38, 0x21, 0xd6, 0xd2,
  0xf2, 0xb0, 0x9d, 0x0e, 0xb2, 0x04, 0xb3, 0xe6, 0x7f, 0x60, 0x39, 0xf6,
  0x9b, 0xc9, 0x4e, 0xa8, 0xf3, 0x10, 0xbf, 0xb8, 0xd6, 0xca, 0xe3, 0xcc,
  0x81, 0x11, 0x55, 0x70, 0x3d, 0x9d, 0x2b, 0x00, 0x32, 0x3f, 0x27, 0x6f,
  0x37, 0x14, 0x17, 0x9e, 0xbb, 0x1c, 0x20, 0x9c, 0xbb, 0x01, 0xb0, 0x09,
  0x50, 0x26, 0xda, 0xdf, 0xec, 0x54, 0x5a, 0xf0, 0x7b, 0x59, 0xff, 0x05,
  0x8d, 0xe3, 0x8e, 0x08, 0xb2, 0x24, 0xbe, 0x0c, 0xf8, 0x08, 0xc0, 0x22,
  0x7f, 0x61, 0x46, 0x04, 0x0c, 0x29, 0x32, 0xcb, 0x50, 0x44, 0x3d, 0x1d,
  0xae, 0xe2, 0x50, 0xa2, 0xfb, 0xb3, 0x92, 0x23, 0x21, 0xa6, 0x33, 0x02,
  0xc7, 0x95, 0x2d, 0xb4, 0x4f, 0xe5, 0x1d, 0xc5, 0x2d, 0xc4, 0x13, 0xd8,
  0x08, 0x93, 0xe7, 0xcd, 0x0d, 0xcf, 0xce, 0xe2, 0xa4, 0x3f, 0x81, 0x61,
  0xe4, 0x41, 0xd8, 0xb7, 0x0d, 0xf9, 0x1b, 0xd7, 0x1d, 0xcf, 0xe3, 0xf3,
  0x0f, 0x4b, 0x54, 0x1e, 0xf3, 0x0b, 0x3c, 0x57, 0x20, 0xf4, 0x18, 0xdd,
  0x37, 0xd0, 0xc1, 0x7f, 0xbb, 0xfd, 0xe7, 0xeb, 0x60, 0x20, 0xb1, 0x4c,
  0xbb, 0xfc, 0x46, 0x3a, 0x36, 0x35, 0xd8, 0x54, 0x5b, 0x3e, 0x52, 0x0b,
  0xed, 0x1b, 0x52, 0x76, 0x44, 0x81, 0xc4, 0x6c, 0xea, 0xcd, 0x40, 0xd4,
  0x5a, 0xfb, 0x2c, 0xb6, 0x2c, 0x4b, 0xbe, 0xee, 0x18, 0x21, 0x15, 0xe0,
  0x24, 0x14, 0xca, 0x28, 0xdc, 0x42, 0xdf, 0xe6, 0xca, 0xaa, 0xb8, 0xf0,
  0x7f, 0x47, 0x22, 0xe3, 0x26, 0x34, 0x39, 0x61, 0x0b, 0xee, 0x0a, 0x27,
  0xb2, 0xd8, 0xde, 0xb9, 0x39, 0xd7, 0x4a, 0x21, 0x55, 0x43, 0xeb, 0xa7,
  0x41, 0xb6, 0xfa, 0xb1, 0x7f, 0x46, 0x1f, 0xbc, 0xd2, 0x9e, 0xad, 0x54,
  0xcf, 0xe4, 0xff, 0xc1, 0xcf, 0xdc, 0xc5, 0xf7, 0x81, 0x90, 0xcb, 0xfb,
  0xcf, 0x39, 0x09, 0x0e, 0x59, 0xc3, 0xe5, 0x53, 0x1b, 0x40, 0x9e, 0xce,
  0xb3, 0xd0, 0xe1, 0x29, 0x77, 0x07, 0x5b, 0xdb, 0x05, 0xed, 0xeb, 0x1c,
  0x1f, 0x9f, 0x2a, 0xa7, 0x4d, 0x26, 0xf7, 0xed, 0x00, 0x1c, 0xdc, 0x32,
  0x18, 0xe2, 0xeb, 0x10, 0xe9, 0x3c, 0x33, 0x2e, 0x1e, 0xcb, 0x14, 0x31,
  0x54, 0xce, 0x06, 0x18, 0xdc, 0xe4, 0xc6, 0x7f, 0xfd, 0x45, 0x29, 0x1c,
  0xe4, 0x4e, 0x91, 0x50, 0xb6, 0x68, 0x1a, 0x55, 0x0f, 0x0b, 0xcb, 0x33,
  0xec, 0xaf, 0xab, 0x12, 0xb9, 0xf4, 0xb1, 0x1f, 0x2d, 0x7f, 0xf2, 0x34,
  0xa3, 0x37, 0x1f, 0x9b, 0xbd, 0x83, 0xbf, 0xa4, 0xb5, 0xc8, 0xe4, 0xe8,
  0x11, 0xed, 0x3a, 0xfe, 0xf2, 0x0e, 0xe2, 0xdc, 0x3f, 0xd3, 0xe6, 0x07,
  0xcd, 0x22, 0xf2, 0xd2, 0x81, 0x1c, 0x09, 0xee, 0xde, 0x0b, 0x2c, 0x83,
  0x36, 0xb8, 0xe5, 0xd6, 0xc5, 0x03, 0xd5, 0xce, 0x32, 0xd9, 0xeb, 0xf4,
  0x47, 0xcf, 0xc2, 0x10, 0x29, 0xed, 0x2d, 0x3e, 0xe5, 0x3c, 0x01, 0xe5,
  0x81, 0x40, 0xda, 0x01, 0xdf, 0x32, 0x06, 0xb8, 0x2a, 0xb1, 0x15, 0x10,
  0xf4, 0x00, 0x1a, 0x28, 0x2b, 0x19, 0x17, 0x33, 0x14, 0xd2, 0xf3, 0x2f,
  0xe2, 0xdf, 0x08, 0x1d, 0x2e, 0xd2, 0x16, 0x47, 0x7f, 0xca, 0x0c, 0x03,
  0xfd, 0x33, 0xe4, 0x59, 0xc9, 0x03, 0x12, 0x37, 0xd5, 0xcb, 0xdd, 0x41,
  0xa7, 0xca, 0xc9, 0xd9, 0x19, 0x10, 0xd5, 0xf5, 0x28, 0x26, 0x16, 0x5e,
  0x0d, 0x75, 0x20, 0x24, 0xcf, 0x61, 0xe3, 0x4a, 0xdf, 0x6a, 0x34, 0x81,
  0x08, 0xb8, 0xd1, 0x18, 0xd1, 0x9f, 0xc2, 0x1f, 0x24, 0x26, 0xc5, 0x30,
  0x74, 0x36, 0xe6, 0x16, 0x52, 0x07, 0xaa, 0xc0, 0xa8, 0xb0, 0xcf, 0x81,
  0x05, 0x0c, 0xbf, 0x31, 0x59, 0xa5, 0x0b, 0x04, 0xc0, 0x4b, 0x40, 0xae,
  0xf9, 0xc6, 0x3d, 0xd3, 0x19, 0xd5, 0xc8, 0x54, 0xdd, 0x11, 0xbd, 0xb7,
  0xab, 0xe1, 0x54, 0x42, 0xd1, 0x67, 0x11, 0x3d, 0x81, 0x1d, 0xc6, 0x1b,
  0x2e, 0xef, 0x49, 0xa0, 0x2f, 0xbb, 0x96, 0x50, 0x2c, 0xe3, 0x03, 0x40,
  0x3c, 0x05, 0x11, 0x73, 0x27, 0xfa, 0xf9, 0x20, 0x31, 0x00, 0x1c, 0x00,
  0x81, 0xe9, 0x12, 0xa3, 0x2c, 0xfa, 0x3f, 0x1d, 0x3f, 0x68, 0x46, 0x2d,
  0x40, 0xfe, 0x23, 0xc2, 0x01, 0xf8, 0x4b, 0xed, 0x34, 0xe4, 0x4f, 0x9c,
  0x3e, 0x54, 0xf0, 0x27, 0x1c, 0x29, 0x1d, 0x40, 0x1c, 0x4d, 0xac, 0x08,
  0x81, 0xc5, 0x70, 0x9b, 0x5a, 0x22, 0xdc, 0xb8, 0xba, 0xc6, 0xf6, 0xa6,
  0xdd, 0xf8, 0x47, 0xe2, 0xc4, 0xd7, 0xd1, 0xc4, 0xfd, 0xf0, 0x2d, 0xe5,
  0xbd, 0xd1, 0x3e, 0xca, 0x60, 0xd2, 0xde, 0xc7, 0x81, 0x2f, 0x1b, 0xf0,
  0xb5, 0x30, 0xcc, 0x34, 0x30, 0xf6, 0xff, 0xf2, 0xfa, 0xf3, 0x3c, 0x27,
  0x40, 0xc7, 0x0f, 0x47, 0xc9, 0xf0, 0x07, 0x13, 0x39, 0xd5, 0xc4, 0xd5,
  0xae, 0xed, 0xbc, 0x37, 0x7f, 0xd6, 0x32, 0x4d, 0xf4, 0x13, 0xd3, 0xfe,
  0xe2, 0x13, 0x16, 0x23, 0xfe, 0xef, 0xd0, 0x56, 0x3f, 0xdc, 0x0d, 0xf2,
  0x4b, 0xf2, 0xc2, 0x00, 0x16, 0x23, 0x94, 0xca, 0x81, 0x46, 0x09, 0xb1,
  0x79, 0x13, 0xbf, 0x26, 0x1e, 0xfe, 0x49, 0x31, 0xe0, 0xd0, 0x14, 0x00,
  0xd8, 0x7d, 0xf5, 0x37, 0x69, 0x3d, 0xcd, 0x4b, 0x96, 0x18, 0xd1, 0x24,
  0x11, 0xf0, 0x5e, 0xd1, 0x01, 0x17, 0x7e, 0xb9, 0x98, 0x90, 0x81, 0x1d,
  0x25, 0xaa, 0x64, 0xc5, 0x50, 0xae, 0x55, 0xf2, 0x28, 0x40, 0xe7, 0xd4,
  0x0c, 0xff, 0xfc, 0x14, 0xce, 0xf2, 0x0e, 0xdc, 0xd6, 0x1e, 0x1b, 0x01,
  0xe7, 0xc5, 0x04, 0x1e, 0x49, 0xed, 0x05, 0x1f, 0xf3, 0xe5, 0xe1, 0x7f,
  0xd9, 0x51, 0xd1, 0x1c, 0x7f, 0x37, 0xea, 0xe0, 0x8d, 0x2c, 0xda, 0xaf,
  0x31, 0x07, 0x48, 0x38, 0x19, 0xaf, 0x38, 0xea, 0x2d, 0xa7, 0xfa, 0xf8,
  0x30, 0x18, 0x6a, 0x3e, 0x69, 0x46, 0x20, 0xf7, 0xba, 0x37, 0xe2, 0xb0,
  0x52, 0x1f, 0x4f, 0x92, 0xb0, 0x26, 0x2c, 0x2f, 0x2e, 0x9e, 0xe4, 0xad,
  0xc7, 0x5d, 0xe6, 0xe7, 0x5e, 0x0b, 0x34, 0xe3, 0x81, 0xc4, 0xeb, 0x5b,
  0x4b, 0x97, 0x15, 0xc4, 0x0a, 0xf2, 0x35, 0x42, 0x14, 0x06, 0xd4, 0x34,
  0x20, 0xf4, 0xd0, 0xcf, 0x09, 0xdc, 0xe3, 0xd4, 0x1a, 0xe5, 0x14, 0x05,
  0x37, 0xfe, 0x02, 0xe7, 0x81, 0xfc, 0xf0, 0x26, 0xda, 0xff, 0xf9, 0x09,
  0xc0, 0x2f, 0xbe, 0xd2, 0x03, 0x18, 0xf8, 0x73, 0x40, 0xe4, 0x50, 0x3e,
  0x03, 0xfb, 0x03, 0xfc, 0xeb, 0xae, 0x81, 0x17, 0xe0, 0x22, 0x8b, 0xb5,
  0x32, 0xe5, 0xdd, 0xfe, 0xce, 0x2b, 0x61, 0x1f, 0x35, 0x01, 0xde, 0xbe,
  0x5c, 0x2e, 0x44, 0x3f, 0xb6, 0xd6, 0xe4, 0xe3, 0xec, 0x4e, 0xf7, 0xc7,
  0xcb, 0x2a, 0xc5, 0x5e, 0x7f, 0xd9, 0x25, 0xc3, 0xf6, 0xb6, 0xd1, 0xad,
  0x03, 0xb8, 0xfb, 0x1c, 0xf4, 0xb1, 0xfa, 0x05, 0x57, 0x0c, 0xc8, 0x25,
  0x0b, 0x08, 0x0c, 0xd1, 0xd0, 0xe4, 0x20, 0x41, 0x40, 0xfd, 0x01, 0xc3,
  0xd9, 0xf8, 0x01, 0x53, 0x7f, 0xd5, 0x46, 0x32, 0x2a, 0x0e, 0xdf, 0x18,
  0xfc, 0x52, 0xfb, 0xf5, 0xe2, 0xcd, 0xf7, 0xf1, 0xe8, 0xe6, 0x35, 0xe8,
  0x04, 0x21, 0xf5, 0xed, 0xf2, 0xef, 0xd1, 0x1c, 0x12, 0x34, 0x06, 0xb9,
  0x81, 0x28, 0xef, 0x10, 0xef, 0x02, 0x1f, 0xd4, 0x2a, 0xf7, 0xff, 0xd9,
  0x3d, 0x1f, 0x06, 0x89, 0x9a, 0x0a, 0x2f, 0x8f, 0x81, 0x53, 0x1c, 0xe9,
  0xfd, 0x71, 0x5d, 0x19, 0x0e, 0x1c, 0x3c, 0x68, 0x10, 0xa7, 0xc9, 0x20,
  0x5d, 0x20, 0xf0, 0x43, 0x45, 0x15, 0x04, 0xba, 0x37, 0xbf, 0xd3, 0x1a,
  0xf7, 0xc3, 0xc0, 0xf3, 0x34, 0x46, 0xa2, 0x58, 0x4f, 0x26, 0xe1, 0x0f,
  0x04, 0xe8, 0xfb, 0xfd, 0x7f, 0xce, 0x38, 0xe1, 0xf3, 0x5a, 0x42, 0x0e,
  0xae, 0xe3, 0x2c, 0xe3, 0xa6, 0xfc, 0xa4, 0xed, 0x69, 0x34, 0x7f, 0xef,
  0x48, 0xfb, 0xa7, 0x30, 0x13, 0x12, 0xa1, 0x2a, 0xe1, 0x34, 0xdd, 0xd9,
  0x06, 0xe1, 0xcc, 0x1c, 0xdb, 0x29, 0x40, 0xb3, 0xeb, 0xe3, 0x56, 0x37,
  0x1c, 0x50, 0xba, 0xb0, 0x90, 0xac, 0x3b, 0x46, 0x53, 0xf4, 0xa9, 0x9b,
  0x88, 0xc9, 0x74, 0xfb, 0xec, 0xd0, 0x3a, 0xf2, 0x25, 0xed, 0x58, 0x53,
  0x85, 0x37, 0x81, 0x4f, 0x29, 0x3d, 0xde, 0x6e, 0x71, 0x24, 0xe9, 0xf0,
  0xa9, 0xbd, 0xad, 0xba, 0x76, 0xd0, 0x38, 0x08, 0xa9, 0x40, 0x7f, 0xe5,
  0x78, 0x3c, 0x35, 0x2b, 0xe4, 0x9e, 0xe0, 0xc5, 0x5b, 0x98, 0x66, 0x76,
  0x1e, 0x37, 0x0d, 0xf9, 0x3c, 0xdb, 0x24, 0xf3, 0xea, 0xf7, 0xf9, 0x30,
  0x36, 0x32, 0x04, 0x29, 0x23, 0x1b, 0xda, 0xe3, 0xd4, 0xfc, 0xd5, 0x25,
  0x7f, 0x14, 0x2c, 0xea, 0x0d, 0xdd, 0xc9, 0x32, 0x3b, 0xd4, 0xf6, 0xd8,
  0x8b, 0x2e, 0x31, 0x32, 0x02, 0x46, 0x37, 0x29, 0x10, 0x54, 0x09, 0xd1,
  0x17, 0xa0, 0xe4, 0x08, 0xee, 0x3a, 0x2e, 0x08, 0x0a, 0x0c, 0x08, 0xb6,
  0x06, 0x08, 0x13, 0x81, 0xc1, 0xba, 0x03, 0x12, 0x19, 0x35, 0x29, 0x1d,
  0xf5, 0x1e, 0xce, 0x34, 0x22, 0x57, 0x3f, 0x17, 0x6e, 0xfe, 0x44, 0x45,
  0x81, 0xe7, 0x43, 0x48, 0xf3, 0x1d, 0x05, 0xaf, 0x3c, 0x6d, 0x3c, 0x49,
  0x31, 0xa4, 0x41, 0xeb, 0xb7, 0xed, 0xa7, 0x0b, 0xcf, 0xc1, 0x42, 0x5c,
  0x69, 0x3d, 0x49, 0xee, 0x00, 0x89, 0x33, 0x10, 0x83, 0x29, 0xce, 0xa5,
  0x34, 0xde, 0x7f, 0xe9, 0xa7, 0xf2, 0xd1, 0xb9, 0xde, 0x65, 0x05, 0xd0,
  0xbe, 0x44, 0x07, 0x19, 0x0a, 0xe3, 0xb6, 0xca, 0x2d, 0x1d, 0xb8, 0xc3,
  0x3b, 0xb0, 0x35, 0x24, 0xd3, 0x07, 0xb5, 0x49, 0x7f, 0x35, 0x3b, 0xba,
  0x00, 0x42, 0xd1, 0x27, 0x58, 0xd6, 0xdb, 0xec, 0x59, 0x3e, 0xef, 0xfb,
  0x38, 0x53, 0x1e, 0x16, 0x13, 0x51, 0x30, 0x35, 0x4e, 0x5a, 0x79, 0xd3,
  0x7f, 0xdf, 0x47, 0x20, 0xf4, 0xc6, 0x3d, 0x38, 0xb7, 0x23, 0xd9, 0x4f,
  0xf7, 0x46, 0x46, 0xf9, 0xe9, 0x24, 0x2e, 0xdc, 0xf8, 0xd3, 0x52, 0xf8,
  0x26, 0xc6, 0x03, 0x2c, 0x2e, 0xec, 0x23, 0x29, 0x1c, 0x63, 0xd8, 0xf4,
  0x81, 0x2f, 0xcb, 0xe0, 0xe1, 0xd8, 0xd9, 0xab, 0x28, 0xac, 0x2c, 0xc3,
  0xd6, 0xdd, 0x49, 0xd7, 0x39, 0xf4, 0x5b, 0x2b, 0x12, 0xef, 0xbc, 0x10,
  0x4d, 0x16, 0x7f, 0x74, 0x33, 0x02, 0x69, 0x48, 0x11, 0x14, 0xa0, 0x3e,
  0x05, 0x47, 0xbe, 0x59, 0x04, 0x4a, 0xe9, 0xb4, 0x03, 0x14, 0x43, 0x6c,
  0x52, 0xfc, 0x17, 0xd5, 0xf3, 0x85, 0x66, 0x3d, 0x47, 0xe0, 0x27, 0xf4,
  0x5e, 0x5b, 0x0e, 0x3f, 0x1b, 0xdf, 0x90, 0x65, 0xfd, 0x05, 0x6f, 0xa7,
  0x81, 0x12, 0x89, 0x0e, 0x3e, 0x18, 0x21, 0xe0, 0x1e, 0xd8, 0xaa, 0x19,
  0xe5, 0xea, 0xd2, 0xc4, 0xed, 0xf0, 0x05, 0x19, 0xe1, 0xd7, 0xec, 0x5e,
  0x7f, 0xf6, 0xec, 0x3c, 0x24, 0xdb, 0x07, 0x75, 0x3c, 0x43, 0xef, 0x26,
  0x9f, 0x09, 0x9f, 0x74, 0x1e, 0x9e, 0x58, 0x34, 0x36, 0x22, 0xa8, 0x28,
  0xad, 0xec, 0xcd, 0xff, 0xf0, 0x3a, 0xdb, 0x95, 0xfd, 0x41, 0x1c, 0xbf,
  0xa6, 0x29, 0xdb, 0x81, 0x3f, 0xb4, 0xf4, 0x02, 0xd5, 0xc4, 0x07, 0x1e,
  0xfc, 0xe9, 0x1a, 0xeb, 0x30, 0x17, 0xe9, 0x0a, 0xee, 0xde, 0xce, 0x24,
  0xf8, 0x12, 0xe8, 0xa2, 0x81, 0x06, 0x14, 0xf0, 0x00, 0x25, 0x2e, 0xa0,
  0x1f, 0xcb, 0xe5, 0x05, 0x3c, 0x19, 0xdf, 0x46, 0xc5, 0x43, 0x2e, 0xc8,
  0x21, 0xcb, 0xd9, 0x4f, 0xbd, 0xf9, 0xb4, 0x36, 0x90, 0x1d, 0xd5, 0xba,
  0x7f, 0xc0, 0x03, 0xc4, 0xd6, 0x47, 0x4e, 0x4c, 0x65, 0x4d, 0xd6, 0x2e,
  0x56, 0x46, 0x4e, 0x12, 0xd3, 0x64, 0x81, 0xc1, 0xd8, 0x24, 0x52, 0xa3,
  0x65, 0xbc, 0xfc, 0xfb, 0x58, 0x19, 0x3b, 0xc8, 0xff, 0xb8, 0x0d, 0xd9,
  0x59, 0xf5, 0x31, 0x0d, 0x66, 0x37, 0xdd, 0xfa, 0x11, 0xc4, 0xd3, 0xff,
  0x1a, 0xb2, 0xa9, 0x18, 0xc7, 0xbf, 0x1b, 0x2f, 0x21, 0xcd, 0x30, 0x1e,
  0xfc, 0x50, 0x21, 0xc6, 0x81, 0xc6, 0x02, 0x05, 0xee, 0x12, 0xf1, 0x3c,
  0x18, 0xb0, 0xab, 0xbd, 0xb1, 0xe8, 0x05, 0xcf, 0x58, 0x60, 0xb4, 0x13,
  0xaa, 0x37, 0xcd, 0x23, 0x19, 0x9e, 0xac, 0x0a, 0xab, 0x64, 0xcb, 0x81,
  0xdb, 0x33, 0x46, 0x3a, 0x35, 0x06, 0xdf, 0xe2, 0x31, 0xbd, 0xd0, 0xa8,
  0x81, 0xe3, 0x2f, 0x14, 0x3e, 0x58, 0x46, 0x2f, 0x59, 0x54, 0xb0, 0x09,
  0x27, 0xf6, 0x98, 0xfe, 0xec, 0x5e, 0xa8, 0x92, 0xd9, 0x3d, 0x11, 0xc0,
  0xaf, 0xc3, 0x69, 0x8c, 0xa9, 0xc1, 0xa9, 0xfb, 0x02, 0x30, 0x17, 0x17,
  0xc6, 0xcb, 0xbd, 0x31, 0xd7, 0xf4, 0xe5, 0x3b, 0x02, 0x48, 0x48, 0x40,
  0x31, 0x07, 0xda, 0x53, 0x7f, 0xeb, 0xcf, 0x43, 0xec, 0xd3, 0x0f, 0x47,
  0xbe, 0x38, 0xe6, 0x25, 0xac, 0xbd, 0xfb, 0x1a, 0x02, 0x38, 0x17, 0x25,
  0x0e, 0x05, 0x02, 0x0d, 0xbd, 0xae, 0x8c, 0xc7, 0x81, 0x37, 0x21, 0xff,
  0xa9, 0x52, 0x17, 0xda, 0xce, 0x48, 0xd1, 0xef, 0xcf, 0xcf, 0xe8, 0xf5,
  0x2e, 0xf6, 0xff, 0xff, 0x04, 0x00, 0x00, 0x00, 0x00, 0x01, 0x00, 0x00,
  0x36, 0xfb, 0xff, 0xff, 0x24, 0x0a, 0x00, 0x00, 0xaf, 0x05, 0x00, 0x00,
  0x7f, 0x04, 0x00, 0x00, 0xaa, 0x05, 0x00, 0x00, 0xae, 0xed, 0xff, 0xff,
  0x99, 0xf9, 0xff, 0xff, 0xeb, 0x02, 0x00, 0x00, 0xf2, 0xf8, 0xff, 0xff,
  0x04, 0x04, 0x00, 0x00, 0x7e, 0xfb, 0xff, 0xff, 0x41, 0x04, 0x00, 0x00,
  0x61, 0x06, 0x00, 0x00, 0x17, 0x12, 0x00, 0x00, 0x37, 0xfd, 0xff, 0xff,
  0x69, 0x05, 0x00, 0x00, 0xef, 0x01, 0x00, 0x00, 0xe4, 0xff, 0xff, 0xff,
  0x8a, 0x01, 0x00, 0x00, 0x50, 0xfb, 0xff, 0xff, 0x46, 0xf3, 0xff, 0xff,
  0x1a, 0x05, 0x00, 0x00, 0xa6, 0x01, 0x00, 0x00, 0xad, 0xf2, 0xff, 0xff,
  0xe9, 0x02, 0x00, 0x00, 0x43, 0x05, 0x00, 0x00, 0x19, 0xfd, 0xff, 0xff,
  0x3d, 0x03, 0x00, 0x00, 0xf6, 0x04, 0x00, 0x00, 0xd4, 0xfa, 0xff, 0xff,
  0x61, 0xfa, 0xff, 0xff, 0x60, 0x05, 0x00, 0x00, 0x40, 0x05, 0x00, 0x00,
  0xa1, 0xf7, 0xff, 0xff, 0x3d, 0x04, 0x00, 0x00, 0xe4, 0x02, 0x00, 0x00,
  0x12, 0x06, 0x00, 0x00, 0xf9, 0x03, 0x00, 0x00, 0x47, 0xff, 0xff, 0xff,
  0xb2, 0xfe, 0xff, 0xff, 0x73, 0xf9, 0xff, 0xff, 0x0f, 0x01, 0x00, 0x00,
  0xcc, 0x03, 0x00, 0x00, 0x74, 0xff, 0xff, 0xff, 0x46, 0x04, 0x00, 0x00,
  0x26, 0xfe, 0xff, 0xff, 0x68, 0xfb, 0xff, 0xff, 0xc3, 0xfc, 0xff, 0xff,
  0x5b, 0xf7, 0xff, 0xff, 0xa5, 0xfa, 0xff, 0xff, 0x96, 0x02, 0x00, 0x00,
  0xa1, 0x00, 0x00, 0x00, 0xd0, 0x05, 0x00, 0x00, 0x55, 0x07, 0x00, 0x00,
  0x9e, 0xfd, 0xff, 0xff, 0x3c, 0xff, 0xff, 0xff, 0x1e, 0xf8, 0xff, 0xff,
  0x07, 0xfe, 0xff, 0xff, 0x98, 0x02, 0x00, 0x00, 0xb2, 0x03, 0x00, 0x00,
  0x68, 0xfe, 0xff, 0xff, 0xb6, 0xfe, 0xff, 0xff, 0x6b, 0x00, 0x00, 0x00,
  0xde, 0xff, 0xff, 0xff, 0x3a, 0xf7, 0xff, 0xff, 0x04, 0x00, 0x00, 0x00,
  0x00, 0x08, 0x00, 0x00, 0xaa, 0xa1, 0xdd, 0xec, 0x60, 0x2b, 0xcd, 0x65,
  0x22, 0x06, 0x1a, 0xe5, 0x38, 0xa1, 0x6f, 0x51, 0x46, 0xb7, 0xe2, 0xdf,
  0xdd, 0xe7, 0x5f, 0x01, 0x38, 0xc7, 0xab, 0xc7, 0x9f, 0x14, 0x68, 0x19,
  0xfd, 0xf5, 0x48, 0x66, 0x05, 0xdd, 0x40, 0xd9, 0xc4, 0x0b, 0xe1, 0xcb,
  0x25, 0x10, 0xe5, 0xe9, 0xd8, 0x07, 0x12, 0xb4, 0xbf, 0x1b, 0xed, 0x4b,
  0xbc, 0xfc, 0x81, 0xf3, 0x94, 0xc1, 0x6f, 0xdf, 0x17, 0x13, 0x06, 0x02,
  0x08, 0x1f, 0xf3, 0xdb, 0xe9, 0x32, 0xfd, 0x1c, 0x2a, 0x31, 0x04, 0xa6,
  0xe7, 0x42, 0xf4, 0x0c, 0x4f, 0xfd, 0x38, 0x22, 0x37, 0x38, 0x37, 0xb1,
  0x38, 0xd8, 0xee, 0x50, 0x9d, 0x48, 0xe2, 0x0b, 0xc0, 0x47, 0x9c, 0x7f,
  0xc4, 0xdc, 0xcf, 0xe0, 0xe0, 0x39, 0x60, 0xfd, 0xcb, 0x38, 0x39, 0x6b,
  0xc4, 0x30, 0xd5, 0xec, 0x35, 0xcb, 0x30, 0x3f, 0x61, 0xe1, 0xd6, 0x2d,
  0xf1, 0x7b, 0x62, 0xf9, 0x99, 0x8a, 0x28, 0xb3, 0xd9, 0x07, 0x38, 0x05,
  0x3c, 0x77, 0x49, 0xc2, 0x2f, 0xc1, 0x39, 0xc9, 0x42, 0x46, 0x7a, 0x81,
  0x9f, 0x5b, 0xcb, 0x95, 0xbd, 0x17, 0x11, 0x1f, 0xbe, 0x53, 0x05, 0xb7,
  0xb7, 0x90, 0x5f, 0xe5, 0x6f, 0xc8, 0xcf, 0xeb, 0x07, 0xd1, 0xee, 0x8e,
  0x22, 0x64, 0x72, 0xff, 0xd1, 0x56, 0x65, 0x4e, 0xf9, 0x30, 0x11, 0xc1,
  0x00, 0x2c, 0x5e, 0xe2, 0x5d, 0xb8, 0x1f, 0x58, 0x16, 0x6b, 0xc4, 0x8e,
  0x1f, 0x84, 0x20, 0xf5, 0x76, 0x48, 0x3e, 0x28, 0xba, 0xf2, 0xa9, 0x99,
  0xf2, 0xe8, 0xb6, 0xf6, 0x56, 0x46, 0x76, 0x8f, 0x23, 0x4c, 0x9c, 0xc4,
  0xa2, 0x78, 0xfd, 0x0d, 0xdc, 0x67, 0xf5, 0xe9, 0x7f, 0xdc, 0x46, 0xf6,
  0x23, 0x4a, 0x12, 0x8f, 0x22, 0xcc, 0x5b, 0x18, 0xe9, 0x49, 0xee, 0x58,
  0xbb, 0xea, 0x47, 0x22, 0x4b, 0x96, 0x25, 0x56, 0x20, 0xbf, 0x15, 0x48,
  0xd9, 0x11, 0x47, 0xfa, 0xfc, 0x29, 0xdf, 0xa8, 0x28, 0x9d, 0x02, 0xc1,
  0x48, 0x15, 0x20, 0xb5, 0x49, 0x60, 0xed, 0x47, 0x2b, 0x1c, 0x15, 0xe4,
  0xd4, 0xfa, 0xcb, 0x2d, 0xbc, 0x27, 0x09, 0xb1, 0xed, 0xe6, 0xd6, 0x7f,
  0x3e, 0x0f, 0x4f, 0xde, 0xc1, 0xc6, 0x34, 0x57, 0x38, 0x28, 0xca, 0x42,
  0x3d, 0x1c, 0xfd, 0xf2, 0x47, 0x25, 0x06, 0x25, 0x59, 0x31, 0x04, 0x30,
  0x8f, 0xe7, 0xec, 0x2d, 0x03, 0x3e, 0xfb, 0x5c, 0xe8, 0x6e, 0x5d, 0x26,
  0x64, 0x39, 0xfb, 0xd0, 0x1a, 0x73, 0x81, 0x3c, 0x72, 0x3c, 0xf7, 0x10,
  0x06, 0xb5, 0xee, 0xe5, 0xe5, 0x65, 0xcb, 0xce, 0xfc, 0xdc, 0xf8, 0x30,
  0xef, 0xd4, 0xd9, 0x09, 0xf5, 0x37, 0x68, 0x9c, 0x32, 0x9f, 0x46, 0x2a,
  0x50, 0x27, 0xec, 0x50, 0x9d, 0x45, 0xc0, 0x6d, 0x53, 0xf1, 0x27, 0x35,
  0x53, 0x3c, 0x38, 0x5a, 0xfd, 0x30, 0x13, 0xe7, 0xf3, 0x0b, 0xfa, 0xff,
  0x05, 0xf9, 0x3f, 0x19, 0x06, 0xc7, 0xb1, 0xec, 0x47, 0xaf, 0xce, 0xb8,
  0x44, 0x6b, 0x9a, 0x53, 0xff, 0x3e, 0x01, 0x15, 0x34, 0x34, 0xf3, 0xc7,
  0x81, 0x29, 0xdc, 0x0d, 0xd5, 0xd7, 0xdb, 0x66, 0x1e, 0xdd, 0x13, 0xcd,
  0x00, 0xc4, 0x55, 0xdf, 0xd8, 0xe8, 0xf0, 0x02, 0xbb, 0x0e, 0xe1, 0x25,
  0x7d, 0xf5, 0x43, 0x39, 0xe6, 0xf4, 0xc2, 0xe9, 0x97, 0xc9, 0xbb, 0xd5,
  0x59, 0x3a, 0xa9, 0x42, 0xf7, 0xb9, 0x21, 0xea, 0xe1, 0x07, 0x21, 0xf7,
  0xdb, 0x7f, 0xc3, 0x09, 0x39, 0x3d, 0x2f, 0x56, 0xce, 0xd6, 0x00, 0xc9,
  0xdd, 0x61, 0xf1, 0x69, 0xfb, 0x01, 0xa3, 0x0c, 0x49, 0x1c, 0xe2, 0xd5,
  0x11, 0x2e, 0x20, 0xd0, 0x2d, 0x45, 0xe6, 0x5c, 0x1b, 0x08, 0x82, 0x49,
  0x44, 0x16, 0x90, 0x62, 0x0b, 0xde, 0x82, 0xbb, 0x58, 0x72, 0xb9, 0xe7,
  0xab, 0x0e, 0xb5, 0xdf, 0xe5, 0x47, 0x34, 0xf6, 0x07, 0xeb, 0xec, 0x3e,
  0x0a, 0x1c, 0x45, 0xe7, 0xc0, 0x35, 0xe3, 0xbd, 0xc2, 0x2b, 0xc7, 0xbc,
  0x1b, 0x31, 0x1a, 0xdd, 0x52, 0x50, 0x21, 0x42, 0x00, 0x2c, 0x4a, 0xfd,
  0x5b, 0xac, 0x2e, 0x7f, 0x08, 0x53, 0x2b, 0x47, 0xc8, 0x5a, 0xc8, 0xe2,
  0xdf, 0xc9, 0xfa, 0xbc, 0x30, 0x51, 0x4e, 0x14, 0x51, 0xaa, 0xb6, 0x31,
  0xf0, 0x21, 0xf4, 0xc2, 0xac, 0x20, 0xeb, 0x0b, 0x3b, 0xc9, 0xa1, 0x7d,
  0xd3, 0x0e, 0xc3, 0xf7, 0x52, 0x0d, 0x45, 0x26, 0x2e, 0xe5, 0xfb, 0x1f,
  0xe6, 0x50, 0x39, 0xd2, 0x61, 0xde, 0x23, 0xb7, 0xb7, 0xcf, 0x9e, 0xd5,
  0x8e, 0x3c, 0x4a, 0x7f, 0x16, 0xf9, 0x48, 0x52, 0xfe, 0xa9, 0x2d, 0x27,
  0x44, 0xdd, 0x08, 0xd3, 0xac, 0xb3, 0xae, 0x7c, 0x47, 0x2a, 0x8d, 0x87,
  0x28, 0x22, 0x27, 0x68, 0x0f, 0xa5, 0xf9, 0x30, 0x1b, 0x36, 0x18, 0x1c,
  0x10, 0xda, 0xec, 0xce, 0xd0, 0xe5, 0xdb, 0x1b, 0x2c, 0x2d, 0xe2, 0x0b,
  0xbb, 0xbe, 0x3c, 0x0e, 0xd4, 0xb6, 0x42, 0xd1, 0xe4, 0x30, 0xc0, 0xc9,
  0xcf, 0x10, 0x21, 0xc4, 0x6b, 0x05, 0x4d, 0x0e, 0xab, 0x2d, 0x20, 0x81,
  0xe0, 0xed, 0x09, 0x1c, 0x56, 0xf4, 0xcf, 0x1a, 0xd9, 0x02, 0x3d, 0xdc,
  0x21, 0x1d, 0x24, 0xd4, 0xa9, 0x2e, 0x1e, 0x1d, 0xd9, 0xd6, 0x34, 0xbe,
  0x62, 0xa9, 0xe5, 0x1f, 0xe6, 0xf2, 0x29, 0x37, 0xd5, 0xdd, 0xf3, 0xba,
  0x9f, 0xb0, 0xca, 0x26, 0x9f, 0xa2, 0xd6, 0x3e, 0x1c, 0x36, 0x49, 0x54,
  0xe4, 0xb5, 0x47, 0xa9, 0xa5, 0x39, 0xc1, 0x03, 0x2f, 0x6b, 0x0f, 0x0a,
  0x96, 0xe0, 0xea, 0x2e, 0xea, 0xbf, 0xcf, 0x07, 0x81, 0x66, 0x5c, 0x76,
  0x47, 0x4d, 0x32, 0x9d, 0xe2, 0xe6, 0x22, 0x00, 0xcc, 0x5c, 0x67, 0xb2,
  0x69, 0xdd, 0x22, 0x01, 0xa3, 0x5c, 0x3a, 0x57, 0xff, 0x32, 0x15, 0x03,
  0x0f, 0xf7, 0xa5, 0xe6, 0x81, 0xe7, 0x29, 0xbf, 0x95, 0x37, 0x21, 0x58,
  0xa1, 0xf8, 0x3c, 0x16, 0xb3, 0xa3, 0x11, 0x23, 0xc6, 0x51, 0x59, 0xab,
  0x9e, 0x26, 0xec, 0xb5, 0xb8, 0x97, 0x7c, 0x8c, 0x54, 0xed, 0x04, 0x03,
  0x54, 0xfc, 0x5e, 0x74, 0x9e, 0xf7, 0xd0, 0x41, 0x19, 0xb4, 0x51, 0xee,
  0x65, 0xd2, 0x13, 0x0b, 0xac, 0x00, 0xf8, 0xf5, 0x55, 0x54, 0x1c, 0x2e,
  0xe9, 0xcd, 0x1b, 0x08, 0xe6, 0xea, 0xc6, 0x30, 0x0a, 0xe3, 0x40, 0x1f,
  0xe0, 0x12, 0x4a, 0x11, 0xb6, 0xf6, 0x1b, 0x19, 0xb0, 0x1b, 0xac, 0x37,
  0x02, 0x29, 0xbf, 0x10, 0x6b, 0x2c, 0x2f, 0x3e, 0x16, 0x46, 0x5f, 0xab,
  0x1a, 0xdf, 0xb4, 0xf6, 0x36, 0x0d, 0xdb, 0x10, 0x18, 0x2c, 0x38, 0xac,
  0x3d, 0x3c, 0x1d, 0x01, 0xad, 0xc9, 0xf1, 0xf3, 0xd7, 0x91, 0xc1, 0x81,
  0x9b, 0x16, 0xc0, 0x35, 0x75, 0x29, 0x3b, 0x24, 0x48, 0x49, 0xd9, 0x81,
  0x45, 0x58, 0x9c, 0x0e, 0x66, 0x0b, 0xab, 0xa4, 0x19, 0xbb, 0x8a, 0x0c,
  0x9e, 0xc5, 0x43, 0x90, 0x3f, 0xf1, 0x4c, 0x6d, 0x4e, 0xe0, 0x67, 0xbf,
  0xef, 0xac, 0x23, 0x01, 0x4c, 0x0f, 0x20, 0x0b, 0x27, 0x5d, 0xfe, 0x10,
  0x37, 0xa8, 0x2e, 0x4c, 0x1c, 0x40, 0x8c, 0xd7, 0x30, 0x4c, 0x2e, 0xff,
  0xe9, 0xe4, 0x5e, 0x32, 0xa5, 0x07, 0xed, 0x5f, 0x1d, 0x8f, 0xd5, 0x54,
  0xcf, 0x51, 0xa1, 0xf0, 0xe7, 0xa7, 0x73, 0x7d, 0xac, 0xad, 0xec, 0x08,
  0xe8, 0x38, 0x36, 0x6c, 0x69, 0x47, 0xd2, 0x6e, 0x06, 0x2b, 0xf2, 0x17,
  0xcf, 0x2c, 0xc7, 0xcb, 0x54, 0x81, 0x06, 0x27, 0x2f, 0xd4, 0x2b, 0x3b,
  0x23, 0xcb, 0xad, 0xb8, 0x05, 0x70, 0x90, 0x8e, 0x03, 0xc3, 0x6c, 0x33,
  0x61, 0x74, 0xe0, 0x46, 0xfa, 0xa4, 0x6c, 0x00, 0xeb, 0xac, 0x2d, 0x32,
  0xb1, 0xf5, 0xb4, 0x21, 0xec, 0x63, 0x06, 0x29, 0xd4, 0xd2, 0x54, 0x97,
  0x42, 0x39, 0x9a, 0xdf, 0x67, 0x59, 0x91, 0xf1, 0x05, 0x39, 0xca, 0x54,
  0xa9, 0x08, 0x3c, 0xb8, 0x97, 0x3b, 0x09, 0xf2, 0x50, 0x47, 0xa9, 0x7f,
  0x09, 0xc8, 0x14, 0x3c, 0xa7, 0x9d, 0x16, 0xd0, 0x05, 0xef, 0x56, 0x35,
  0x4f, 0x22, 0xa0, 0x95, 0x40, 0xc3, 0x1e, 0xa0, 0x59, 0x15, 0xe8, 0xe0,
  0x55, 0xf4, 0xf9, 0xea, 0x6e, 0x98, 0x94, 0xea, 0xcf, 0x76, 0xff, 0xf7,
  0xbd, 0x04, 0x3f, 0x3d, 0x7a, 0x1c, 0xd8, 0xac, 0x20, 0xb9, 0x5f, 0xf8,
  0x6b, 0x61, 0xf4, 0x38, 0x88, 0x22, 0xb7, 0x73, 0x1a, 0x0f, 0x1c, 0x16,
  0x6f, 0x5d, 0xeb, 0xd4, 0x0a, 0xa2, 0x75, 0xf7, 0x18, 0x22, 0xe0, 0x12,
  0x00, 0x93, 0x8a, 0x75, 0xee, 0x68, 0xf6, 0x4c, 0x3c, 0x7f, 0x31, 0x29,
  0xb3, 0x9d, 0x75, 0xd7, 0x39, 0xf9, 0x2e, 0xdc, 0xe0, 0x2e, 0xb2, 0xe3,
  0xfc, 0x39, 0xbf, 0xd1, 0xf5, 0x10, 0xb1, 0x2e, 0xec, 0xf9, 0xf7, 0xb6,
  0x02, 0x70, 0x4c, 0x16, 0xec, 0x18, 0x96, 0x32, 0x34, 0xed, 0x56, 0x22,
  0xcc, 0x81, 0xa6, 0x1b, 0xd1, 0x53, 0xb5, 0x29, 0x15, 0xb6, 0x1f, 0xc4,
  0xe4, 0xe8, 0x03, 0xad, 0xbc, 0x93, 0xd4, 0xe7, 0xfc, 0x58, 0x52, 0x92,
  0x47, 0x0c, 0x51, 0xe1, 0xd7, 0x57, 0x25, 0x57, 0x1a, 0x17, 0x6e, 0xd5,
  0xda, 0x9f, 0x02, 0xa6, 0x3a, 0x1d, 0xdc, 0x39, 0x48, 0x5c, 0xa2, 0xc2,
  0xd9, 0x2f, 0xd0, 0x08, 0x39, 0xbb, 0x93, 0x10, 0x13, 0xb6, 0x9d, 0xc1,
  0x16, 0xd4, 0xf7, 0xf1, 0xcd, 0x50, 0xd7, 0xf4, 0x81, 0x10, 0xca, 0xfa,
  0x7b, 0x63, 0xba, 0x02, 0x42, 0x31, 0xa0, 0x59, 0x00, 0x40, 0x11, 0x2f,
  0x54, 0x0b, 0x62, 0x97, 0x9a, 0x41, 0x33, 0x39, 0xe2, 0xb3, 0x45, 0xa8,
  0x38, 0xc9, 0x1c, 0x10, 0x13, 0x32, 0x3f, 0x3f, 0x31, 0xe3, 0x36, 0xe0,
  0x46, 0xc4, 0x61, 0xa3, 0xc9, 0x4f, 0x71, 0x9c, 0xfb, 0x81, 0xc0, 0x28,
  0xbd, 0xd0, 0x47, 0x65, 0xe0, 0x4a, 0x65, 0x8f, 0xb1, 0xd0, 0x0b, 0x43,
  0x4c, 0xdb, 0x16, 0xac, 0x57, 0xbf, 0x62, 0x6e, 0x33, 0x2d, 0x53, 0x26,
  0xf8, 0x02, 0xf0, 0x99, 0xd6, 0x48, 0x62, 0x0d, 0xb5, 0xf8, 0x43, 0x3e,
  0x51, 0xb7, 0x30, 0x41, 0xaf, 0x39, 0x8f, 0x5d, 0x56, 0xab, 0xb9, 0xc5,
  0xb6, 0x15, 0x17, 0x3b, 0xf1, 0x17, 0x9e, 0xd1, 0xfc, 0x44, 0xa6, 0x8f,
  0x1e, 0xb2, 0x45, 0x01, 0xb0, 0x61, 0x04, 0x63, 0x49, 0x3d, 0x48, 0x26,
  0x7f, 0x36, 0x06, 0xfa, 0x9f, 0x24, 0xc8, 0x00, 0x10, 0x30, 0x06, 0x41,
  0x01, 0x99, 0x96, 0xf9, 0x68, 0x05, 0xe8, 0xde, 0xe2, 0xcd, 0xcb, 0xc8,
  0xd2, 0x96, 0xaf, 0xbe, 0x3f, 0xc8, 0x65, 0xce, 0x81, 0x8c, 0xd8, 0xdb,
  0x62, 0xc9, 0xba, 0x49, 0xa6, 0x1f, 0xff, 0xcf, 0xcf, 0xc2, 0xc1, 0xd4,
  0x30, 0xc5, 0x2d, 0xdb, 0xb6, 0xdd, 0xc0, 0xa5, 0x05, 0xc7, 0x37, 0xa5,
  0x57, 0x19, 0x68, 0xde, 0xfb, 0xe8, 0xde, 0x5e, 0x22, 0xb8, 0xfd, 0x29,
  0xeb, 0xac, 0x9e, 0x0a, 0x27, 0x44, 0x46, 0x52, 0x56, 0xa7, 0xcb, 0x46,
  0xe7, 0x55, 0xf1, 0x27, 0x5b, 0xe0, 0x73, 0xcc, 0xad, 0x17, 0xda, 0x75,
  0xa7, 0xd4, 0x52, 0xea, 0x52, 0x4c, 0xdc, 0xb2, 0xaf, 0x34, 0xd3, 0xac,
  0x4a, 0xd6, 0x60, 0x64, 0xf8, 0x55, 0x4b, 0x62, 0xfd, 0xce, 0x28, 0xea,
  0x72, 0x1c, 0x7f, 0x64, 0x3f, 0xe1, 0xd0, 0x02, 0xa7, 0xfb, 0xa5, 0x2b,
  0xfe, 0x42, 0xd2, 0xa0, 0xbc, 0x4b, 0x16, 0xae, 0xeb, 0xe8, 0xc9, 0x5e,
  0xd5, 0xf3, 0xf8, 0x3b, 0x00, 0x36, 0xfe, 0x45, 0x2f, 0x15, 0x9f, 0x55,
  0xf4, 0x43, 0xd8, 0x41, 0x1d, 0x5b, 0x30, 0x95, 0x37, 0x78, 0x4f, 0xa0,
  0xdf, 0xe2, 0x4e, 0xdc, 0xe7, 0x42, 0xad, 0x55, 0xf8, 0x43, 0x07, 0x97,
  0xca, 0xb2, 0x70, 0x32, 0xca, 0x8d, 0x7f, 0xc1, 0xc5, 0xf1, 0x76, 0x71,
  0x69, 0x51, 0x70, 0x9d, 0x27, 0x30, 0xca, 0x85, 0x02, 0xc6, 0x36, 0x6a,
  0xc5, 0x73, 0xc3, 0x53, 0xc7, 0x1a, 0xe7, 0xde, 0x75, 0xb9, 0xbe, 0x6b,
  0xdf, 0xd3, 0xfe, 0xc5, 0x0e, 0x00, 0x34, 0xf0, 0xe7, 0xa6, 0x41, 0xbf,
  0xe8, 0x46, 0x00, 0x4c, 0x1b, 0x19, 0x1e, 0xf5, 0xc9, 0xd5, 0x0c, 0xc9,
  0x10, 0x43, 0x8e, 0xca, 0x03, 0xd8, 0x1d, 0x5b, 0xae, 0xc4, 0xd8, 0xfc,
  0xd4, 0xdf, 0x22, 0x0b, 0x81, 0xda, 0xa2, 0xb7, 0x50, 0x53, 0xa4, 0x67,
  0x5d, 0xd5, 0x36, 0x21, 0xbd, 0x1b, 0x74, 0x2e, 0x2c, 0xf6, 0xff, 0x54,
  0xe7, 0xa9, 0xae, 0xea, 0x73, 0xf3, 0xc3, 0xdd, 0x22, 0xb4, 0x3e, 0xb8,
  0xec, 0x66, 0x35, 0x53, 0xec, 0xde, 0xad, 0x22, 0xea, 0xd0, 0xbc, 0x47,
  0xd5, 0x38, 0x23, 0xe7, 0x36, 0xbf, 0x44, 0x8e, 0xde, 0xea, 0x37, 0xfb,
  0x9a, 0xfa, 0xd6, 0xf5, 0x58, 0x4e, 0x98, 0x0f, 0x6d, 0x18, 0x62, 0xed,
  0x81, 0xfe, 0x07, 0x87, 0x69, 0x20, 0x89, 0x17, 0x18, 0xd9, 0xb1, 0xf3,
  0x49, 0x37, 0x35, 0xdf, 0xc0, 0xa5, 0xfa, 0xd6, 0xa6, 0xaf, 0x1f, 0xff,
  0xd3, 0x25, 0x2d, 0x8f, 0x35, 0xe6, 0x5e, 0x6f, 0xc0, 0xf6, 0xbb, 0xbb,
  0x96, 0xbc, 0xa4, 0x1a, 0xcc, 0x1f, 0x2c, 0xba, 0xf8, 0xcd, 0x34, 0xc9,
  0xf4, 0x26, 0xd7, 0x15, 0x0e, 0x28, 0x98, 0x4a, 0xd4, 0xc5, 0x8a, 0xcc,
  0xef, 0x51, 0x46, 0xb9, 0x81, 0x72, 0x4f, 0xe4, 0x4e, 0xf7, 0x89, 0x40,
  0xf0, 0xe0, 0xeb, 0x1f, 0x2f, 0xde, 0x28, 0xd7, 0x32, 0x27, 0xc9, 0xe9,
  0xe7, 0xf5, 0x3f, 0xc3, 0xd7, 0xe7, 0x3f, 0xc1, 0x02, 0xad, 0xbe, 0xfb,
  0xda, 0x32, 0xf2, 0xc7, 0x40, 0xed, 0xfd, 0x37, 0xb1, 0xcb, 0x1b, 0xc3,
  0x12, 0xf0, 0xb0, 0x3b, 0x28, 0x1d, 0x07, 0xdf, 0xf0, 0x12, 0xc2, 0x1f,
  0x0e, 0xae, 0xc9, 0x21, 0xd9, 0xb7, 0xb9, 0xf9, 0xce, 0xcf, 0xfc, 0x7f,
  0x0c, 0xe7, 0x29, 0x2e, 0xd3, 0xb7, 0x27, 0x29, 0x43, 0x37, 0x34, 0xec,
  0xe6, 0xb5, 0xf3, 0x1c, 0x6b, 0xfa, 0x48, 0xcd, 0x0b, 0x24, 0xb9, 0x03,
  0xc2, 0x3e, 0x28, 0x55, 0x0e, 0x04, 0x58, 0x60, 0xed, 0x24, 0xbe, 0xda,
  0x52, 0x49, 0xb8, 0x60, 0x73, 0xbc, 0x87, 0x34, 0xa0, 0x40, 0xd8, 0x92,
  0x00, 0x14, 0xc3, 0xcd, 0xcf, 0x9a, 0xc0, 0x1b, 0x29, 0xe4, 0x35, 0x5d,
  0x27, 0xc3, 0xbf, 0x65, 0xc3, 0x15, 0xb5, 0x00, 0x56, 0x81, 0x5a, 0x28,
  0xc4, 0x90, 0x5c, 0xef, 0x08, 0x14, 0xed, 0x35, 0x11, 0xf2, 0xe1, 0x15,
  0x27, 0x2c, 0x37, 0x16, 0x85, 0xbc, 0xdb, 0xb0, 0x3f, 0x67, 0x1a, 0xbf,
  0x93, 0xb8, 0x5f, 0xec, 0x91, 0x5c, 0x6e, 0xb5, 0x09, 0x13, 0x2e, 0xfa,
  0x35, 0xd6, 0xb1, 0xb6, 0x12, 0x94, 0xd3, 0x28, 0xfa, 0x7f, 0xd6, 0x23,
  0xe9, 0x11, 0x2a, 0x58, 0x02, 0x58, 0xc4, 0x16, 0xf2, 0x46, 0xca, 0x79,
  0x16, 0xa7, 0x44, 0x6c, 0xb7, 0x43, 0x6c, 0xb3, 0xcc, 0x06, 0xbf, 0x96,
  0xff, 0xf9, 0xb9, 0x93, 0xae, 0x12, 0xed, 0x67, 0x9c, 0xf4, 0x3f, 0xdb,
  0xea, 0x0c, 0x00, 0x7f, 0x6e, 0x37, 0xad, 0x3f, 0xf8, 0x60, 0x23, 0xe5,
  0xb8, 0x53, 0x66, 0x4e, 0x6c, 0xdf, 0x97, 0xfd, 0xe2, 0x26, 0xc5, 0x65,
  0xfb, 0xab, 0x6b, 0x15, 0x9c, 0xfa, 0x55, 0x5e, 0x28, 0x1f, 0x08, 0x53,
  0x64, 0xc6, 0x4c, 0x5d, 0x79, 0xa6, 0xd4, 0xaa, 0x3f, 0xb1, 0xd0, 0x9d,
  0x81, 0xe3, 0x74, 0x4e, 0x45, 0xdb, 0xd6, 0x25, 0x1f, 0xdd, 0xf2, 0x16,
  0x46, 0xff, 0xff, 0xff, 0x04, 0x00, 0x00, 0x00, 0x80, 0x00, 0x00, 0x00,
  0xed, 0x06, 0x00, 0x00, 0x7b, 0x02, 0x00, 0x00, 0xe6, 0xfc, 0xff, 0xff,
  0xd6, 0xf7, 0xff, 0xff, 0x9f, 0x00, 0x00, 0x00, 0x20, 0x01, 0x00, 0x00,
  0xbc, 0xfe, 0xff, 0xff, 0x96, 0x01, 0x00, 0x00, 0x2e, 0x06, 0x00, 0x00,
  0x47, 0x07, 0x00, 0x00, 0x39, 0x05, 0x00, 0x00, 0xd2, 0xf7, 0xff, 0xff,
  0x18, 0xf9, 0xff, 0xff, 0x1e, 0x00, 0x00, 0x00, 0xf6, 0x06, 0x00, 0x00,
  0x99, 0xf9, 0xff, 0xff, 0xea, 0xff, 0xff, 0xff, 0xe2, 0x0a, 0x00, 0x00,
  0x39, 0x08, 0x00, 0x00, 0x08, 0xfd, 0xff, 0xff, 0x4b, 0xf7, 0xff, 0xff,
  0xff, 0xfa, 0xff, 0xff, 0xd9, 0xfa, 0xff, 0xff, 0xcb, 0xfc, 0xff, 0xff,
  0xf6, 0xf8, 0xff, 0xff, 0x83, 0x00, 0x00, 0x00, 0x8f, 0x01, 0x00, 0x00,
  0x9c, 0xff, 0xff, 0xff, 0x6c, 0x00, 0x00, 0x00, 0x3e, 0x0c, 0x00, 0x00,
  0x2d, 0xfc, 0xff, 0xff, 0xf7, 0x05, 0x00, 0x00, 0xd2, 0xff, 0xff, 0xff,
  0x04, 0x00, 0x00, 0x00, 0x20, 0x00, 0x00, 0x00, 0x7f, 0x63, 0x95, 0xf4,
  0x59, 0xa6, 0x4c, 0xb4, 0x30, 0x56, 0x70, 0xb4, 0xcf, 0x64, 0x32, 0xfe,
  0x4f, 0x38, 0x51, 0x47, 0xef, 0xeb, 0xf7, 0xf5, 0xd8, 0x0e, 0x68, 0x4b,
  0x42, 0x3b, 0x01, 0x2d, 0x00, 0x00, 0x06, 0x00, 0x08, 0x00, 0x04, 0x00,
  0x06, 0x00, 0x00, 0x00, 0x04, 0x00, 0x00, 0x00, 0x04, 0x00, 0x00, 0x00,
  0x59, 0x05, 0x00, 0x00, 0x10, 0xfe, 0xff, 0xff, 0x14, 0xfe, 0xff, 0xff,
  0x0f, 0x00, 0x00, 0x00, 0x4d, 0x4c, 0x49, 0x52, 0x20, 0x43, 0x6f, 0x6e,
  0x76, 0x65, 0x72, 0x74, 0x65, 0x64, 0x2e, 0x00, 0x01, 0x00, 0x00, 0x00,
  0x14, 0x00, 0x00, 0x00, 0x00, 0x00, 0x0e, 0x00, 0x18, 0x00, 0x14, 0x00,
  0x10, 0x00, 0x0c, 0x00, 0x08, 0x00, 0x04, 0x00, 0x0e, 0x00, 0x00, 0x00,
  0x14, 0x00, 0x00, 0x00, 0x1c, 0x00, 0x00, 0x00, 0xd0, 0x01, 0x00, 0x00,
  0xd4, 0x01, 0x00, 0x00, 0xd8, 0x01, 0x00, 0x00, 0x04, 0x00, 0x00, 0x00,
  0x6d, 0x61, 0x69, 0x6e, 0x00, 0x00, 0x00, 0x00, 0x09, 0x00, 0x00, 0x00,
  0x80, 0x01, 0x00, 0x00, 0x4c, 0x01, 0x00, 0x00, 0x0c, 0x01, 0x00, 0x00,
  0xe8, 0x00, 0x00, 0x00, 0xb4, 0x00, 0x00, 0x00, 0x90, 0x00, 0x00, 0x00,
  0x5c, 0x00, 0x00, 0x00, 0x38, 0x00, 0x00, 0x00, 0x04, 0x00, 0x00, 0x00,
  0xb2, 0xfe, 0xff, 0xff, 0x10, 0x00, 0x00, 0x00, 0x00, 0x00, 0x00, 0x08,
  0x0c, 0x00, 0x00, 0x00, 0x10, 0x00, 0x00, 0x00, 0xa4, 0xfe, 0xff, 0xff,
  0x01, 0x00, 0x00, 0x00, 0x13, 0x00, 0x00, 0x00, 0x03, 0x00, 0x00, 0x00,
  0x12, 0x00, 0x00, 0x00, 0x02, 0x00, 0x00, 0x00, 0x01, 0x00, 0x00, 0x00,
  0x0e, 0xff, 0xff, 0xff, 0x0c, 0x00, 0x00, 0x00, 0x10, 0x00, 0x00, 0x00,
  0x01, 0x00, 0x00, 0x00, 0x01, 0x00, 0x00, 0x00, 0x12, 0x00, 0x00, 0x00,
  0x01, 0x00, 0x00, 0x00, 0x11, 0x00, 0x00, 0x00, 0x02, 0xff, 0xff, 0xff,
  0x10, 0x00, 0x00, 0x00, 0x00, 0x00, 0x00, 0x08, 0x0c, 0x00, 0x00, 0x00,
  0x10, 0x00, 0x00, 0x00, 0xf4, 0xfe, 0xff, 0xff, 0x01, 0x00, 0x00, 0x00,
  0x11, 0x00, 0x00, 0x00, 0x03, 0x00, 0x00, 0x00, 0x10, 0x00, 0x00, 0x00,
  0x04, 0x00, 0x00, 0x00, 0x03, 0x00, 0x00, 0x00, 0x5e, 0xff, 0xff, 0xff,
  0x0c, 0x00, 0x00, 0x00, 0x10, 0x00, 0x00, 0x00, 0x01, 0x00, 0x00, 0x00,
  0x01, 0x00, 0x00, 0x00, 0x10, 0x00, 0x00, 0x00, 0x01, 0x00, 0x00, 0x00,
  0x0f, 0x00, 0x00, 0x00, 0x52, 0xff, 0xff, 0xff, 0x10, 0x00, 0x00, 0x00,
  0x00, 0x00, 0x00, 0x08, 0x0c, 0x00, 0x00, 0x00, 0x10, 0x00, 0x00, 0x00,
  0x44, 0xff, 0xff, 0xff, 0x01, 0x00, 0x00, 0x00, 0x0f, 0x00, 0x00, 0x00,
  0x03, 0x00, 0x00, 0x00, 0x0e, 0x00, 0x00, 0x00, 0x06, 0x00, 0x00, 0x00,
  0x05, 0x00, 0x00, 0x00, 0xae, 0xff, 0xff, 0xff, 0x0c, 0x00, 0x00, 0x00,
  0x10, 0x00, 0x00, 0x00, 0x01, 0x00, 0x00, 0x00, 0x01, 0x00, 0x00, 0x00,
  0x0e, 0x00, 0x00, 0x00, 0x01, 0x00, 0x00, 0x00, 0x0d, 0x00, 0x00, 0x00,
  0xa2, 0xff, 0xff, 0xff, 0x10, 0x00, 0x00, 0x00, 0x00, 0x00, 0x00, 0x08,
  0x0c, 0x00, 0x00, 0x00, 0x10, 0x00, 0x00, 0x00, 0x94, 0xff, 0xff, 0xff,
  0x01, 0x00, 0x00, 0x00, 0x0d, 0x00, 0x00, 0x00, 0x03, 0x00, 0x00, 0x00,
  0x0c, 0x00, 0x00, 0x00, 0x08, 0x00, 0x00, 0x00, 0x07, 0x00, 0x00, 0x00,
  0x00, 0x00, 0x0a, 0x00, 0x10, 0x00, 0x0c, 0x00, 0x08, 0x00, 0x04, 0x00,
  0x0a, 0x00, 0x00, 0x00, 0x0c, 0x00, 0x00, 0x00, 0x10, 0x00, 0x00, 0x00,
  0x01, 0x00, 0x00, 0x00, 0x01, 0x00, 0x00, 0x00, 0x0c, 0x00, 0x00, 0x00,
  0x01, 0x00, 0x00, 0x00, 0x0b, 0x00, 0x00, 0x00, 0x00, 0x00, 0x0e, 0x00,
  0x14, 0x00, 0x00, 0x00, 0x10, 0x00, 0x0c, 0x00, 0x0b, 0x00, 0x04, 0x00,
  0x0e, 0x00, 0x00, 0x00, 0x14, 0x00, 0x00, 0x00, 0x00, 0x00, 0x00, 0x08,
  0x10, 0x00, 0x00, 0x00, 0x14, 0x00, 0x00, 0x00, 0x04, 0x00, 0x04, 0x00,
  0x04, 0x00, 0x00, 0x00, 0x01, 0x00, 0x00, 0x00, 0x0b, 0x00, 0x00, 0x00,
  0x03, 0x00, 0x00, 0x00, 0x00, 0x00, 0x00, 0x00, 0x0a, 0x00, 0x00, 0x00,
  0x09, 0x00, 0x00, 0x00, 0x01, 0x00, 0x00, 0x00, 0x13, 0x00, 0x00, 0x00,
  0x01, 0x00, 0x00, 0x00, 0x00, 0x00, 0x00, 0x00, 0x14, 0x00, 0x00, 0x00,
  0x6c, 0x15, 0x00, 0x00, 0xf4, 0x14, 0x00, 0x00, 0x78, 0x14, 0x00, 0x00,
  0xa4, 0x12, 0x00, 0x00, 0xc8, 0x10, 0x00, 0x00, 0x74, 0x0d, 0x00, 0x00,
  0x18, 0x0a, 0x00, 0x00, 0x44, 0x08, 0x00, 0x00, 0x68, 0x06, 0x00, 0x00,
  0xb4, 0x05, 0x00, 0x00, 0xf8, 0x04, 0x00, 0x00, 0x5c, 0x04, 0x00, 0x00,
  0xe0, 0x03, 0x00, 0x00, 0x3c, 0x03, 0x00, 0x00, 0xc0, 0x02, 0x00, 0x00,
  0x1c, 0x02, 0x00, 0x00, 0xa0, 0x01, 0x00, 0x00, 0xfc, 0x00, 0x00, 0x00,
  0x80, 0x00, 0x00, 0x00, 0x04, 0x00, 0x00, 0x00, 0xfa, 0xea, 0xff, 0xff,
  0x00, 0x00, 0x00, 0x01, 0x18, 0x00, 0x00, 0x00, 0x20, 0x00, 0x00, 0x00,
  0x3c, 0x00, 0x00, 0x00, 0x14, 0x00, 0x00, 0x00, 0x00, 0x00, 0x00, 0x09,
  0x50, 0x00, 0x00, 0x00, 0x02, 0x00, 0x00, 0x00, 0xff, 0xff, 0xff, 0xff,
  0x01, 0x00, 0x00, 0x00, 0xe4, 0xea, 0xff, 0xff, 0x08, 0x00, 0x00, 0x00,
  0x10, 0x00, 0x00, 0x00, 0x01, 0x00, 0x00, 0x00, 0xff, 0xff, 0xff, 0xff,
  0xff, 0xff, 0xff, 0xff, 0x01, 0x00, 0x00, 0x00, 0x15, 0x1c, 0xfe, 0x3b,
  0x1b, 0x00, 0x00, 0x00, 0x53, 0x74, 0x61, 0x74, 0x65, 0x66, 0x75, 0x6c,
  0x50, 0x61, 0x72, 0x74, 0x69, 0x74, 0x69, 0x6f, 0x6e, 0x65, 0x64, 0x43,
  0x61, 0x6c, 0x6c, 0x5f, 0x31, 0x3a, 0x30, 0x00, 0x02, 0x00, 0x00, 0x00,
  0x01, 0x00, 0x00, 0x00, 0x01, 0x00, 0x00, 0x00, 0x72, 0xeb, 0xff, 0xff,
  0x00, 0x00, 0x00, 0x01, 0x18, 0x00, 0x00, 0x00, 0x20, 0x00, 0x00, 0x00,
  0x3c, 0x00, 0x00, 0x00, 0x13, 0x00, 0x00, 0x00, 0x00, 0x00, 0x00, 0x09,
  0x50, 0x00, 0x00, 0x00, 0x02, 0x00, 0x00, 0x00, 0xff, 0xff, 0xff, 0xff,
  0x20, 0x00, 0x00, 0x00, 0x5c, 0xeb, 0xff, 0xff, 0x08, 0x00, 0x00, 0x00,
  0x10, 0x00, 0x00, 0x00, 0x01, 0x00, 0x00, 0x00, 0x00, 0x00, 0x00, 0x00,
  0x00, 0x00, 0x00, 0x00, 0x01, 0x00, 0x00, 0x00, 0x00, 0x00, 0x00, 0x3c,
  0x1b, 0x00, 0x00, 0x00, 0x73, 0x65, 0x71, 0x75, 0x65, 0x6e, 0x74, 0x69,
  0x61, 0x6c, 0x5f, 0x31, 0x2f, 0x64, 0x65, 0x6e, 0x73, 0x65, 0x5f, 0x33,
  0x5f, 0x31, 0x2f, 0x54, 0x61, 0x6e, 0x68, 0x00, 0x02, 0x00, 0x00, 0x00,
  0x01, 0x00, 0x00, 0x00, 0x20, 0x00, 0x00, 0x00, 0xea, 0xeb, 0xff, 0xff,
  0x00, 0x00, 0x00, 0x01, 0x18, 0x00, 0x00, 0x00, 0x20, 0x00, 0x00, 0x00,
  0x40, 0x00, 0x00, 0x00, 0x12, 0x00, 0x00, 0x00, 0x00, 0x00, 0x00, 0x09,
  0x78, 0x00, 0x00, 0x00, 0x02, 0x00, 0x00, 0x00, 0xff, 0xff, 0xff, 0xff,
  0x20, 0x00, 0x00, 0x00, 0xd4, 0xeb, 0xff, 0xff, 0x08, 0x00, 0x00, 0x00,
  0x14, 0x00, 0x00, 0x00, 0x01, 0x00, 0x00, 0x00, 0xef, 0xff, 0xff, 0xff,
  0xff, 0xff, 0xff, 0xff, 0x00, 0x00, 0x00, 0x00, 0x01, 0x00, 0x00, 0x00,
  0xa3, 0x91, 0xdd, 0x3c, 0x3c, 0x00, 0x00, 0x00, 0x73, 0x65, 0x71, 0x75,
  0x65, 0x6e, 0x74, 0x69, 0x61, 0x6c, 0x5f, 0x31, 0x2f, 0x64, 0x65, 0x6e,
  0x73, 0x65, 0x5f, 0x33, 0x5f, 0x31, 0x2f, 0x4d, 0x61, 0x74, 0x4d, 0x75,
  0x6c, 0x3b, 0x73, 0x65, 0x71, 0x75, 0x65, 0x6e, 0x74, 0x69, 0x61, 0x6c,
  0x5f, 0x31, 0x2f, 0x64, 0x65, 0x6e, 0x73, 0x65, 0x5f, 0x33, 0x5f, 0x31,
  0x2f, 0x42, 0x69, 0x61, 0x73, 0x41, 0x64, 0x64, 0x00, 0x00, 0x00, 0x00,
  0x02, 0x00, 0x00, 0x00, 0x01, 0x00, 0x00, 0x00, 0x20, 0x00, 0x00, 0x00,
  0x8a, 0xec, 0xff, 0xff, 0x00, 0x00, 0x00, 0x01, 0x18, 0x00, 0x00, 0x00,
  0x20, 0x00, 0x00, 0x00, 0x3c, 0x00, 0x00, 0x00, 0x11, 0x00, 0x00, 0x00,
  0x00, 0x00, 0x00, 0x09, 0x50, 0x00, 0x00, 0x00, 0x02, 0x00, 0x00, 0x00,
  0xff, 0xff, 0xff, 0xff, 0x40, 0x00, 0x00, 0x00, 0x74, 0xec, 0xff, 0xff,
  0x08, 0x00, 0x00, 0x00, 0x10, 0x00, 0x00, 0x00, 0x01, 0x00, 0x00, 0x00,
  0x00, 0x00, 0x00, 0x00, 0x00, 0x00, 0x00, 0x00, 0x01, 0x00, 0x00, 0x00,
  0x00, 0x00, 0x00, 0x3c, 0x1b, 0x00, 0x00, 0x00, 0x73, 0x65, 0x71, 0x75,
  0x65, 0x6e, 0x74, 0x69, 0x61, 0x6c, 0x5f, 0x31, 0x2f, 0x64, 0x65, 0x6e,
  0x73, 0x65, 0x5f, 0x32, 0x5f, 0x31, 0x2f, 0x54, 0x61, 0x6e, 0x68, 0x00,
  0x02, 0x00, 0x00, 0x00, 0x01, 0x00, 0x00, 0x00, 0x40, 0x00, 0x00, 0x00,
  0x02, 0xed, 0xff, 0xff, 0x00, 0x00, 0x00, 0x01, 0x18, 0x00, 0x00, 0x00,
  0x20, 0x00, 0x00, 0x00, 0x40, 0x00, 0x00, 0x00, 0x10, 0x00, 0x00, 0x00,
  0x00, 0x00, 0x00, 0x09, 0x78, 0x00, 0x00, 0x00, 0x02, 0x00, 0x00, 0x00,
  0xff, 0xff, 0xff, 0xff, 0x40, 0x00, 0x00, 0x00, 0xec, 0xec, 0xff, 0xff,
  0x08, 0x00, 0x00, 0x00, 0x14, 0x00, 0x00, 0x00, 0x01, 0x00, 0x00, 0x00,
  0x03, 0x00, 0x00, 0x00, 0x00, 0x00, 0x00, 0x00, 0x00, 0x00, 0x00, 0x00,
  0x01, 0x00, 0x00, 0x00, 0xdf, 0x58, 0x2b, 0x3c, 0x3c, 0x00, 0x00, 0x00,
  0x73, 0x65, 0x71, 0x75, 0x65, 0x6e, 0x74, 0x69, 0x61, 0x6c, 0x5f, 0x31,
  0x2f, 0x64, 0x65, 0x6e, 0x73, 0x65, 0x5f, 0x32, 0x5f, 0x31, 0x2f, 0x4d,
  0x61, 0x74, 0x4d, 0x75, 0x6c, 0x3b, 0x73, 0x65, 0x71, 0x75, 0x65, 0x6e,
  0x74, 0x69, 0x61, 0x6c, 0x5f, 0x31, 0x2f, 0x64, 0x65, 0x6e, 0x73, 0x65,
  0x5f, 0x32, 0x5f, 0x31, 0x2f, 0x42, 0x69, 0x61, 0x73, 0x41, 0x64, 0x64,
  0x00, 0x00, 0x00, 0x00, 0x02, 0x00, 0x00, 0x00, 0x01, 0x00, 0x00, 0x00,
  0x40, 0x00, 0x00, 0x00, 0xa2, 0xed, 0xff, 0xff, 0x00, 0x00, 0x00, 0x01,
  0x18, 0x00, 0x00, 0x00, 0x20, 0x00, 0x00, 0x00, 0x3c, 0x00, 0x00, 0x00,
  0x0f, 0x00, 0x00, 0x00, 0x00, 0x00, 0x00, 0x09, 0x50, 0x00, 0x00, 0x00,
  0x02, 0x00, 0x00, 0x00, 0xff, 0xff, 0xff, 0xff, 0x20, 0x00, 0x00, 0x00,
  0x8c, 0xed, 0xff, 0xff, 0x08, 0x00, 0x00, 0x00, 0x10, 0x00, 0x00, 0x00,
  0x01, 0x00, 0x00, 0x00, 0x00, 0x00, 0x00, 0x00, 0x00, 0x00, 0x00, 0x00,
  0x01, 0x00, 0x00, 0x00, 0x00, 0x00, 0x00, 0x3c, 0x1b, 0x00, 0x00, 0x00,
  0x73, 0x65, 0x71, 0x75, 0x65, 0x6e, 0x74, 0x69, 0x61, 0x6c, 0x5f, 0x31,
  0x2f, 0x64, 0x65, 0x6e, 0x73, 0x65, 0x5f, 0x31, 0x5f, 0x32, 0x2f, 0x54,
  0x61, 0x6e, 0x68, 0x00, 0x02, 0x00, 0x00, 0x00, 0x01, 0x00, 0x00, 0x00,
  0x20, 0x00, 0x00, 0x00, 0x1a, 0xee, 0xff, 0xff, 0x00, 0x00, 0x00, 0x01,
  0x18, 0x00, 0x00, 0x00, 0x20, 0x00, 0x00, 0x00, 0x40, 0x00, 0x00, 0x00,
  0x0e, 0x00, 0x00, 0x00, 0x00, 0x00, 0x00, 0x09, 0x78, 0x00, 0x00, 0x00,
  0x02, 0x00, 0x00, 0x00, 0xff, 0xff, 0xff, 0xff, 0x20, 0x00, 0x00, 0x00,
  0x04, 0xee, 0xff, 0xff, 0x08, 0x00, 0x00, 0x00, 0x14, 0x00, 0x00, 0x00,
  0x01, 0x00, 0x00, 0x00, 0x0c, 0x00, 0x00, 0x00, 0x00, 0x00, 0x00, 0x00,
  0x00, 0x00, 0x00, 0x00, 0x01, 0x00, 0x00, 0x00, 0x4f, 0x21, 0x00, 0x3c,
  0x3c, 0x00, 0x00, 0x00, 0x73, 0x65, 0x71, 0x75, 0x65, 0x6e, 0x74, 0x69,
  0x61, 0x6c, 0x5f, 0x31, 0x2f, 0x64, 0x65, 0x6e, 0x73, 0x65, 0x5f, 0x31,
  0x5f, 0x32, 0x2f, 0x4d, 0x61, 0x74, 0x4d, 0x75, 0x6c, 0x3b, 0x73, 0x65,
  0x71, 0x75, 0x65, 0x6e, 0x74, 0x69, 0x61, 0x6c, 0x5f, 0x31, 0x2f, 0x64,
  0x65, 0x6e, 0x73, 0x65, 0x5f, 0x31, 0x5f, 0x32, 0x2f, 0x42, 0x69, 0x61,
  0x73, 0x41, 0x64, 0x64, 0x00, 0x00, 0x00, 0x00, 0x02, 0x00, 0x00, 0x00,
  0x01, 0x00, 0x00, 0x00, 0x20, 0x00, 0x00, 0x00, 0xba, 0xee, 0xff, 0xff,
  0x00, 0x00, 0x00, 0x01, 0x18, 0x00, 0x00, 0x00, 0x20, 0x00, 0x00, 0x00,
  0x3c, 0x00, 0x00, 0x00, 0x0d, 0x00, 0x00, 0x00, 0x00, 0x00, 0x00, 0x09,
  0x50, 0x00, 0x00, 0x00, 0x02, 0x00, 0x00, 0x00, 0xff, 0xff, 0xff, 0xff,
  0x08, 0x00, 0x00, 0x00, 0xa4, 0xee, 0xff, 0xff, 0x08, 0x00, 0x00, 0x00,
  0x10, 0x00, 0x00, 0x00, 0x01, 0x00, 0x00, 0x00, 0x00, 0x00, 0x00, 0x00,
  0x00, 0x00, 0x00, 0x00, 0x01, 0x00, 0x00, 0x00, 0x00, 0x00, 0x00, 0x3c,
  0x19, 0x00, 0x00, 0x00, 0x73, 0x65, 0x71, 0x75, 0x65, 0x6e, 0x74, 0x69,
  0x61, 0x6c, 0x5f, 0x31, 0x2f, 0x64, 0x65, 0x6e, 0x73, 0x65, 0x5f, 0x31,
  0x2f, 0x54, 0x61, 0x6e, 0x68, 0x00, 0x00, 0x00, 0x02, 0x00, 0x00, 0x00,
  0x01, 0x00, 0x00, 0x00, 0x08, 0x00, 0x00, 0x00, 0x32, 0xef, 0xff, 0xff,
  0x00, 0x00, 0x00, 0x01, 0x18, 0x00, 0x00, 0x00, 0x20, 0x00, 0x00, 0x00,
  0x3c, 0x00, 0x00, 0x00, 0x0c, 0x00, 0x00, 0x00, 0x00, 0x00, 0x00, 0x09,
  0x70, 0x00, 0x00, 0x00, 0x02, 0x00, 0x00, 0x00, 0xff, 0xff, 0xff, 0xff,
  0x08, 0x00, 0x00, 0x00, 0x1c, 0xef, 0xff, 0xff, 0x08, 0x00, 0x00, 0x00,
  0x10, 0x00, 0x00, 0x00, 0x01, 0x00, 0x00, 0x00, 0x01, 0x00, 0x00, 0x00,
  0x00, 0x00, 0x00, 0x00, 0x01, 0x00, 0x00, 0x00, 0xa2, 0x97, 0x15, 0x3d,
  0x38, 0x00, 0x00, 0x00, 0x73, 0x65, 0x71, 0x75, 0x65, 0x6e, 0x74, 0x69,
  0x61, 0x6c, 0x5f, 0x31, 0x2f, 0x64, 0x65, 0x6e, 0x73, 0x65, 0x5f, 0x31,
  0x2f, 0x4d, 0x61, 0x74, 0x4d, 0x75, 0x6c, 0x3b, 0x73, 0x65, 0x71, 0x75,
  0x65, 0x6e, 0x74, 0x69, 0x61, 0x6c, 0x5f, 0x31, 0x2f, 0x64, 0x65, 0x6e,
  0x73, 0x65, 0x5f, 0x31, 0x2f, 0x42, 0x69, 0x61, 0x73, 0x41, 0x64, 0x64,
  0x00, 0x00, 0x00, 0x00, 0x02, 0x00, 0x00, 0x00, 0x01, 0x00, 0x00, 0x00,
  0x08, 0x00, 0x00, 0x00, 0x3e, 0xf0, 0xff, 0xff, 0x00, 0x00, 0x00, 0x01,
  0x14, 0x00, 0x00, 0x00, 0x88, 0x00, 0x00, 0x00, 0x0b, 0x00, 0x00, 0x00,
  0x00, 0x00, 0x00, 0x09, 0x94, 0x00, 0x00, 0x00, 0xa4, 0xef, 0xff, 0xff,
  0x08, 0x00, 0x00, 0x00, 0x4c, 0x00, 0x00, 0x00, 0x08, 0x00, 0x00, 0x00,
  0x00, 0x00, 0x00, 0x00, 0x00, 0x00, 0x00, 0x00, 0x00, 0x00, 0x00, 0x00,
  0x00, 0x00, 0x00, 0x00, 0x00, 0x00, 0x00, 0x00, 0x00, 0x00, 0x00, 0x00,
  0x00, 0x00, 0x00, 0x00, 0x00, 0x00, 0x00, 0x00, 0x00, 0x00, 0x00, 0x00,
  0x00, 0x00, 0x00, 0x00, 0x00, 0x00, 0x00, 0x00, 0x00, 0x00, 0x00, 0x00,
  0x00, 0x00, 0x00, 0x00, 0x00, 0x00, 0x00, 0x00, 0x00, 0x00, 0x00, 0x00,
  0x00, 0x00, 0x00, 0x00, 0x00, 0x00, 0x00, 0x00, 0x08, 0x00, 0x00, 0x00,
  0xae, 0x95, 0x90, 0x3a, 0xb9, 0xd4, 0xbe, 0x3b, 0x17, 0x0d, 0x81, 0x3a,
  0x61, 0x27, 0x56, 0x3b, 0xaf, 0xa6, 0x8b, 0x3a, 0x4f, 0x24, 0x08, 0x3b,
  0xb5, 0x75, 0xc6, 0x3b, 0x9d, 0xd5, 0x09, 0x3b, 0x12, 0x00, 0x00, 0x00,
  0x74, 0x66, 0x6c, 0x2e, 0x70, 0x73, 0x65, 0x75, 0x64, 0x6f, 0x5f, 0x71,
  0x63, 0x6f, 0x6e, 0x73, 0x74, 0x39, 0x00, 0x00, 0x02, 0x00, 0x00, 0x00,
  0x08, 0x00, 0x00, 0x00, 0x01, 0x00, 0x00, 0x00, 0xf6, 0xf0, 0xff, 0xff,
  0x00, 0x00, 0x00, 0x01, 0x14, 0x00, 0x00, 0x00, 0x84, 0x00, 0x00, 0x00,
  0x0a, 0x00, 0x00, 0x00, 0x00, 0x00, 0x00, 0x02, 0x90, 0x00, 0x00, 0x00,
  0x5c, 0xf0, 0xff, 0xff, 0x08, 0x00, 0x00, 0x00, 0x48, 0x00, 0x00, 0x00,
  0x08, 0x00, 0x00, 0x00, 0x00, 0x00, 0x00, 0x00, 0x00, 0x00, 0x00, 0x00,
  0x00, 0x00, 0x00, 0x00, 0x00, 0x00, 0x00, 0x00, 0x00, 0x00, 0x00, 0x00,
  0x00, 0x00, 0x00, 0x00, 0x00, 0x00, 0x00, 0x00, 0x00, 0x00, 0x00, 0x00,
  0x00, 0x00, 0x00, 0x00, 0x00, 0x00, 0x00, 0x00, 0x00, 0x00, 0x00, 0x00,
  0x00, 0x00, 0x00, 0x00, 0x00, 0x00, 0x00, 0x00, 0x00, 0x00, 0x00, 0x00,
  0x00, 0x00, 0x00, 0x00, 0x00, 0x00, 0x00, 0x00, 0x08, 0x00, 0x00, 0x00,
  0x96, 0x1b, 0xe3, 0x37, 0xf0, 0xdf, 0x15, 0x39, 0x52, 0xb5, 0xca, 0x37,
  0x2b, 0x31, 0xa8, 0x38, 0xb9, 0x5b, 0xdb, 0x37, 0x98, 0xd8, 0x55, 0x38,
  0xc5, 0xdd, 0x1b, 0x39, 0x36, 0x81, 0x58, 0x38, 0x12, 0x00, 0x00, 0x00,
  0x74, 0x66, 0x6c, 0x2e, 0x70, 0x73, 0x65, 0x75, 0x64, 0x6f, 0x5f, 0x71,
  0x63, 0x6f, 0x6e, 0x73, 0x74, 0x38, 0x00, 0x00, 0x01, 0x00, 0x00, 0x00,
  0x08, 0x00, 0x00, 0x00, 0xa6, 0xf1, 0xff, 0xff, 0x00, 0x00, 0x00, 0x01,
  0x14, 0x00, 0x00, 0x00, 0xa8, 0x01, 0x00, 0x00, 0x09, 0x00, 0x00, 0x00,
  0x00, 0x00, 0x00, 0x09, 0xb4, 0x01, 0x00, 0x00, 0x0c, 0xf1, 0xff, 0xff,
  0x08, 0x00, 0x00, 0x00, 0x0c, 0x01, 0x00, 0x00, 0x20, 0x00, 0x00, 0x00,
  0x00, 0x00, 0x00, 0x00, 0x00, 0x00, 0x00, 0x00, 0x00, 0x00, 0x00, 0x00,
  0x00, 0x00, 0x00, 0x00, 0x00, 0x00, 0x00, 0x00, 0x00, 0x00, 0x00, 0x00,
  0x00, 0x00, 0x00, 0x00, 0x00, 0x00, 0x00, 0x00, 0x00, 0x00, 0x00, 0x00,
  0x00, 0x00, 0x00, 0x00, 0x00, 0x00, 0x00, 0x00, 0x00, 0x00, 0x00, 0x00,
  0x00, 0x00, 0x00, 0x00, 0x00, 0x00, 0x00, 0x00, 0x00, 0x00, 0x00, 0x00,
  0x00, 0x00, 0x00, 0x00, 0x00, 0x00, 0x00, 0x00, 0x00, 0x00, 0x00, 0x00,
  0x00, 0x00, 0x00, 0x00, 0x00, 0x00, 0x00, 0x00, 0x00, 0x00, 0x00, 0x00,
  0x00, 0x00, 0x00, 0x00, 0x00, 0x00, 0x00, 0x00, 0x00, 0x00, 0x00, 0x00,
  0x00, 0x00, 0x00, 0x00, 0x00, 0x00, 0x00, 0x00, 0x00, 0x00, 0x00, 0x00,
  0x00, 0x00, 0x00, 0x00, 0x00, 0x00, 0x00, 0x00, 0x00, 0x00, 0x00, 0x00,
  0x00, 0x00, 0x00, 0x00, 0x00, 0x00, 0x00, 0x00, 0x00, 0x00, 0x00, 0x00,
  0x00, 0x00, 0x00, 0x00, 0x00, 0x00, 0x00, 0x00, 0x00, 0x00, 0x00, 0x00,
  0x00, 0x00, 0x00, 0x00, 0x00, 0x00, 0x00, 0x00, 0x00, 0x00, 0x00, 0x00,
  0x00, 0x00, 0x00, 0x00, 0x00, 0x00, 0x00, 0x00, 0x00, 0x00, 0x00, 0x00,
  0x00, 0x00, 0x00, 0x00, 0x00, 0x00, 0x00, 0x00, 0x00, 0x00, 0x00, 0x00,
  0x00, 0x00, 0x00, 0x00, 0x00, 0x00, 0x00, 0x00, 0x00, 0x00, 0x00, 0x00,
  0x00, 0x00, 0x00, 0x00, 0x00, 0x00, 0x00, 0x00, 0x00, 0x00, 0x00, 0x00,
  0x00, 0x00, 0x00, 0x00, 0x00, 0x00, 0x00, 0x00, 0x00, 0x00, 0x00, 0x00,
  0x00, 0x00, 0x00, 0x00, 0x00, 0x00, 0x00, 0x00, 0x00, 0x00, 0x00, 0x00,
  0x00, 0x00, 0x00, 0x00, 0x00, 0x00, 0x00, 0x00, 0x00, 0x00, 0x00, 0x00,
  0x00, 0x00, 0x00, 0x00, 0x00, 0x00, 0x00, 0x00, 0x00, 0x00, 0x00, 0x00,
  0x00, 0x00, 0x00, 0x00, 0x00, 0x00, 0x00, 0x00, 0x20, 0x00, 0x00, 0x00,
  0xc3, 0x82, 0x43, 0x3b, 0xa9, 0x2b, 0x48, 0x3b, 0x45, 0x06, 0x34, 0x3b,
  0xaf, 0xb9, 0x5c, 0x3b, 0x7c, 0xb9, 0x00, 0x3b, 0xf5, 0xd5, 0x49, 0x3b,
  0xd7, 0x12, 0x56, 0x3b, 0x76, 0x41, 0x34, 0x3b, 0x9a, 0x7c, 0x12, 0x3b,
  0xc3, 0xe7, 0x57, 0x3b, 0x52, 0x80, 0x32, 0x3b, 0xf9, 0xee, 0x2f, 0x3b,
  0x5f, 0x99, 0x3b, 0x3b, 0x9f, 0x59, 0x37, 0x3b, 0x60, 0x22, 0x4b, 0x3b,
  0xd4, 0xf4, 0x44, 0x3b, 0x2d, 0x7e, 0x2f, 0x3b, 0xde, 0x0d, 0x54, 0x3b,
  0xf5, 0xa0, 0x17, 0x3b, 0xf6, 0x1c, 0x8a, 0x3b, 0x4e, 0xbe, 0x67, 0x3b,
  0x7a, 0xf8, 0x49, 0x3b, 0x0c, 0x47, 0x38, 0x3b, 0x9c, 0xab, 0x1f, 0x3b,
  0x75, 0x44, 0x45, 0x3b, 0xb5, 0xf2, 0x5d, 0x3b, 0x1d, 0xd5, 0x5a, 0x3b,
  0x7a, 0xa7, 0x48, 0x3b, 0x46, 0x19, 0x0c, 0x3b, 0x9c, 0xce, 0x6e, 0x3b,
  0x02, 0xd1, 0x44, 0x3b, 0x25, 0xc6, 0x38, 0x3b, 0x12, 0x00, 0x00, 0x00,
  0x74, 0x66, 0x6c, 0x2e, 0x70, 0x73, 0x65, 0x75, 0x64, 0x6f, 0x5f, 0x71,
  0x63, 0x6f, 0x6e, 0x73, 0x74, 0x37, 0x00, 0x00, 0x02, 0x00, 0x00, 0x00,
  0x20, 0x00, 0x00, 0x00, 0x08, 0x00, 0x00, 0x00, 0x7e, 0xf3, 0xff, 0xff,
  0x00, 0x00, 0x00, 0x01, 0x14, 0x00, 0x00, 0x00, 0xa4, 0x01, 0x00, 0x00,
  0x08, 0x00, 0x00, 0x00, 0x00, 0x00, 0x00, 0x02, 0xb0, 0x01, 0x00, 0x00,
  0xe4, 0xf2, 0xff, 0xff, 0x08, 0x00, 0x00, 0x00, 0x08, 0x01, 0x00, 0x00,
  0x20, 0x00, 0x00, 0x00, 0x00, 0x00, 0x00, 0x00, 0x00, 0x00, 0x00, 0x00,
  0x00, 0x00, 0x00, 0x00, 0x00, 0x00, 0x00, 0x00, 0x00, 0x00, 0x00, 0x00,
  0x00, 0x00, 0x00, 0x00, 0x00, 0x00, 0x00, 0x00, 0x00, 0x00, 0x00, 0x00,
  0x00, 0x00, 0x00, 0x00, 0x00, 0x00, 0x00, 0x00, 0x00, 0x00, 0x00, 0x00,
  0x00, 0x00, 0x00, 0x00, 0x00, 0x00, 0x00, 0x00, 0x00, 0x00, 0x00, 0x00,
  0x00, 0x00, 0x00, 0x00, 0x00, 0x00, 0x00, 0x00, 0x00, 0x00, 0x00, 0x00,
  0x00, 0x00, 0x00, 0x00, 0x00, 0x00, 0x00, 0x00, 0x00, 0x00, 0x00, 0x00,
  0x00, 0x00, 0x00, 0x00, 0x00, 0x00, 0x00, 0x00, 0x00, 0x00, 0x00, 0x00,
  0x00, 0x00, 0x00, 0x00, 0x00, 0x00, 0x00, 0x00, 0x00, 0x00, 0x00, 0x00,
  0x00, 0x00, 0x00, 0x00, 0x00, 0x00, 0x00, 0x00, 0x00, 0x00, 0x00, 0x00,
  0x00, 0x00, 0x00, 0x00, 0x00, 0x00, 0x00, 0x00, 0x00, 0x00, 0x00, 0x00,
  0x00, 0x00, 0x00, 0x00, 0x00, 0x00, 0x00, 0x00, 0x00, 0x00, 0x00, 0x00,
  0x00, 0x00, 0x00, 0x00, 0x00, 0x00, 0x00, 0x00, 0x00, 0x00, 0x00, 0x00,
  0x00, 0x00, 0x00, 0x00, 0x00, 0x00, 0x00, 0x00, 0x00, 0x00, 0x00, 0x00,
  0x00, 0x00, 0x00, 0x00, 0x00, 0x00, 0x00, 0x00, 0x00, 0x00, 0x00, 0x00,
  0x00, 0x00, 0x00, 0x00, 0x00, 0x00, 0x00, 0x00, 0x00, 0x00, 0x00, 0x00,
  0x00, 0x00, 0x00, 0x00, 0x00, 0x00, 0x00, 0x00, 0x00, 0x00, 0x00, 0x00,
  0x00, 0x00, 0x00, 0x00, 0x00, 0x00, 0x00, 0x00, 0x00, 0x00, 0x00, 0x00,
  0x00, 0x00, 0x00, 0x00, 0x00, 0x00, 0x00, 0x00, 0x00, 0x00, 0x00, 0x00,
  0x00, 0x00, 0x00, 0x00, 0x00, 0x00, 0x00, 0x00, 0x00, 0x00, 0x00, 0x00,
  0x00, 0x00, 0x00, 0x00, 0x00, 0x00, 0x00, 0x00, 0x00, 0x00, 0x00, 0x00,
  0x00, 0x00, 0x00, 0x00, 0x00, 0x00, 0x00, 0x00, 0x20, 0x00, 0x00, 0x00,
  0xc3, 0x82, 0xc3, 0x37, 0xa9, 0x2b, 0xc8, 0x37, 0x45, 0x06, 0xb4, 0x37,
  0xaf, 0xb9, 0xdc, 0x37, 0x7c, 0xb9, 0x80, 0x37, 0xf5, 0xd5, 0xc9, 0x37,
  0xd7, 0x12, 0xd6, 0x37, 0x76, 0x41, 0xb4, 0x37, 0x9a, 0x7c, 0x92, 0x37,
  0xc3, 0xe7, 0xd7, 0x37, 0x52, 0x80, 0xb2, 0x37, 0xf9, 0xee, 0xaf, 0x37,
  0x5f, 0x99, 0xbb, 0x37, 0x9f, 0x59, 0xb7, 0x37, 0x60, 0x22, 0xcb, 0x37,
  0xd4, 0xf4, 0xc4, 0x37, 0x2d, 0x7e, 0xaf, 0x37, 0xde, 0x0d, 0xd4, 0x37,
  0xf5, 0xa0, 0x97, 0x37, 0xf6, 0x1c, 0x0a, 0x38, 0x4e, 0xbe, 0xe7, 0x37,
  0x7a, 0xf8, 0xc9, 0x37, 0x0c, 0x47, 0xb8, 0x37, 0x9c, 0xab, 0x9f, 0x37,
  0x75, 0x44, 0xc5, 0x37, 0xb5, 0xf2, 0xdd, 0x37, 0x1d, 0xd5, 0xda, 0x37,
  0x7a, 0xa7, 0xc8, 0x37, 0x46, 0x19, 0x8c, 0x37, 0x9c, 0xce, 0xee, 0x37,
  0x02, 0xd1, 0xc4, 0x37, 0x25, 0xc6, 0xb8, 0x37, 0x12, 0x00, 0x00, 0x00,
  0x74, 0x66, 0x6c, 0x2e, 0x70, 0x73, 0x65, 0x75, 0x64, 0x6f, 0x5f, 0x71,
  0x63, 0x6f, 0x6e, 0x73, 0x74, 0x36, 0x00, 0x00, 0x01, 0x00, 0x00, 0x00,
  0x20, 0x00, 0x00, 0x00, 0x4e, 0xf5, 0xff, 0xff, 0x00, 0x00, 0x00, 0x01,
  0x14, 0x00, 0x00, 0x00, 0x28, 0x03, 0x00, 0x00, 0x07, 0x00, 0x00, 0x00,
  0x00, 0x00, 0x00, 0x09, 0x34, 0x03, 0x00, 0x00, 0xb4, 0xf4, 0xff, 0xff,
  0x08, 0x00, 0x00, 0x00, 0x0c, 0x02, 0x00, 0x00, 0x40, 0x00, 0x00, 0x00,
  0x00, 0x00, 0x00, 0x00, 0x00, 0x00, 0x00, 0x00, 0x00, 0x00, 0x00, 0x00,
  0x00, 0x00, 0x00, 0x00, 0x00, 0x00, 0x00, 0x00, 0x00, 0x00, 0x00, 0x00,
  0x00, 0x00, 0x00, 0x00, 0x00, 0x00, 0x00, 0x00, 0x00, 0x00, 0x00, 0x00,
  0x00, 0x00, 0x00, 0x00, 0x00, 0x00, 0x00, 0x00, 0x00, 0x00, 0x00, 0x00,
  0x00, 0x00, 0x00, 0x00, 0x00, 0x00, 0x00, 0x00, 0x00, 0x00, 0x00, 0x00,
  0x00, 0x00, 0x00, 0x00, 0x00, 0x00, 0x00, 0x00, 0x00, 0x00, 0x00, 0x00,
  0x00, 0x00, 0x00, 0x00, 0x00, 0x00, 0x00, 0x00, 0x00, 0x00, 0x00, 0x00,
  0x00, 0x00, 0x00, 0x00, 0x00, 0x00, 0x00, 0x00, 0x00, 0x00, 0x00, 0x00,
  0x00, 0x00, 0x00, 0x00, 0x00, 0x00, 0x00, 0x00, 0x00, 0x00, 0x00, 0x00,
  0x00, 0x00, 0x00, 0x00, 0x00, 0x00, 0x00, 0x00, 0x00, 0x00, 0x00, 0x00,
  0x00, 0x00, 0x00, 0x00, 0x00, 0x00, 0x00, 0x00, 0x00, 0x00, 0x00, 0x00,
  0x00, 0x00, 0x00, 0x00, 0x00, 0x00, 0x00, 0x00, 0x00, 0x00, 0x00, 0x00,
  0x00, 0x00, 0x00, 0x00, 0x00, 0x00, 0x00, 0x00, 0x00, 0x00, 0x00, 0x00,
  0x00, 0x00, 0x00, 0x00, 0x00, 0x00, 0x00, 0x00, 0x00, 0x00, 0x00, 0x00,
  0x00, 0x00, 0x00, 0x00, 0x00, 0x00, 0x00, 0x00, 0x00, 0x00, 0x00, 0x00,
  0x00, 0x00, 0x00, 0x00, 0x00, 0x00, 0x00, 0x00, 0x00, 0x00, 0x00, 0x00,
  0x00, 0x00, 0x00, 0x00, 0x00, 0x00, 0x00, 0x00, 0x00, 0x00, 0x00, 0x00,
  0x00, 0x00, 0x00, 0x00, 0x00, 0x00, 0x00, 0x00, 0x00, 0x00, 0x00, 0x00,
  0x00, 0x00, 0x00, 0x00, 0x00, 0x00, 0x00, 0x00, 0x00, 0x00, 0x00, 0x00,
  0x00, 0x00, 0x00, 0x00, 0x00, 0x00, 0x00, 0x00, 0x00, 0x00, 0x00, 0x00,
  0x00, 0x00, 0x00, 0x00, 0x00, 0x00, 0x00, 0x00, 0x00, 0x00, 0x00, 0x00,
  0x00, 0x00, 0x00, 0x00, 0x00, 0x00, 0x00, 0x00, 0x00, 0x00, 0x00, 0x00,
  0x00, 0x00, 0x00, 0x00, 0x00, 0x00, 0x00, 0x00, 0x00, 0x00, 0x00, 0x00,
  0x00, 0x00, 0x00, 0x00, 0x00, 0x00, 0x00, 0x00, 0x00, 0x00, 0x00, 0x00,
  0x00, 0x00, 0x00, 0x00, 0x00, 0x00, 0x00, 0x00, 0x00, 0x00, 0x00, 0x00,
  0x00, 0x00, 0x00, 0x00, 0x00, 0x00, 0x00, 0x00, 0x00, 0x00, 0x00, 0x00,
  0x00, 0x00, 0x00, 0x00, 0x00, 0x00, 0x00, 0x00, 0x00, 0x00, 0x00, 0x00,
  0x00, 0x00, 0x00, 0x00, 0x00, 0x00, 0x00, 0x00, 0x00, 0x00, 0x00, 0x00,
  0x00, 0x00, 0x00, 0x00, 0x00, 0x00, 0x00, 0x00, 0x00, 0x00, 0x00, 0x00,
  0x00, 0x00, 0x00, 0x00, 0x00, 0x00, 0x00, 0x00, 0x00, 0x00, 0x00, 0x00,
  0x00, 0x00, 0x00, 0x00, 0x00, 0x00, 0x00, 0x00, 0x00, 0x00, 0x00, 0x00,
  0x00, 0x00, 0x00, 0x00, 0x00, 0x00, 0x00, 0x00, 0x00, 0x00, 0x00, 0x00,
  0x00, 0x00, 0x00, 0x00, 0x00, 0x00, 0x00, 0x00, 0x00, 0x00, 0x00, 0x00,
  0x00, 0x00, 0x00, 0x00, 0x00, 0x00, 0x00, 0x00, 0x00, 0x00, 0x00, 0x00,
  0x00, 0x00, 0x00, 0x00, 0x00, 0x00, 0x00, 0x00, 0x00, 0x00, 0x00, 0x00,
  0x00, 0x00, 0x00, 0x00, 0x00, 0x00, 0x00, 0x00, 0x00, 0x00, 0x00, 0x00,
  0x00, 0x00, 0x00, 0x00, 0x00, 0x00, 0x00, 0x00, 0x00, 0x00, 0x00, 0x00,
  0x00, 0x00, 0x00, 0x00, 0x00, 0x00, 0x00, 0x00, 0x00, 0x00, 0x00, 0x00,
  0x00, 0x00, 0x00, 0x00, 0x00, 0x00, 0x00, 0x00, 0x00, 0x00, 0x00, 0x00,
  0x00, 0x00, 0x00, 0x00, 0x00, 0x00, 0x00, 0x00, 0x00, 0x00, 0x00, 0x00,
  0x00, 0x00, 0x00, 0x00, 0x00, 0x00, 0x00, 0x00, 0x00, 0x00, 0x00, 0x00,
  0x00, 0x00, 0x00, 0x00, 0x00, 0x00, 0x00, 0x00, 0x00, 0x00, 0x00, 0x00,
  0x00, 0x00, 0x00, 0x00, 0x00, 0x00, 0x00, 0x00, 0x00, 0x00, 0x00, 0x00,
  0x40, 0x00, 0x00, 0x00, 0x50, 0x2e, 0x36, 0x3b, 0x10, 0x04, 0x35, 0x3b,
  0xa7, 0x93, 0x2b, 0x3b, 0xce, 0x19, 0x6d, 0x3b, 0xf5, 0xdc, 0x10, 0x3b,
  0x3b, 0xda, 0x50, 0x3b, 0x4b, 0xaa, 0xec, 0x3a, 0xea, 0xbf, 0x20, 0x3b,
  0xfa, 0xcb, 0xe9, 0x3a, 0x1a, 0x36, 0x07, 0x3b, 0xc4, 0xec, 0x27, 0x3b,
  0x02, 0x6a, 0x15, 0x3b, 0x7d, 0x2e, 0x11, 0x3b, 0x91, 0xaf, 0x57, 0x3b,
  0xc6, 0xfb, 0x19, 0x3b, 0xd6, 0xdf, 0x76, 0x3b, 0xef, 0xa7, 0x31, 0x3b,
  0x56, 0x1e, 0x18, 0x3b, 0xcc, 0x0f, 0x9b, 0x3b, 0xa2, 0x93, 0x12, 0x3b,
  0x5b, 0x43, 0xab, 0x3b, 0x90, 0x33, 0x75, 0x3b, 0x17, 0x9e, 0x8e, 0x3b,
  0x55, 0xc1, 0x18, 0x3b, 0x2b, 0x0f, 0x08, 0x3b, 0x0f, 0xa0, 0x24, 0x3b,
  0x62, 0x75, 0x1d, 0x3b, 0x6f, 0x28, 0x11, 0x3b, 0x4b, 0xbd, 0x70, 0x3b,
  0x32, 0x25, 0x61, 0x3b, 0xd0, 0x3d, 0x68, 0x3b, 0x38, 0x5c, 0x08, 0x3b,
  0xf0, 0x0f, 0xbd, 0x3b, 0xfb, 0x68, 0x1d, 0x3b, 0x39, 0xff, 0x29, 0x3b,
  0x03, 0xbf, 0x8e, 0x3b, 0xc2, 0xb1, 0x43, 0x3b, 0x14, 0x38, 0x34, 0x3b,
  0x5a, 0xc9, 0x55, 0x3b, 0x0b, 0x73, 0xd7, 0x3b, 0x85, 0x01, 0x2e, 0x3b,
  0xe2, 0xe2, 0x2b, 0x3b, 0x64, 0x57, 0x3d, 0x3b, 0x98, 0xb7, 0x01, 0x3b,
  0xfd, 0x99, 0x06, 0x3b, 0x51, 0x8d, 0x82, 0x3b, 0xd6, 0x14, 0x39, 0x3b,
  0xfa, 0xc5, 0x20, 0x3b, 0xa1, 0x35, 0x0b, 0x3b, 0x34, 0xdc, 0x3b, 0x3b,
  0x27, 0x28, 0x3f, 0x3b, 0x15, 0xf0, 0x64, 0x3b, 0x20, 0xcf, 0x0f, 0x3b,
  0x3a, 0x06, 0x08, 0x3b, 0xc9, 0x63, 0x6e, 0x3b, 0xbf, 0x83, 0x40, 0x3b,
  0xb2, 0xd2, 0xcc, 0x3b, 0x85, 0xba, 0x26, 0x3b, 0xe1, 0xe1, 0x1f, 0x3b,
  0xb8, 0xf5, 0x48, 0x3b, 0x5d, 0x58, 0x18, 0x3b, 0xaf, 0x69, 0x16, 0x3b,
  0x5a, 0x8d, 0x81, 0x3b, 0x39, 0x77, 0x60, 0x3b, 0x12, 0x00, 0x00, 0x00,
  0x74, 0x66, 0x6c, 0x2e, 0x70, 0x73, 0x65, 0x75, 0x64, 0x6f, 0x5f, 0x71,
  0x63, 0x6f, 0x6e, 0x73, 0x74, 0x35, 0x00, 0x00, 0x02, 0x00, 0x00, 0x00,
  0x40, 0x00, 0x00, 0x00, 0x20, 0x00, 0x00, 0x00, 0xa6, 0xf8, 0xff, 0xff,
  0x00, 0x00, 0x00, 0x01, 0x14, 0x00, 0x00, 0x00, 0x24, 0x03, 0x00, 0x00,
  0x06, 0x00, 0x00, 0x00, 0x00, 0x00, 0x00, 0x02, 0x30, 0x03, 0x00, 0x00,
  0x0c, 0xf8, 0xff, 0xff, 0x08, 0x00, 0x00, 0x00, 0x08, 0x02, 0x00, 0x00,
  0x40, 0x00, 0x00, 0x00, 0x00, 0x00, 0x00, 0x00, 0x00, 0x00, 0x00, 0x00,
  0x00, 0x00, 0x00, 0x00, 0x00, 0x00, 0x00, 0x00, 0x00, 0x00, 0x00, 0x00,
  0x00, 0x00, 0x00, 0x00, 0x00, 0x00, 0x00, 0x00, 0x00, 0x00, 0x00, 0x00,
  0x00, 0x00, 0x00, 0x00, 0x00, 0x00, 0x00, 0x00, 0x00, 0x00, 0x00, 0x00,
  0x00, 0x00, 0x00, 0x00, 0x00, 0x00, 0x00, 0x00, 0x00, 0x00, 0x00, 0x00,
  0x00, 0x00, 0x00, 0x00, 0x00, 0x00, 0x00, 0x00, 0x00, 0x00, 0x00, 0x00,
  0x00, 0x00, 0x00, 0x00, 0x00, 0x00, 0x00, 0x00, 0x00, 0x00, 0x00, 0x00,
  0x00, 0x00, 0x00, 0x00, 0x00, 0x00, 0x00, 0x00, 0x00, 0x00, 0x00, 0x00,
  0x00, 0x00, 0x00, 0x00, 0x00, 0x00, 0x00, 0x00, 0x00, 0x00, 0x00, 0x00,
  0x00, 0x00, 0x00, 0x00, 0x00, 0x00, 0x00, 0x00, 0x00, 0x00, 0x00, 0x00,
  0x00, 0x00, 0x00, 0x00, 0x00, 0x00, 0x00, 0x00, 0x00, 0x00, 0x00, 0x00,
  0x00, 0x00, 0x00, 0x00, 0x00, 0x00, 0x00, 0x00, 0x00, 0x00, 0x00, 0x00,
  0x00, 0x00, 0x00, 0x00, 0x00, 0x00, 0x00, 0x00, 0x00, 0x00, 0x00, 0x00,
  0x00, 0x00, 0x00, 0x00, 0x00, 0x00, 0x00, 0x00, 0x00, 0x00, 0x00, 0x00,
  0x00, 0x00, 0x00, 0x00, 0x00, 0x00, 0x00, 0x00, 0x00, 0x00, 0x00, 0x00,
  0x00, 0x00, 0x00, 0x00, 0x00, 0x00, 0x00, 0x00, 0x00, 0x00, 0x00, 0x00,
  0x00, 0x00, 0x00, 0x00, 0x00, 0x00, 0x00, 0x00, 0x00, 0x00, 0x00, 0x00,
  0x00, 0x00, 0x00, 0x00, 0x00, 0x00, 0x00, 0x00, 0x00, 0x00, 0x00, 0x00,
  0x00, 0x00, 0x00, 0x00, 0x00, 0x00, 0x00, 0x00, 0x00, 0x00, 0x00, 0x00,
  0x00, 0x00, 0x00, 0x00, 0x00, 0x00, 0x00, 0x00, 0x00, 0x00, 0x00, 0x00,
  0x00, 0x00, 0x00, 0x00, 0x00, 0x00, 0x00, 0x00, 0x00, 0x00, 0x00, 0x00,
  0x00, 0x00, 0x00, 0x00, 0x00, 0x00, 0x00, 0x00, 0x00, 0x00, 0x00, 0x00,
  0x00, 0x00, 0x00, 0x00, 0x00, 0x00, 0x00, 0x00, 0x00, 0x00, 0x00, 0x00,
  0x00, 0x00, 0x00, 0x00, 0x00, 0x00, 0x00, 0x00, 0x00, 0x00, 0x00, 0x00,
  0x00, 0x00, 0x00, 0x00, 0x00, 0x00, 0x00, 0x00, 0x00, 0x00, 0x00, 0x00,
  0x00, 0x00, 0x00, 0x00, 0x00, 0x00, 0x00, 0x00, 0x00, 0x00, 0x00, 0x00,
  0x00, 0x00, 0x00, 0x00, 0x00, 0x00, 0x00, 0x00, 0x00, 0x00, 0x00, 0x00,
  0x00, 0x00, 0x00, 0x00, 0x00, 0x00, 0x00, 0x00, 0x00, 0x00, 0x00, 0x00,
  0x00, 0x00, 0x00, 0x00, 0x00, 0x00, 0x00, 0x00, 0x00, 0x00, 0x00, 0x00,
  0x00, 0x00, 0x00, 0x00, 0x00, 0x00, 0x00, 0x00, 0x00, 0x00, 0x00, 0x00,
  0x00, 0x00, 0x00, 0x00, 0x00, 0x00, 0x00, 0x00, 0x00, 0x00, 0x00, 0x00,
  0x00, 0x00, 0x00, 0x00, 0x00, 0x00, 0x00, 0x00, 0x00, 0x00, 0x00, 0x00,
  0x00, 0x00, 0x00, 0x00, 0x00, 0x00, 0x00, 0x00, 0x00, 0x00, 0x00, 0x00,
  0x00, 0x00, 0x00, 0x00, 0x00, 0x00, 0x00, 0x00, 0x00, 0x00, 0x00, 0x00,
  0x00, 0x00, 0x00, 0x00, 0x00, 0x00, 0x00, 0x00, 0x00, 0x00, 0x00, 0x00,
  0x00, 0x00, 0x00, 0x00, 0x00, 0x00, 0x00, 0x00, 0x00, 0x00, 0x00, 0x00,
  0x00, 0x00, 0x00, 0x00, 0x00, 0x00, 0x00, 0x00, 0x00, 0x00, 0x00, 0x00,
  0x00, 0x00, 0x00, 0x00, 0x00, 0x00, 0x00, 0x00, 0x00, 0x00, 0x00, 0x00,
  0x00, 0x00, 0x00, 0x00, 0x00, 0x00, 0x00, 0x00, 0x00, 0x00, 0x00, 0x00,
  0x00, 0x00, 0x00, 0x00, 0x00, 0x00, 0x00, 0x00, 0x00, 0x00, 0x00, 0x00,
  0x00, 0x00, 0x00, 0x00, 0x00, 0x00, 0x00, 0x00, 0x00, 0x00, 0x00, 0x00,
  0x00, 0x00, 0x00, 0x00, 0x00, 0x00, 0x00, 0x00, 0x00, 0x00, 0x00, 0x00,
  0x00, 0x00, 0x00, 0x00, 0x00, 0x00, 0x00, 0x00, 0x00, 0x00, 0x00, 0x00,
  0x40, 0x00, 0x00, 0x00, 0x50, 0x2e, 0xb6, 0x37, 0x10, 0x04, 0xb5, 0x37,
  0xa7, 0x93, 0xab, 0x37, 0xce, 0x19, 0xed, 0x37, 0xf5, 0xdc, 0x90, 0x37,
  0x3b, 0xda, 0xd0, 0x37, 0x4b, 0xaa, 0x6c, 0x37, 0xea, 0xbf, 0xa0, 0x37,
  0xfa, 0xcb, 0x69, 0x37, 0x1a, 0x36, 0x87, 0x37, 0xc4, 0xec, 0xa7, 0x37,
  0x02, 0x6a, 0x95, 0x37, 0x7d, 0x2e, 0x91, 0x37, 0x91, 0xaf, 0xd7, 0x37,
  0xc6, 0xfb, 0x99, 0x37, 0xd6, 0xdf, 0xf6, 0x37, 0xef, 0xa7, 0xb1, 0x37,
  0x56, 0x1e, 0x98, 0x37, 0xcc, 0x0f, 0x1b, 0x38, 0xa2, 0x93, 0x92, 0x37,
  0x5b, 0x43, 0x2b, 0x38, 0x90, 0x33, 0xf5, 0x37, 0x17, 0x9e, 0x0e, 0x38,
  0x55, 0xc1, 0x98, 0x37, 0x2b, 0x0f, 0x88, 0x37, 0x0f, 0xa0, 0xa4, 0x37,
  0x62, 0x75, 0x9d, 0x37, 0x6f, 0x28, 0x91, 0x37, 0x4b, 0xbd, 0xf0, 0x37,
  0x32, 0x25, 0xe1, 0x37, 0xd0, 0x3d, 0xe8, 0x37, 0x38, 0x5c, 0x88, 0x37,
  0xf0, 0x0f, 0x3d, 0x38, 0xfb, 0x68, 0x9d, 0x37, 0x39, 0xff, 0xa9, 0x37,
  0x03, 0xbf, 0x0e, 0x38, 0xc2, 0xb1, 0xc3, 0x37, 0x14, 0x38, 0xb4, 0x37,
  0x5a, 0xc9, 0xd5, 0x37, 0x0b, 0x73, 0x57, 0x38, 0x85, 0x01, 0xae, 0x37,
  0xe2, 0xe2, 0xab, 0x37, 0x64, 0x57, 0xbd, 0x37, 0x98, 0xb7, 0x81, 0x37,
  0xfd, 0x99, 0x86, 0x37, 0x51, 0x8d, 0x02, 0x38, 0xd6, 0x14, 0xb9, 0x37,
  0xfa, 0xc5, 0xa0, 0x37, 0xa1, 0x35, 0x8b, 0x37, 0x34, 0xdc, 0xbb, 0x37,
  0x27, 0x28, 0xbf, 0x37, 0x15, 0xf0, 0xe4, 0x37, 0x20, 0xcf, 0x8f, 0x37,
  0x3a, 0x06, 0x88, 0x37, 0xc9, 0x63, 0xee, 0x37, 0xbf, 0x83, 0xc0, 0x37,
  0xb2, 0xd2, 0x4c, 0x38, 0x85, 0xba, 0xa6, 0x37, 0xe1, 0xe1, 0x9f, 0x37,
  0xb8, 0xf5, 0xc8, 0x37, 0x5d, 0x58, 0x98, 0x37, 0xaf, 0x69, 0x96, 0x37,
  0x5a, 0x8d, 0x01, 0x38, 0x39, 0x77, 0xe0, 0x37, 0x12, 0x00, 0x00, 0x00,
  0x74, 0x66, 0x6c, 0x2e, 0x70, 0x73, 0x65, 0x75, 0x64, 0x6f, 0x5f, 0x71,
  0x63, 0x6f, 0x6e, 0x73, 0x74, 0x34, 0x00, 0x00, 0x01, 0x00, 0x00, 0x00,
  0x40, 0x00, 0x00, 0x00, 0xf6, 0xfb, 0xff, 0xff, 0x00, 0x00, 0x00, 0x01,
  0x14, 0x00, 0x00, 0x00, 0xa8, 0x01, 0x00, 0x00, 0x05, 0x00, 0x00, 0x00,
  0x00, 0x00, 0x00, 0x09, 0xb4, 0x01, 0x00, 0x00, 0x5c, 0xfb, 0xff, 0xff,
  0x08, 0x00, 0x00, 0x00, 0x0c, 0x01, 0x00, 0x00, 0x20, 0x00, 0x00, 0x00,
  0x00, 0x00, 0x00, 0x00, 0x00, 0x00, 0x00, 0x00, 0x00, 0x00, 0x00, 0x00,
  0x00, 0x00, 0x00, 0x00, 0x00, 0x00, 0x00, 0x00, 0x00, 0x00, 0x00, 0x00,
  0x00, 0x00, 0x00, 0x00, 0x00, 0x00, 0x00, 0x00, 0x00, 0x00, 0x00, 0x00,
  0x00, 0x00, 0x00, 0x00, 0x00, 0x00, 0x00, 0x00, 0x00, 0x00, 0x00, 0x00,
  0x00, 0x00, 0x00, 0x00, 0x00, 0x00, 0x00, 0x00, 0x00, 0x00, 0x00, 0x00,
  0x00, 0x00, 0x00, 0x00, 0x00, 0x00, 0x00, 0x00, 0x00, 0x00, 0x00, 0x00,
  0x00, 0x00, 0x00, 0x00, 0x00, 0x00, 0x00, 0x00, 0x00, 0x00, 0x00, 0x00,
  0x00, 0x00, 0x00, 0x00, 0x00, 0x00, 0x00, 0x00, 0x00, 0x00, 0x00, 0x00,
  0x00, 0x00, 0x00, 0x00, 0x00, 0x00, 0x00, 0x00, 0x00, 0x00, 0x00, 0x00,
  0x00, 0x00, 0x00, 0x00, 0x00, 0x00, 0x00, 0x00, 0x00, 0x00, 0x00, 0x00,
  0x00, 0x00, 0x00, 0x00, 0x00, 0x00, 0x00, 0x00, 0x00, 0x00, 0x00, 0x00,
  0x00, 0x00, 0x00, 0x00, 0x00, 0x00, 0x00, 0x00, 0x00, 0x00, 0x00, 0x00,
  0x00, 0x00, 0x00, 0x00, 0x00, 0x00, 0x00, 0x00, 0x00, 0x00, 0x00, 0x00,
  0x00, 0x00, 0x00, 0x00, 0x00, 0x00, 0x00, 0x00, 0x00, 0x00, 0x00, 0x00,
  0x00, 0x00, 0x00, 0x00, 0x00, 0x00, 0x00, 0x00, 0x00, 0x00, 0x00, 0x00,
  0x00, 0x00, 0x00, 0x00, 0x00, 0x00, 0x00, 0x00, 0x00, 0x00, 0x00, 0x00,
  0x00, 0x00, 0x00, 0x00, 0x00, 0x00, 0x00, 0x00, 0x00, 0x00, 0x00, 0x00,
  0x00, 0x00, 0x00, 0x00, 0x00, 0x00, 0x00, 0x00, 0x00, 0x00, 0x00, 0x00,
  0x00, 0x00, 0x00, 0x00, 0x00, 0x00, 0x00, 0x00, 0x00, 0x00, 0x00, 0x00,
  0x00, 0x00, 0x00, 0x00, 0x00, 0x00, 0x00, 0x00, 0x00, 0x00, 0x00, 0x00,
  0x00, 0x00, 0x00, 0x00, 0x00, 0x00, 0x00, 0x00, 0x00, 0x00, 0x00, 0x00,
  0x00, 0x00, 0x00, 0x00, 0x00, 0x00, 0x00, 0x00, 0x20, 0x00, 0x00, 0x00,
  0xff, 0x8f, 0x1e, 0x3b, 0xa2, 0x57, 0x3a, 0x3b, 0x8a, 0xf6, 0x07, 0x3b,
  0x8c, 0x00, 0x05, 0x3b, 0x73, 0x8b, 0x3c, 0x3b, 0x4e, 0x61, 0x2a, 0x3b,
  0x80, 0xe8, 0x5a, 0x3b, 0x56, 0x5b, 0x13, 0x3b, 0x3c, 0x66, 0x2e, 0x3b,
  0xc4, 0x51, 0x0f, 0x3b, 0xec, 0x65, 0x88, 0x3b, 0x2f, 0x76, 0x13, 0x3b,
  0x4c, 0xaf, 0x06, 0x3b, 0xde, 0x1d, 0x54, 0x3b, 0x0f, 0xe6, 0x17, 0x3b,
  0xbd, 0xcd, 0x09, 0x3b, 0xe3, 0xa5, 0x1d, 0x3b, 0x15, 0xd8, 0x03, 0x3b,
  0xd7, 0x02, 0x18, 0x3b, 0xac, 0x5d, 0x2e, 0x3b, 0x9e, 0xb4, 0x10, 0x3b,
  0x03, 0x51, 0x0d, 0x3b, 0x28, 0xc8, 0x0e, 0x3b, 0xe2, 0xd3, 0x28, 0x3b,
  0xbd, 0x36, 0x02, 0x3b, 0x85, 0x8c, 0x29, 0x3b, 0x7d, 0x1c, 0x29, 0x3b,
  0xf4, 0x44, 0x40, 0x3b, 0xae, 0xf8, 0x5c, 0x3b, 0x84, 0x16, 0x0a, 0x3b,
  0xf9, 0x9b, 0x0e, 0x3b, 0x6a, 0x65, 0x05, 0x3b, 0x12, 0x00, 0x00, 0x00,
  0x74, 0x66, 0x6c, 0x2e, 0x70, 0x73, 0x65, 0x75, 0x64, 0x6f, 0x5f, 0x71,
  0x63, 0x6f, 0x6e, 0x73, 0x74, 0x33, 0x00, 0x00, 0x02, 0x00, 0x00, 0x00,
  0x20, 0x00, 0x00, 0x00, 0x40, 0x00, 0x00, 0x00, 0xce, 0xfd, 0xff, 0xff,
  0x00, 0x00, 0x00, 0x01, 0x14, 0x00, 0x00, 0x00, 0xa4, 0x01, 0x00, 0x00,
  0x04, 0x00, 0x00, 0x00, 0x00, 0x00, 0x00, 0x02, 0xb0, 0x01, 0x00, 0x00,
  0x34, 0xfd, 0xff, 0xff, 0x08, 0x00, 0x00, 0x00, 0x08, 0x01, 0x00, 0x00,
  0x20, 0x00, 0x00, 0x00, 0x00, 0x00, 0x00, 0x00, 0x00, 0x00, 0x00, 0x00,
  0x00, 0x00, 0x00, 0x00, 0x00, 0x00, 0x00, 0x00, 0x00, 0x00, 0x00, 0x00,
  0x00, 0x00, 0x00, 0x00, 0x00, 0x00, 0x00, 0x00, 0x00, 0x00, 0x00, 0x00,
  0x00, 0x00, 0x00, 0x00, 0x00, 0x00, 0x00, 0x00, 0x00, 0x00, 0x00, 0x00,
  0x00, 0x00, 0x00, 0x00, 0x00, 0x00, 0x00, 0x00, 0x00, 0x00, 0x00, 0x00,
  0x00, 0x00, 0x00, 0x00, 0x00, 0x00, 0x00, 0x00, 0x00, 0x00, 0x00, 0x00,
  0x00, 0x00, 0x00, 0x00, 0x00, 0x00, 0x00, 0x00, 0x00, 0x00, 0x00, 0x00,
  0x00, 0x00, 0x00, 0x00, 0x00, 0x00, 0x00, 0x00, 0x00, 0x00, 0x00, 0x00,
  0x00, 0x00, 0x00, 0x00, 0x00, 0x00, 0x00, 0x00, 0x00, 0x00, 0x00, 0x00,
  0x00, 0x00, 0x00, 0x00, 0x00, 0x00, 0x00, 0x00, 0x00, 0x00, 0x00, 0x00,
  0x00, 0x00, 0x00, 0x00, 0x00, 0x00, 0x00, 0x00, 0x00, 0x00, 0x00, 0x00,
  0x00, 0x00, 0x00, 0x00, 0x00, 0x00, 0x00, 0x00, 0x00, 0x00, 0x00, 0x00,
  0x00, 0x00, 0x00, 0x00, 0x00, 0x00, 0x00, 0x00, 0x00, 0x00, 0x00, 0x00,
  0x00, 0x00, 0x00, 0x00, 0x00, 0x00, 0x00, 0x00, 0x00, 0x00, 0x00, 0x00,
  0x00, 0x00, 0x00, 0x00, 0x00, 0x00, 0x00, 0x00, 0x00, 0x00, 0x00, 0x00,
  0x00, 0x00, 0x00, 0x00, 0x00, 0x00, 0x00, 0x00, 0x00, 0x00, 0x00, 0x00,
  0x00, 0x00, 0x00, 0x00, 0x00, 0x00, 0x00, 0x00, 0x00, 0x00, 0x00, 0x00,
  0x00, 0x00, 0x00, 0x00, 0x00, 0x00, 0x00, 0x00, 0x00, 0x00, 0x00, 0x00,
  0x00, 0x00, 0x00, 0x00, 0x00, 0x00, 0x00, 0x00, 0x00, 0x00, 0x00, 0x00,
  0x00, 0x00, 0x00, 0x00, 0x00, 0x00, 0x00, 0x00, 0x00, 0x00, 0x00, 0x00,
  0x00, 0x00, 0x00, 0x00, 0x00, 0x00, 0x00, 0x00, 0x00, 0x00, 0x00, 0x00,
  0x00, 0x00, 0x00, 0x00, 0x00, 0x00, 0x00, 0x00, 0x20, 0x00, 0x00, 0x00,
  0xff, 0x8f, 0x9e, 0x37, 0xa2, 0x57, 0xba, 0x37, 0x8a, 0xf6, 0x87, 0x37,
  0x8c, 0x00, 0x85, 0x37, 0x73, 0x8b, 0xbc, 0x37, 0x4e, 0x61, 0xaa, 0x37,
  0x80, 0xe8, 0xda, 0x37, 0x56, 0x5b, 0x93, 0x37, 0x3c, 0x66, 0xae, 0x37,
  0xc4, 0x51, 0x8f, 0x37, 0xec, 0x65, 0x08, 0x38, 0x2f, 0x76, 0x93, 0x37,
  0x4c, 0xaf, 0x86, 0x37, 0xde, 0x1d, 0xd4, 0x37, 0x0f, 0xe6, 0x97, 0x37,
  0xbd, 0xcd, 0x89, 0x37, 0xe3, 0xa5, 0x9d, 0x37, 0x15, 0xd8, 0x83, 0x37,
  0xd7, 0x02, 0x98, 0x37, 0xac, 0x5d, 0xae, 0x37, 0x9e, 0xb4, 0x90, 0x37,
  0x03, 0x51, 0x8d, 0x37, 0x28, 0xc8, 0x8e, 0x37, 0xe2, 0xd3, 0xa8, 0x37,
  0xbd, 0x36, 0x82, 0x37, 0x85, 0x8c, 0xa9, 0x37, 0x7d, 0x1c, 0xa9, 0x37,
  0xf4, 0x44, 0xc0, 0x37, 0xae, 0xf8, 0xdc, 0x37, 0x84, 0x16, 0x8a, 0x37,
  0xf9, 0x9b, 0x8e, 0x37, 0x6a, 0x65, 0x85, 0x37, 0x12, 0x00, 0x00, 0x00,
  0x74, 0x66, 0x6c, 0x2e, 0x70, 0x73, 0x65, 0x75, 0x64, 0x6f, 0x5f, 0x71,
  0x63, 0x6f, 0x6e, 0x73, 0x74, 0x32, 0x00, 0x00, 0x01, 0x00, 0x00, 0x00,
  0x20, 0x00, 0x00, 0x00, 0x9e, 0xff, 0xff, 0xff, 0x00, 0x00, 0x00, 0x01,
  0x14, 0x00, 0x00, 0x00, 0x30, 0x00, 0x00, 0x00, 0x03, 0x00, 0x00, 0x00,
  0x00, 0x00, 0x00, 0x09, 0x3c, 0x00, 0x00, 0x00, 0x04, 0xff, 0xff, 0xff,
  0x08, 0x00, 0x00, 0x00, 0x10, 0x00, 0x00, 0x00, 0x01, 0x00, 0x00, 0x00,
  0x00, 0x00, 0x00, 0x00, 0x00, 0x00, 0x00, 0x00, 0x01, 0x00, 0x00, 0x00,
  0xeb, 0xd1, 0x61, 0x3b, 0x12, 0x00, 0x00, 0x00, 0x74, 0x66, 0x6c, 0x2e,
  0x70, 0x73, 0x65, 0x75, 0x64, 0x6f, 0x5f, 0x71, 0x63, 0x6f, 0x6e, 0x73,
  0x74, 0x31, 0x00, 0x00, 0x02, 0x00, 0x00, 0x00, 0x01, 0x00, 0x00, 0x00,
  0x20, 0x00, 0x00, 0x00, 0x00, 0x00, 0x16, 0x00, 0x1c, 0x00, 0x18, 0x00,
  0x17, 0x00, 0x10, 0x00, 0x0c, 0x00, 0x08, 0x00, 0x00, 0x00, 0x00, 0x00,
  0x00, 0x00, 0x07, 0x00, 0x16, 0x00, 0x00, 0x00, 0x00, 0x00, 0x00, 0x01,
  0x14, 0x00, 0x00, 0x00, 0x30, 0x00, 0x00, 0x00, 0x02, 0x00, 0x00, 0x00,
  0x00, 0x00, 0x00, 0x02, 0x3c, 0x00, 0x00, 0x00, 0x7c, 0xff, 0xff, 0xff,
  0x08, 0x00, 0x00, 0x00, 0x10, 0x00, 0x00, 0x00, 0x01, 0x00, 0x00, 0x00,
  0x00, 0x00, 0x00, 0x00, 0x00, 0x00, 0x00, 0x00, 0x01, 0x00, 0x00, 0x00,
  0xeb, 0xd1, 0xe1, 0x37, 0x11, 0x00, 0x00, 0x00, 0x74, 0x66, 0x6c, 0x2e,
  0x70, 0x73, 0x65, 0x75, 0x64, 0x6f, 0x5f, 0x71, 0x63, 0x6f, 0x6e, 0x73,
  0x74, 0x00, 0x00, 0x00, 0x01, 0x00, 0x00, 0x00, 0x01, 0x00, 0x00, 0x00,
  0x00, 0x00, 0x16, 0x00, 0x20, 0x00, 0x1c, 0x00, 0x1b, 0x00, 0x14, 0x00,
  0x10, 0x00, 0x0c, 0x00, 0x00, 0x00, 0x00, 0x00, 0x08, 0x00, 0x07, 0x00,
  0x16, 0x00, 0x00, 0x00, 0x00, 0x00, 0x00, 0x01, 0x18, 0x00, 0x00, 0x00,
  0x2c, 0x00, 0x00, 0x00, 0x48, 0x00, 0x00, 0x00, 0x01, 0x00, 0x00, 0x00,
  0x00, 0x00, 0x00, 0x09, 0x60, 0x00, 0x00, 0x00, 0x02, 0x00, 0x00, 0x00,
  0xff, 0xff, 0xff, 0xff, 0x01, 0x00, 0x00, 0x00, 0x0c, 0x00, 0x0c, 0x00,
  0x00, 0x00, 0x00, 0x00, 0x08, 0x00, 0x04, 0x00, 0x0c, 0x00, 0x00, 0x00,
  0x08, 0x00, 0x00, 0x00, 0x10, 0x00, 0x00, 0x00, 0x01, 0x00, 0x00, 0x00,
  0x80, 0xff, 0xff, 0xff, 0xff, 0xff, 0xff, 0xff, 0x01, 0x00, 0x00, 0x00,
  0xa5, 0x0e, 0xc9, 0x3c, 0x1e, 0x00, 0x00, 0x00, 0x73, 0x65, 0x72, 0x76,
  0x69, 0x6e, 0x67, 0x5f, 0x64, 0x65, 0x66, 0x61, 0x75, 0x6c, 0x74, 0x5f,
  0x6b, 0x65, 0x72, 0x61, 0x73, 0x5f, 0x74, 0x65, 0x6e, 0x73, 0x6f, 0x72,
  0x3a, 0x30, 0x00, 0x00, 0x02, 0x00, 0x00, 0x00, 0x01, 0x00, 0x00, 0x00,
  0x01, 0x00, 0x00, 0x00, 0x02, 0x00, 0x00, 0x00, 0x24, 0x00, 0x00, 0x00,
  0x04, 0x00, 0x00, 0x00, 0xf0, 0xff, 0xff, 0xff, 0x1c, 0x00, 0x00, 0x00,
  0x02, 0x00, 0x00, 0x00, 0x00, 0x00, 0x00, 0x1c, 0x0c, 0x00, 0x10, 0x00,
  0x0f, 0x00, 0x00, 0x00, 0x08, 0x00, 0x04, 0x00, 0x0c, 0x00, 0x00, 0x00,
  0x09, 0x00, 0x00, 0x00, 0x04, 0x00, 0x00, 0x00, 0x00, 0x00, 0x00, 0x09
};
unsigned int models_complex_sine_model_quantized_tflite_len = 11904;
