unsigned char models_complex_sine_model_quantized_tflite[] = {
  0x20, 0x00, 0x00, 0x00, 0x54, 0x46, 0x4c, 0x33, 0x00, 0x00, 0x00, 0x00,
  0x14, 0x00, 0x20, 0x00, 0x1c, 0x00, 0x18, 0x00, 0x14, 0x00, 0x10, 0x00,
  0x0c, 0x00, 0x00, 0x00, 0x08, 0x00, 0x04, 0x00, 0x14, 0x00, 0x00, 0x00,
  0x1c, 0x00, 0x00, 0x00, 0x98, 0x00, 0x00, 0x00, 0x18, 0x01, 0x00, 0x00,
  0xf4, 0x15, 0x00, 0x00, 0x04, 0x16, 0x00, 0x00, 0xec, 0x2b, 0x00, 0x00,
  0x03, 0x00, 0x00, 0x00, 0x01, 0x00, 0x00, 0x00, 0x10, 0x00, 0x00, 0x00,
  0x00, 0x00, 0x0a, 0x00, 0x10, 0x00, 0x0c, 0x00, 0x08, 0x00, 0x04, 0x00,
  0x0a, 0x00, 0x00, 0x00, 0x0c, 0x00, 0x00, 0x00, 0x1c, 0x00, 0x00, 0x00,
  0x3c, 0x00, 0x00, 0x00, 0x0f, 0x00, 0x00, 0x00, 0x73, 0x65, 0x72, 0x76,
  0x69, 0x6e, 0x67, 0x5f, 0x64, 0x65, 0x66, 0x61, 0x75, 0x6c, 0x74, 0x00,
  0x01, 0x00, 0x00, 0x00, 0x04, 0x00, 0x00, 0x00, 0x68, 0xff, 0xff, 0xff,
  0x0f, 0x00, 0x00, 0x00, 0x04, 0x00, 0x00, 0x00, 0x08, 0x00, 0x00, 0x00,
  0x6f, 0x75, 0x74, 0x70, 0x75, 0x74, 0x5f, 0x30, 0x00, 0x00, 0x00, 0x00,
  0x01, 0x00, 0x00, 0x00, 0x04, 0x00, 0x00, 0x00, 0x9e, 0xea, 0xff, 0xff,
  0x04, 0x00, 0x00, 0x00, 0x0c, 0x00, 0x00, 0x00, 0x6b, 0x65, 0x72, 0x61,
  0x73, 0x5f, 0x74, 0x65, 0x6e, 0x73, 0x6f, 0x72, 0x00, 0x00, 0x00, 0x00,
  0x03, 0x00, 0x00, 0x00, 0x5c, 0x00, 0x00, 0x00, 0x2c, 0x00, 0x00, 0x00,
  0x04, 0x00, 0x00, 0x00, 0xb8, 0xff, 0xff, 0xff, 0x13, 0x00, 0x00, 0x00,
  0x04, 0x00, 0x00, 0x00, 0x13, 0x00, 0x00, 0x00, 0x43, 0x4f, 0x4e, 0x56,
  0x45, 0x52, 0x53, 0x49, 0x4f, 0x4e, 0x5f, 0x4d, 0x45, 0x54, 0x41, 0x44,
  0x41, 0x54, 0x41, 0x00, 0xdc, 0xff, 0xff, 0xff, 0x12, 0x00, 0x00, 0x00,
  0x04, 0x00, 0x00, 0x00, 0x13, 0x00, 0x00, 0x00, 0x6d, 0x69, 0x6e, 0x5f,
  0x72, 0x75, 0x6e, 0x74, 0x69, 0x6d, 0x65, 0x5f, 0x76, 0x65, 0x72, 0x73,
  0x69, 0x6f, 0x6e, 0x00, 0x08, 0x00, 0x0c, 0x00, 0x08, 0x00, 0x04, 0x00,
  0x08, 0x00, 0x00, 0x00, 0x11, 0x00, 0x00, 0x00, 0x04, 0x00, 0x00, 0x00,
  0x13, 0x00, 0x00, 0x00, 0x6d, 0x69, 0x6e, 0x5f, 0x72, 0x75, 0x6e, 0x74,
  0x69, 0x6d, 0x65, 0x5f, 0x76, 0x65, 0x72, 0x73, 0x69, 0x6f, 0x6e, 0x00,
  0x14, 0x00, 0x00, 0x00, 0xd8, 0x14, 0x00, 0x00, 0xd0, 0x14, 0x00, 0x00,
  0xbc, 0x14, 0x00, 0x00, 0x84, 0x14, 0x00, 0x00, 0xf4, 0x13, 0x00, 0x00,
  0xe4, 0x0b, 0x00, 0x00, 0xd4, 0x0a, 0x00, 0x00, 0xc4, 0x02, 0x00, 0x00,
  0x34, 0x02, 0x00, 0x00, 0x24, 0x01, 0x00, 0x00, 0xf4, 0x00, 0x00, 0x00,
  0xdc, 0x00, 0x00, 0x00, 0xd4, 0x00, 0x00, 0x00, 0xcc, 0x00, 0x00, 0x00,
  0xc4, 0x00, 0x00, 0x00, 0xbc, 0x00, 0x00, 0x00, 0xb4, 0x00, 0x00, 0x00,
  0x94, 0x00, 0x00, 0x00, 0x74, 0x00, 0x00, 0x00, 0x04, 0x00, 0x00, 0x00,
  0x92, 0xeb, 0xff, 0xff, 0x04, 0x00, 0x00, 0x00, 0x60, 0x00, 0x00, 0x00,
  0x0c, 0x00, 0x00, 0x00, 0x08, 0x00, 0x0e, 0x00, 0x08, 0x00, 0x04, 0x00,
  0x08, 0x00, 0x00, 0x00, 0x10, 0x00, 0x00, 0x00, 0x28, 0x00, 0x00, 0x00,
  0x00, 0x00, 0x06, 0x00, 0x08, 0x00, 0x04, 0x00, 0x06, 0x00, 0x00, 0x00,
  0x04, 0x00, 0x00, 0x00, 0x01, 0x00, 0x00, 0x00, 0xeb, 0x03, 0x00, 0x00,
  0x0c, 0x00, 0x18, 0x00, 0x14, 0x00, 0x10, 0x00, 0x0c, 0x00, 0x04, 0x00,
  0x0c, 0x00, 0x00, 0x00, 0xb8, 0x99, 0x9c, 0x40, 0x9e, 0x85, 0xb2, 0x66,
  0x02, 0x00, 0x00, 0x00, 0x02, 0x00, 0x00, 0x00, 0x04, 0x00, 0x00, 0x00,
  0x06, 0x00, 0x00, 0x00, 0x32, 0x2e, 0x31, 0x39, 0x2e, 0x30, 0x00, 0x00,
  0xfe, 0xeb, 0xff, 0xff, 0x04, 0x00, 0x00, 0x00, 0x10, 0x00, 0x00, 0x00,
  0x00, 0x00, 0x00, 0x00, 0x00, 0x00, 0x00, 0x00, 0x00, 0x00, 0x00, 0x00,
  0x00, 0x00, 0x00, 0x00, 0x1a, 0xec, 0xff, 0xff, 0x04, 0x00, 0x00, 0x00,
  0x10, 0x00, 0x00, 0x00, 0x31, 0x2e, 0x31, 0x34, 0x2e, 0x30, 0x00, 0x00,
  0x00, 0x00, 0x00, 0x00, 0x00, 0x00, 0x00, 0x00, 0x9c, 0xeb, 0xff, 0xff,
  0xa0, 0xeb, 0xff, 0xff, 0xa4, 0xeb, 0xff, 0xff, 0xa8, 0xeb, 0xff, 0xff,
  0xac, 0xeb, 0xff, 0xff, 0x4a, 0xec, 0xff, 0xff, 0x04, 0x00, 0x00, 0x00,
  0x08, 0x00, 0x00, 0x00, 0x81, 0x7f, 0x81, 0x81, 0x7f, 0x81, 0x7f, 0x81,
  0x5e, 0xec, 0xff, 0xff, 0x04, 0x00, 0x00, 0x00, 0x20, 0x00, 0x00, 0x00,
  0x00, 0x00, 0x00, 0x00, 0x60, 0x0a, 0x00, 0x00, 0x00, 0x00, 0x00, 0x00,
  0x00, 0x00, 0x00, 0x00, 0x94, 0xf5, 0xff, 0xff, 0x00, 0x00, 0x00, 0x00,
  0xd4, 0xfb, 0xff, 0xff, 0xf1, 0xa4, 0x00, 0x00, 0x8a, 0xec, 0xff, 0xff,
  0x04, 0x00, 0x00, 0x00, 0x00, 0x01, 0x00, 0x00, 0x81, 0xb2, 0x5e, 0xe0,
  0x28, 0xdf, 0x8f, 0xf0, 0x37, 0xf9, 0xc2, 0x7f, 0xb2, 0x7c, 0xcc, 0xc4,
  0x81, 0x83, 0x72, 0x00, 0xff, 0x29, 0xa5, 0xdd, 0xd2, 0xc3, 0xf4, 0xcf,
  0x14, 0xfe, 0x81, 0x20, 0x09, 0xf1, 0xdf, 0x95, 0xf9, 0xd2, 0xdd, 0x7f,
  0x43, 0x91, 0xd9, 0x03, 0xd6, 0x81, 0xbb, 0x1c, 0x0c, 0x81, 0x1b, 0xff,
  0xca, 0xb4, 0x4a, 0xe0, 0xb4, 0x97, 0x54, 0x93, 0x81, 0x2c, 0x12, 0x65,
  0x15, 0x4a, 0xf4, 0x0b, 0xa5, 0xbc, 0x81, 0xc7, 0xde, 0x33, 0x12, 0x0f,
  0x19, 0x37, 0x81, 0x08, 0xd2, 0xea, 0x95, 0x17, 0xb0, 0xef, 0x81, 0xa5,
  0x07, 0x51, 0x2b, 0x06, 0x62, 0x7f, 0x32, 0x03, 0x02, 0x54, 0x09, 0x8d,
  0x2f, 0xc1, 0x55, 0x7f, 0xfb, 0x7c, 0xac, 0x81, 0xa4, 0xf6, 0xd6, 0xad,
  0x35, 0x03, 0xaa, 0xb0, 0xa4, 0xc1, 0x47, 0x7f, 0xe9, 0x3c, 0x4f, 0xac,
  0xe1, 0x08, 0xf0, 0x7f, 0x18, 0xed, 0xe9, 0x3e, 0x4a, 0x1d, 0x16, 0x81,
  0xf2, 0x13, 0x15, 0x4d, 0x30, 0x21, 0xff, 0x81, 0x8e, 0x36, 0xfa, 0x9b,
  0x16, 0x3d, 0x7f, 0xaa, 0xb9, 0x81, 0x2a, 0xf6, 0xb9, 0xb8, 0xbd, 0x44,
  0x18, 0x0c, 0x7f, 0xd2, 0x2b, 0x52, 0x59, 0x02, 0x3c, 0x40, 0xc8, 0x83,
  0xaa, 0x81, 0x42, 0x3b, 0x63, 0xde, 0x09, 0x6c, 0x0b, 0x22, 0x81, 0x30,
  0xa1, 0xd3, 0x81, 0xb6, 0x35, 0x39, 0xfd, 0xac, 0x25, 0xa6, 0x7f, 0xc8,
  0x42, 0x8e, 0xe6, 0x49, 0xe6, 0x73, 0x89, 0x81, 0xa7, 0x17, 0x53, 0x13,
  0x54, 0xad, 0xb8, 0x76, 0x3b, 0xa5, 0x7f, 0x42, 0xe9, 0x39, 0xe2, 0x3d,
  0xe2, 0x05, 0xf5, 0x7f, 0x3b, 0x43, 0x23, 0x90, 0xbe, 0x81, 0x95, 0xcc,
  0xfe, 0xf0, 0xa5, 0xa8, 0x0c, 0x49, 0xdc, 0x81, 0x7f, 0x71, 0xd5, 0x1c,
  0x53, 0xdc, 0x62, 0x96, 0x7a, 0xa6, 0x1a, 0x6f, 0x81, 0x1f, 0x4f, 0x37,
  0x96, 0xed, 0xff, 0xff, 0x04, 0x00, 0x00, 0x00, 0x80, 0x00, 0x00, 0x00,
  0x00, 0x00, 0x00, 0x00, 0xc0, 0x0a, 0x00, 0x00, 0x00, 0x00, 0x00, 0x00,
  0xfc, 0x02, 0x00, 0x00, 0x72, 0x06, 0x00, 0x00, 0x63, 0xff, 0xff, 0xff,
  0x00, 0x00, 0x00, 0x00, 0xa5, 0xfa, 0xff, 0xff, 0xbd, 0x00, 0x00, 0x00,
  0x3a, 0xfe, 0xff, 0xff, 0x00, 0x00, 0x00, 0x00, 0x79, 0xf5, 0xff, 0xff,
  0x22, 0x15, 0x00, 0x00, 0xe2, 0x1a, 0x00, 0x00, 0x41, 0x0c, 0x00, 0x00,
  0x7c, 0x0c, 0x00, 0x00, 0x96, 0xf2, 0xff, 0xff, 0xdc, 0xf4, 0xff, 0xff,
  0x1c, 0xf1, 0xff, 0xff, 0x62, 0x05, 0x00, 0x00, 0x74, 0xec, 0xff, 0xff,
  0xeb, 0xf7, 0xff, 0xff, 0x07, 0x0b, 0x00, 0x00, 0x41, 0xff, 0xff, 0xff,
  0xcc, 0xfe, 0xff, 0xff, 0xe7, 0xf3, 0xff, 0xff, 0x56, 0xf5, 0xff, 0xff,
  0x59, 0x0e, 0x00, 0x00, 0x5d, 0x0c, 0x00, 0x00, 0x00, 0x00, 0x00, 0x00,
  0x2f, 0x05, 0x00, 0x00, 0x5a, 0xff, 0xff, 0xff, 0x22, 0xee, 0xff, 0xff,
  0x04, 0x00, 0x00, 0x00, 0x00, 0x08, 0x00, 0x00, 0xf7, 0xf1, 0x18, 0xd7,
  0x05, 0xff, 0xc5, 0xcf, 0x26, 0xe8, 0xed, 0x38, 0xff, 0x42, 0x09, 0x00,
  0xc0, 0xb4, 0xeb, 0x81, 0xeb, 0x32, 0xc3, 0xd4, 0xcd, 0xf1, 0x0f, 0xf9,
  0xed, 0xe4, 0x3f, 0x25, 0x18, 0xf4, 0x04, 0x81, 0xcb, 0x29, 0xe9, 0xee,
  0x62, 0x49, 0x05, 0x11, 0x26, 0x01, 0x0d, 0x0c, 0x08, 0x01, 0xeb, 0xbb,
  0x14, 0x1b, 0x12, 0xf2, 0x0a, 0x05, 0x29, 0x4a, 0xcf, 0x29, 0xfc, 0xd1,
  0xe6, 0x81, 0x28, 0x18, 0x09, 0xfb, 0xa3, 0x88, 0xd2, 0x6a, 0x3d, 0x7e,
  0x30, 0xb6, 0xc4, 0xb3, 0x66, 0x24, 0xd6, 0x11, 0x46, 0x78, 0x41, 0x0b,
  0x9d, 0x28, 0xa9, 0xdb, 0x37, 0x28, 0x3f, 0x31, 0x25, 0x3a, 0x28, 0xe1,
  0x7b, 0x5e, 0x53, 0xea, 0x8e, 0xde, 0x10, 0x20, 0xc4, 0x67, 0x82, 0x84,
  0xaa, 0x99, 0xd2, 0x73, 0xd1, 0x37, 0xed, 0x85, 0x25, 0x4a, 0x14, 0x4e,
  0x64, 0x8a, 0xc3, 0x81, 0xee, 0x97, 0xf4, 0x19, 0x46, 0x94, 0xd2, 0x5e,
  0x8f, 0xa7, 0xcb, 0xc2, 0xd7, 0x2d, 0x12, 0x7f, 0x7d, 0xe3, 0x02, 0x88,
  0x82, 0x0d, 0x5f, 0xb0, 0xf3, 0xfb, 0xf8, 0x98, 0xac, 0xfd, 0xb4, 0x76,
  0x14, 0xbb, 0x92, 0x0b, 0xe6, 0x47, 0x1e, 0x81, 0x4b, 0x69, 0x1c, 0xa4,
  0x2b, 0x7f, 0x98, 0xbe, 0x51, 0x2a, 0x11, 0xff, 0x05, 0xc9, 0xb4, 0x2c,
  0x72, 0xb2, 0xc5, 0xf2, 0xcd, 0x7e, 0xa0, 0x18, 0x3b, 0xd0, 0xc9, 0x19,
  0x09, 0x39, 0x37, 0xd6, 0x81, 0xc8, 0xd7, 0xc0, 0x26, 0xf4, 0x22, 0x31,
  0xf6, 0xf9, 0xf4, 0x1a, 0xab, 0xdb, 0x02, 0x18, 0x41, 0x39, 0xc1, 0xee,
  0xd5, 0xd8, 0x06, 0x26, 0xb4, 0xbe, 0xa2, 0x2d, 0x0d, 0x55, 0x63, 0x6a,
  0x2c, 0xc7, 0x40, 0x5c, 0xe1, 0x0f, 0x9b, 0xfa, 0x7f, 0x01, 0x54, 0x37,
  0xf1, 0x27, 0x16, 0x2f, 0x46, 0x3f, 0x1f, 0x4a, 0x56, 0x55, 0xcc, 0x14,
  0xfa, 0xb2, 0xe9, 0xc5, 0xc7, 0xfd, 0xf4, 0x2c, 0x2d, 0x53, 0xe0, 0xeb,
  0x02, 0xfc, 0x30, 0xe0, 0x02, 0x0f, 0x25, 0x81, 0x21, 0xe1, 0xb8, 0xd7,
  0x2a, 0xc7, 0xe3, 0x39, 0xbc, 0xf5, 0x2d, 0x00, 0xd0, 0x12, 0xd2, 0x5e,
  0x00, 0xea, 0xd8, 0xd4, 0xbe, 0xb6, 0x1a, 0xc5, 0x06, 0x06, 0xee, 0xfe,
  0xd3, 0x2a, 0xf7, 0x43, 0x00, 0x1f, 0x29, 0x0e, 0xd4, 0xdc, 0x81, 0x2f,
  0xe7, 0x05, 0xcc, 0x18, 0x0a, 0xe1, 0xa1, 0xbe, 0xa1, 0x8b, 0x64, 0x13,
  0xd5, 0xd6, 0x46, 0x5d, 0x83, 0xf2, 0xaf, 0x81, 0x55, 0xa9, 0x82, 0x1b,
  0x5f, 0x72, 0x07, 0xb2, 0x62, 0x1d, 0x41, 0x35, 0xe9, 0x49, 0x14, 0x89,
  0x2d, 0xe7, 0xfc, 0xa1, 0x9d, 0xdb, 0xf3, 0xc3, 0x7f, 0x23, 0xdb, 0xf1,
  0x32, 0x14, 0x31, 0x25, 0xcd, 0xee, 0xce, 0xb3, 0xba, 0x3f, 0xfb, 0x1a,
  0xeb, 0x00, 0x11, 0xff, 0xa7, 0x01, 0x11, 0x34, 0x98, 0xe6, 0x05, 0xc4,
  0x04, 0x90, 0xde, 0x60, 0x3a, 0xff, 0x0b, 0x0f, 0x0c, 0x0f, 0x38, 0x32,
  0xeb, 0x68, 0x45, 0xf1, 0x86, 0xce, 0xac, 0x5d, 0xfe, 0x91, 0x1a, 0xda,
  0x08, 0x81, 0xd2, 0xec, 0xcb, 0xe7, 0xc9, 0x7d, 0x81, 0x9f, 0xf7, 0x4c,
  0x5e, 0x93, 0xf5, 0x77, 0x0f, 0xb9, 0x5b, 0xcd, 0xcf, 0xdb, 0xee, 0xd9,
  0x43, 0xde, 0xfe, 0x6c, 0xb4, 0x3d, 0x68, 0xca, 0x7d, 0xe1, 0xe4, 0xde,
  0xa9, 0x48, 0xcf, 0xcf, 0x7f, 0x15, 0xb0, 0x21, 0xf0, 0x01, 0xd0, 0xe4,
  0x18, 0x93, 0xf5, 0xa1, 0x30, 0x20, 0xf3, 0xb6, 0x55, 0x07, 0xf9, 0xa2,
  0x3f, 0x26, 0x28, 0x3b, 0xda, 0x1b, 0x2f, 0x22, 0x55, 0x2b, 0xbb, 0x39,
  0xb9, 0x5b, 0x5b, 0xea, 0xde, 0x44, 0x24, 0x57, 0xec, 0x42, 0x4e, 0xf9,
  0x7f, 0x15, 0x02, 0xf9, 0xda, 0x44, 0xa9, 0x09, 0x9d, 0x4b, 0xf9, 0xc1,
  0x70, 0x17, 0x2f, 0x1e, 0x33, 0xf5, 0x57, 0xed, 0xfb, 0x68, 0xe0, 0x6a,
  0xa2, 0x8f, 0x6f, 0xbc, 0xbc, 0x2a, 0xd5, 0x51, 0xa7, 0x55, 0xa7, 0xf7,
  0x5a, 0x7f, 0x24, 0x2e, 0xb4, 0x34, 0xff, 0xbe, 0xf1, 0x7d, 0xe5, 0xfc,
  0x44, 0xfb, 0xfa, 0xd8, 0xe0, 0xe3, 0x2c, 0xec, 0xe1, 0x26, 0x39, 0x1a,
  0x03, 0x9a, 0xd6, 0xf9, 0x7f, 0x55, 0x47, 0x22, 0x15, 0xfa, 0x1c, 0xd8,
  0x1c, 0x3e, 0x50, 0xda, 0x3c, 0xe8, 0xf5, 0xfe, 0xd3, 0x31, 0x46, 0x08,
  0x76, 0x18, 0x1a, 0x87, 0x30, 0xd6, 0xa6, 0xdc, 0x3d, 0x2f, 0xf1, 0xa1,
  0x83, 0x5d, 0x81, 0x8c, 0x98, 0xec, 0x08, 0x89, 0x2d, 0x8f, 0x8a, 0xdb,
  0x84, 0xdd, 0x92, 0xfe, 0xd0, 0x20, 0x2e, 0x3e, 0x21, 0x27, 0x0e, 0xfa,
  0xcb, 0xc0, 0xe7, 0xc4, 0x07, 0x25, 0xfe, 0x3c, 0xc7, 0x81, 0x17, 0x4a,
  0x18, 0xea, 0xdf, 0xf5, 0x1a, 0x10, 0x05, 0x5f, 0xcd, 0xcd, 0x0f, 0x1e,
  0xd8, 0xc3, 0x11, 0x7a, 0x75, 0xce, 0x26, 0x20, 0xc6, 0xdf, 0x13, 0x4a,
  0x89, 0xb7, 0x79, 0x87, 0xe2, 0x9b, 0x8c, 0x54, 0x88, 0x5a, 0x31, 0x32,
  0x0f, 0x73, 0x2d, 0x86, 0x81, 0x13, 0xa9, 0x2f, 0x26, 0x21, 0xf7, 0xed,
  0x08, 0xeb, 0xd4, 0x14, 0x0d, 0xf6, 0xe8, 0x12, 0x04, 0x02, 0xed, 0x24,
  0x2f, 0xdf, 0x81, 0xbb, 0xdb, 0x18, 0xd5, 0xe9, 0x1b, 0xcb, 0xe8, 0xfe,
  0xfd, 0x01, 0xee, 0x1b, 0x81, 0xdc, 0x2c, 0x19, 0x9c, 0xd3, 0xa1, 0x26,
  0x65, 0xc1, 0xd2, 0xfb, 0x85, 0xeb, 0x51, 0x17, 0xe3, 0x63, 0xe3, 0xc1,
  0x06, 0x3a, 0x45, 0x72, 0x6f, 0xf3, 0xbb, 0x9a, 0xd2, 0x38, 0x63, 0xa8,
  0x30, 0x0a, 0xd4, 0x21, 0x7f, 0xb3, 0x13, 0xfa, 0x63, 0xa5, 0xeb, 0x11,
  0x94, 0x2e, 0xbf, 0x56, 0x1c, 0x56, 0x5d, 0xc4, 0xf7, 0x40, 0x00, 0xdf,
  0xb0, 0x46, 0xe3, 0x21, 0x5c, 0x02, 0x52, 0x33, 0xc5, 0x9f, 0xfc, 0x8a,
  0xa7, 0xf4, 0xff, 0x04, 0x58, 0x1e, 0x10, 0x12, 0x28, 0xda, 0xe0, 0x47,
  0xe0, 0xc5, 0x1d, 0x81, 0xfc, 0xfe, 0x08, 0x0f, 0xcc, 0xfe, 0xfc, 0x24,
  0x0b, 0xeb, 0xc6, 0xcc, 0xad, 0x2d, 0x75, 0x04, 0xd7, 0xb2, 0x01, 0x27,
  0x10, 0x6a, 0x1b, 0x7a, 0x81, 0x1a, 0x34, 0xbc, 0x17, 0xe5, 0x82, 0x87,
  0x4a, 0x2c, 0xb9, 0x2d, 0x0a, 0x27, 0x24, 0x9c, 0xa5, 0x4e, 0x1c, 0xc8,
  0x18, 0xdc, 0x26, 0x42, 0xb4, 0x98, 0xe3, 0xc4, 0x8a, 0xa8, 0xd7, 0x3b,
  0xd2, 0xac, 0x94, 0x7a, 0x90, 0x14, 0x93, 0x68, 0x06, 0xe8, 0x52, 0x2d,
  0x9d, 0x31, 0x81, 0xcb, 0xc0, 0xed, 0xa0, 0x1e, 0x30, 0x45, 0x39, 0x7f,
  0x34, 0x27, 0x14, 0xf9, 0xbb, 0xd0, 0x0e, 0xcb, 0xcd, 0x1b, 0x2d, 0x27,
  0x05, 0x2c, 0xd6, 0x44, 0x05, 0x07, 0xeb, 0x27, 0x08, 0xd7, 0xac, 0x4c,
  0x3b, 0x18, 0xf0, 0xcb, 0x31, 0xbd, 0x9f, 0xd5, 0xaa, 0xe8, 0x35, 0x4b,
  0xa8, 0xbb, 0x69, 0x33, 0x9e, 0xac, 0xa6, 0xcd, 0xc8, 0xa5, 0xc3, 0xfb,
  0x74, 0xfd, 0x2c, 0x47, 0x04, 0xa7, 0x3b, 0xf1, 0x82, 0x81, 0x0d, 0xd3,
  0x27, 0xc1, 0x17, 0xda, 0xb9, 0x2e, 0x09, 0xd7, 0x54, 0xf4, 0xf2, 0x1d,
  0x3b, 0xfd, 0x29, 0xe7, 0xa2, 0xe0, 0x11, 0x81, 0xc0, 0x12, 0xad, 0xf5,
  0xc7, 0x25, 0x04, 0xf0, 0xe0, 0x35, 0x36, 0x18, 0xc0, 0x6a, 0x89, 0x0f,
  0x7e, 0xc3, 0x02, 0xd7, 0xb4, 0x61, 0xc6, 0xe3, 0xd4, 0x61, 0xde, 0xf0,
  0x81, 0x0d, 0xf4, 0xf5, 0x11, 0x16, 0x76, 0xc8, 0x95, 0xae, 0xcb, 0x8a,
  0xce, 0x4b, 0x94, 0x42, 0xc9, 0xc9, 0x94, 0x60, 0x7b, 0x24, 0x40, 0xd7,
  0xce, 0xd6, 0x45, 0xd5, 0x8c, 0x67, 0xfe, 0x34, 0x9b, 0x62, 0xc5, 0x0b,
  0x81, 0x05, 0x05, 0x3b, 0x40, 0x7d, 0x8a, 0x93, 0xe5, 0x6a, 0x1a, 0x82,
  0x43, 0xc4, 0xfd, 0x0b, 0xf1, 0x07, 0x0e, 0x06, 0x81, 0x2c, 0xc0, 0x18,
  0x4a, 0x7c, 0x28, 0x06, 0x8f, 0x99, 0x14, 0x24, 0xa1, 0x05, 0x01, 0xe2,
  0xfb, 0x32, 0xbb, 0x77, 0x9f, 0x36, 0xd8, 0x19, 0xd3, 0xff, 0xcb, 0xac,
  0xe7, 0x1c, 0xe4, 0x19, 0x7f, 0x51, 0xea, 0x0d, 0x20, 0x36, 0xe1, 0x50,
  0xec, 0xf2, 0xe6, 0xdd, 0xd1, 0xe3, 0xb8, 0xc5, 0x32, 0x1d, 0xe2, 0x22,
  0xd9, 0x08, 0x06, 0x28, 0xe8, 0x0d, 0x15, 0x55, 0x2f, 0x0d, 0xd8, 0x19,
  0x81, 0x19, 0x0b, 0xee, 0x2b, 0xe0, 0xf9, 0xc1, 0xe6, 0xe3, 0xd5, 0x39,
  0x1a, 0x83, 0x45, 0x1f, 0x0e, 0xcd, 0x27, 0xf5, 0x06, 0xe0, 0xd2, 0x35,
  0x1e, 0xd0, 0xdd, 0x81, 0x07, 0x41, 0xb2, 0xbb, 0x26, 0x7e, 0xa9, 0x05,
  0x23, 0x59, 0xd0, 0xdf, 0xb7, 0xcf, 0xd7, 0x49, 0xdd, 0x3d, 0xcc, 0xc1,
  0xca, 0x38, 0xb6, 0xcc, 0x27, 0x66, 0x55, 0xc9, 0x0f, 0xa5, 0xaf, 0x95,
  0xdb, 0xd2, 0x0a, 0x81, 0xd4, 0x08, 0x15, 0xc2, 0x44, 0x5c, 0x90, 0x16,
  0x33, 0x4d, 0xc5, 0x98, 0xb2, 0xbb, 0x96, 0x21, 0x32, 0x3a, 0xa3, 0x87,
  0xe6, 0x04, 0x42, 0xf0, 0xa8, 0x08, 0xc4, 0xad, 0x3d, 0x34, 0x48, 0x50,
  0xaa, 0x55, 0x51, 0x68, 0xbc, 0xf0, 0xc2, 0x0b, 0x7f, 0x1d, 0x6d, 0xb8,
  0x2b, 0xf6, 0xc3, 0xbd, 0x3b, 0x69, 0x11, 0xf1, 0xf9, 0xf2, 0xf6, 0xef,
  0x6f, 0x4d, 0x13, 0xe3, 0xed, 0xa9, 0xb2, 0xe0, 0x81, 0x15, 0x7f, 0x20,
  0xc5, 0xdd, 0x31, 0xc4, 0xf7, 0x63, 0x03, 0xcd, 0x5f, 0xda, 0x36, 0x26,
  0x41, 0x6b, 0xa3, 0xab, 0x68, 0x44, 0xd8, 0xab, 0x1b, 0x3a, 0x04, 0x17,
  0xff, 0xcc, 0x05, 0x02, 0xca, 0xbc, 0xf1, 0x25, 0xdf, 0xfe, 0x4b, 0x1a,
  0x81, 0xc7, 0xf4, 0x13, 0xf4, 0xd5, 0x2f, 0x30, 0x09, 0xe1, 0xf9, 0x0d,
  0x1c, 0x2b, 0xfa, 0xf6, 0xbf, 0x16, 0x0f, 0x6b, 0x4c, 0x0a, 0xb9, 0xdc,
  0x81, 0xe3, 0xc1, 0xa6, 0xce, 0x18, 0x3b, 0x47, 0x17, 0x3d, 0xdb, 0x2b,
  0xa4, 0x3e, 0x64, 0x3a, 0xdf, 0x0b, 0xef, 0xfe, 0x69, 0xf6, 0x3f, 0xbe,
  0xf4, 0x0c, 0x09, 0x86, 0xeb, 0x05, 0x41, 0xcd, 0x7f, 0x28, 0xba, 0x11,
  0x44, 0x3a, 0x2e, 0x61, 0x99, 0x9b, 0xad, 0xbc, 0xef, 0x36, 0x89, 0x24,
  0x3d, 0x24, 0xb8, 0x60, 0x12, 0x2c, 0x44, 0x2d, 0xf5, 0xc9, 0x53, 0xe7,
  0x15, 0xa7, 0xd9, 0xa3, 0xce, 0x03, 0x0a, 0x36, 0x3c, 0xc3, 0xf2, 0xd5,
  0x7f, 0x6a, 0xe3, 0x21, 0xd2, 0x5f, 0xe7, 0x59, 0xf8, 0xb8, 0x17, 0xec,
  0xf7, 0x13, 0x4a, 0x36, 0x63, 0xc4, 0xd4, 0x8f, 0x82, 0x93, 0x34, 0xbd,
  0xd6, 0x0d, 0x49, 0x4e, 0xeb, 0xb3, 0x9b, 0x08, 0xee, 0x46, 0x3e, 0xc6,
  0xbe, 0x7f, 0x59, 0xce, 0x60, 0x4a, 0x40, 0x21, 0x0b, 0xd9, 0xfa, 0xf7,
  0xf2, 0xc0, 0x0c, 0x81, 0x0a, 0xe6, 0x27, 0x1b, 0x6c, 0x43, 0x30, 0x24,
  0x10, 0xfe, 0xf5, 0x24, 0xbc, 0xe9, 0xdb, 0xd0, 0x04, 0xe4, 0xf3, 0xe0,
  0x2f, 0x23, 0xf8, 0x0d, 0xe0, 0x2e, 0x04, 0xd8, 0x48, 0x87, 0x1b, 0x21,
  0x98, 0xfc, 0x5b, 0x9c, 0xe1, 0x2d, 0xbe, 0xf9, 0xef, 0x1a, 0xf8, 0xe9,
  0x4a, 0xe0, 0x8a, 0x86, 0x43, 0x66, 0x07, 0x98, 0x0b, 0x98, 0xcb, 0x8a,
  0x25, 0x5c, 0xfe, 0x7f, 0xf2, 0x50, 0x34, 0x7f, 0x3d, 0xe3, 0x02, 0x03,
  0xdd, 0xb0, 0xf1, 0xda, 0xc5, 0x54, 0x15, 0x15, 0xf3, 0xdb, 0xc8, 0x68,
  0xbc, 0x01, 0x4d, 0x2b, 0x19, 0xd4, 0x81, 0x55, 0x3f, 0x06, 0x1a, 0xde,
  0x9c, 0x85, 0x10, 0x1e, 0x04, 0x94, 0xaf, 0x5a, 0x98, 0xf8, 0xb7, 0x2e,
  0x1e, 0x20, 0xca, 0x81, 0x1b, 0x46, 0x91, 0xeb, 0x88, 0xba, 0xfb, 0xe7,
  0x6c, 0x1b, 0x0b, 0x4c, 0xda, 0x0d, 0xcb, 0x3c, 0x36, 0x2e, 0x48, 0x7f,
  0x69, 0xd0, 0xaf, 0xdf, 0xc6, 0x2c, 0xad, 0x40, 0xfa, 0xe0, 0xec, 0x8f,
  0x73, 0x5e, 0xed, 0x76, 0xe7, 0x4e, 0x63, 0x40, 0x1d, 0xe9, 0xcd, 0xeb,
  0x35, 0x2b, 0x43, 0xbf, 0x10, 0x81, 0xe9, 0xe3, 0xef, 0xeb, 0xdd, 0x00,
  0x12, 0x07, 0xee, 0x13, 0x27, 0xe9, 0x01, 0x1c, 0xe8, 0x04, 0xfd, 0x25,
  0x09, 0xf4, 0xa8, 0x21, 0xe9, 0x06, 0x06, 0xf3, 0xd2, 0x01, 0xf1, 0xe9,
  0xa6, 0xb3, 0x23, 0xf7, 0x2e, 0x9e, 0x16, 0x7a, 0x5b, 0xdf, 0x52, 0x95,
  0xe0, 0xdd, 0x0d, 0xf6, 0xeb, 0xc0, 0x51, 0x51, 0xd7, 0x62, 0x48, 0xdf,
  0x28, 0x16, 0xaa, 0xab, 0xbc, 0x7f, 0x9e, 0x59, 0x46, 0x55, 0x7f, 0xa5,
  0x8e, 0x02, 0x68, 0x2e, 0x20, 0x6b, 0x74, 0x83, 0xc5, 0x61, 0xd6, 0x87,
  0x89, 0x63, 0x24, 0xf0, 0x78, 0xd7, 0x07, 0x58, 0xc7, 0x05, 0xb2, 0xdd,
  0xf9, 0xdb, 0x5d, 0x66, 0xac, 0x81, 0xc7, 0xb6, 0xdd, 0xec, 0xf1, 0x08,
  0xac, 0xa1, 0xbc, 0x4b, 0xfa, 0xf4, 0x9d, 0x10, 0x34, 0x00, 0x23, 0xd3,
  0x19, 0xe1, 0x21, 0x92, 0x8e, 0x4e, 0x60, 0xae, 0x53, 0xe4, 0xec, 0x55,
  0x08, 0x8a, 0xc6, 0x00, 0x36, 0xe8, 0x8a, 0x96, 0x96, 0xca, 0x50, 0xc6,
  0x81, 0xab, 0xc8, 0x82, 0x00, 0x8d, 0x30, 0xe7, 0x70, 0x4d, 0xf7, 0xe8,
  0x47, 0x83, 0x20, 0xca, 0x89, 0x24, 0x09, 0x74, 0xa9, 0x2f, 0x82, 0x19,
  0x05, 0xc4, 0x90, 0x30, 0xad, 0x8c, 0xfc, 0xc9, 0x5a, 0x8c, 0xa8, 0xd9,
  0x75, 0xeb, 0xc2, 0xdf, 0xec, 0x7f, 0x81, 0x57, 0xc9, 0xdf, 0x47, 0xa0,
  0x36, 0x11, 0xc9, 0xb4, 0x11, 0xe1, 0xdd, 0xbf, 0xbd, 0x02, 0xb7, 0xde,
  0x28, 0xdf, 0x1d, 0x27, 0x42, 0xbb, 0xc1, 0xc0, 0x4c, 0x7f, 0xf5, 0x3e,
  0x13, 0xe3, 0xcb, 0x16, 0xd9, 0x19, 0x1f, 0xc4, 0xbc, 0xde, 0x22, 0xe1,
  0x28, 0xda, 0x39, 0x9c, 0x57, 0x23, 0xd8, 0x6c, 0x78, 0x29, 0xdf, 0x79,
  0xce, 0x02, 0xb0, 0xf9, 0x2f, 0xc4, 0xba, 0xdd, 0x32, 0x77, 0x81, 0xcc,
  0xd8, 0x4c, 0x4a, 0x60, 0xfc, 0x56, 0xf7, 0x1b, 0xff, 0xe7, 0xd9, 0xed,
  0x18, 0x61, 0xbf, 0x11, 0x9e, 0x6e, 0x8b, 0xfc, 0xbd, 0xef, 0xb8, 0x4f,
  0x78, 0xa7, 0x47, 0x18, 0x0c, 0xb8, 0xfa, 0x0f, 0x9b, 0xe6, 0x49, 0x11,
  0xa6, 0x05, 0x81, 0x54, 0xde, 0x0f, 0xbb, 0xeb, 0xe4, 0x0a, 0x09, 0x30,
  0x00, 0x42, 0xee, 0xdc, 0x4f, 0xe8, 0x2a, 0xfa, 0x21, 0x2d, 0x11, 0x81,
  0x1e, 0x01, 0xe3, 0xb9, 0xf8, 0xea, 0x1f, 0x1d, 0xc9, 0xda, 0xd1, 0x1d,
  0x93, 0x69, 0x95, 0x40, 0x3a, 0x18, 0x4d, 0xe6, 0x5a, 0x49, 0x2c, 0x3b,
  0x64, 0x05, 0xcf, 0xd4, 0xa1, 0x73, 0x7f, 0x0f, 0x0f, 0x19, 0xb5, 0xba,
  0xc1, 0x57, 0x48, 0xa3, 0xc8, 0xc9, 0xe4, 0x2a, 0xbb, 0x0a, 0x6f, 0x05,
  0x7f, 0xd3, 0x44, 0x66, 0xbd, 0xcc, 0xb6, 0x85, 0xaf, 0xe4, 0xee, 0xad,
  0x57, 0xb4, 0x9c, 0xe3, 0xaa, 0xca, 0x03, 0x1c, 0x76, 0xa3, 0xa7, 0x24,
  0xd1, 0xff, 0x01, 0x42, 0xe6, 0x0e, 0x08, 0x7f, 0x3f, 0xec, 0xfc, 0x03,
  0xb4, 0x03, 0x0c, 0x12, 0xec, 0xf3, 0x1c, 0x12, 0x21, 0x00, 0xf2, 0x60,
  0xef, 0xcb, 0x1f, 0x03, 0xd5, 0xd5, 0x13, 0xe0, 0x19, 0x0e, 0x0b, 0xe0,
  0x03, 0xde, 0xb6, 0xa1, 0xb3, 0xc9, 0x46, 0x3c, 0x18, 0x5a, 0xee, 0x04,
  0x32, 0xc1, 0x12, 0xfc, 0xdf, 0xdc, 0xd3, 0xbe, 0xbc, 0x3c, 0x81, 0x2d,
  0xc5, 0xd3, 0x33, 0x44, 0x15, 0xc7, 0x21, 0x2f, 0xd9, 0x29, 0x0a, 0x67,
  0x11, 0xf2, 0xe5, 0x23, 0x81, 0x04, 0x28, 0x05, 0xf0, 0xef, 0xce, 0x2a,
  0xd1, 0x3b, 0xd1, 0x73, 0xde, 0x09, 0x47, 0xda, 0xfa, 0x02, 0x93, 0x01,
  0x45, 0x3d, 0x03, 0xc3, 0x2e, 0xf6, 0xff, 0xff, 0x04, 0x00, 0x00, 0x00,
  0x00, 0x01, 0x00, 0x00, 0x2b, 0x09, 0x00, 0x00, 0xed, 0x13, 0x00, 0x00,
  0xa0, 0xe0, 0xff, 0xff, 0x6b, 0xfd, 0xff, 0xff, 0x00, 0x00, 0x00, 0x00,
  0x00, 0x00, 0x00, 0x00, 0xab, 0x03, 0x00, 0x00, 0x8f, 0xe4, 0xff, 0xff,
  0x69, 0x09, 0x00, 0x00, 0x64, 0x03, 0x00, 0x00, 0x51, 0x04, 0x00, 0x00,
  0x7e, 0x14, 0x00, 0x00, 0x2f, 0xf9, 0xff, 0xff, 0x36, 0xe2, 0xff, 0xff,
  0x05, 0xeb, 0xff, 0xff, 0x80, 0xe9, 0xff, 0xff, 0x00, 0x00, 0x00, 0x00,
  0x54, 0xd6, 0xff, 0xff, 0x00, 0x00, 0x00, 0x00, 0x51, 0x2f, 0x00, 0x00,
  0x00, 0x00, 0x00, 0x00, 0x73, 0xff, 0xff, 0xff, 0x2e, 0xff, 0xff, 0xff,
  0xe8, 0xe5, 0xff, 0xff, 0x0f, 0x12, 0x00, 0x00, 0xae, 0xfe, 0xff, 0xff,
  0x00, 0x00, 0x00, 0x00, 0x2f, 0x0a, 0x00, 0x00, 0x00, 0x00, 0x00, 0x00,
  0xfc, 0x17, 0x00, 0x00, 0x00, 0x00, 0x00, 0x00, 0x2d, 0xfe, 0xff, 0xff,
  0x87, 0x2c, 0x00, 0x00, 0x0c, 0x19, 0x00, 0x00, 0x89, 0x01, 0x00, 0x00,
  0x4f, 0x0f, 0x00, 0x00, 0xb1, 0xfe, 0xff, 0xff, 0x49, 0xed, 0xff, 0xff,
  0x00, 0x00, 0x00, 0x00, 0x7a, 0x0f, 0x00, 0x00, 0xdf, 0x08, 0x00, 0x00,
  0xa5, 0x18, 0x00, 0x00, 0x91, 0xe5, 0xff, 0xff, 0x0f, 0xf5, 0xff, 0xff,
  0x91, 0x0d, 0x00, 0x00, 0x00, 0x00, 0x00, 0x00, 0xef, 0x0b, 0x00, 0x00,
  0xba, 0xf7, 0xff, 0xff, 0xde, 0xea, 0xff, 0xff, 0xeb, 0xfa, 0xff, 0xff,
  0x00, 0x00, 0x00, 0x00, 0xdb, 0xfc, 0xff, 0xff, 0xa3, 0xe8, 0xff, 0xff,
  0x00, 0x00, 0x00, 0x00, 0x00, 0x00, 0x00, 0x00, 0x34, 0xe3, 0xff, 0xff,
  0x6a, 0xdf, 0xff, 0xff, 0x63, 0xfc, 0xff, 0xff, 0xc8, 0x03, 0x00, 0x00,
  0x46, 0xf4, 0xff, 0xff, 0x00, 0x00, 0x00, 0x00, 0x52, 0x03, 0x00, 0x00,
  0xff, 0x0b, 0x00, 0x00, 0x65, 0x07, 0x00, 0x00, 0x3a, 0xf7, 0xff, 0xff,
  0x04, 0x00, 0x00, 0x00, 0x00, 0x08, 0x00, 0x00, 0x09, 0xf3, 0xc3, 0x2a,
  0x10, 0x32, 0x8f, 0x24, 0x48, 0xe1, 0xc4, 0xe0, 0xde, 0x20, 0xf2, 0x01,
  0xce, 0xb0, 0xf4, 0x1b, 0x19, 0xe9, 0x24, 0xbc, 0x45, 0xc7, 0xcb, 0xc4,
  0x48, 0x33, 0x17, 0xc9, 0x00, 0x28, 0x0e, 0xb7, 0xe9, 0xde, 0xca, 0x83,
  0x81, 0x42, 0xea, 0x25, 0x2c, 0x40, 0xa7, 0x40, 0xb5, 0xf3, 0x44, 0x39,
  0x1d, 0x1d, 0x31, 0xea, 0x20, 0xc6, 0x42, 0x2a, 0xc9, 0x19, 0x24, 0xcf,
  0xf6, 0x14, 0xf0, 0xea, 0xba, 0xb6, 0x18, 0xad, 0xc3, 0xbe, 0x7b, 0x23,
  0x8a, 0xbf, 0x52, 0xf0, 0x9e, 0x0d, 0xa8, 0xba, 0x28, 0x13, 0xc4, 0xe5,
  0xbd, 0xeb, 0xde, 0xb3, 0xb9, 0x4f, 0xe5, 0x6e, 0xb3, 0x66, 0xf4, 0xfb,
  0xa6, 0x09, 0x62, 0x2f, 0xd2, 0xc3, 0x46, 0x43, 0x86, 0x25, 0xea, 0x14,
  0x69, 0xdc, 0x04, 0x77, 0x5f, 0xd6, 0x13, 0x81, 0x97, 0xb1, 0xbf, 0xa7,
  0xde, 0xcf, 0x17, 0xcb, 0x57, 0xfe, 0x45, 0xd9, 0x00, 0xbf, 0xd8, 0x22,
  0x47, 0x42, 0xaf, 0x7b, 0xe7, 0x03, 0x0c, 0x37, 0x3f, 0xaf, 0x2e, 0x71,
  0x22, 0x28, 0xe7, 0x3b, 0x7f, 0x14, 0x36, 0xda, 0xcc, 0xc3, 0xb3, 0x29,
  0xfe, 0x57, 0x0e, 0xac, 0xc0, 0xe4, 0x34, 0x2d, 0xd4, 0x09, 0x08, 0x5b,
  0x06, 0x0d, 0x07, 0xb2, 0x13, 0xa3, 0x04, 0x63, 0xa8, 0xd1, 0xf6, 0x45,
  0xc6, 0xe1, 0x5b, 0x55, 0xce, 0x23, 0xf4, 0xc4, 0xa8, 0xd8, 0x9b, 0x61,
  0x1a, 0xc0, 0xe7, 0x01, 0xba, 0x10, 0xef, 0x95, 0x28, 0x5b, 0xc9, 0x84,
  0xcb, 0x70, 0x56, 0xb6, 0x45, 0x15, 0x7d, 0xf9, 0x66, 0x02, 0xbd, 0x6a,
  0xbb, 0x55, 0x72, 0x1c, 0xe4, 0x9b, 0x06, 0x9c, 0xef, 0x03, 0xeb, 0xb0,
  0x81, 0xe6, 0x0d, 0x36, 0x67, 0xb9, 0x95, 0xb8, 0xac, 0x1c, 0x7b, 0x4b,
  0x30, 0xdb, 0xf4, 0x4b, 0xab, 0xcd, 0x0c, 0x92, 0xda, 0xe7, 0x76, 0x20,
  0xfd, 0x20, 0xf3, 0x3c, 0xd4, 0xec, 0x1d, 0xeb, 0xe2, 0xc7, 0x2f, 0x35,
  0x2b, 0xfe, 0x44, 0xe6, 0xd2, 0xe0, 0xbe, 0x30, 0x47, 0xad, 0xcf, 0x43,
  0x0d, 0x35, 0xf1, 0xd5, 0xf0, 0x37, 0x3d, 0xcb, 0x27, 0xed, 0xb3, 0x39,
  0x11, 0x03, 0xea, 0x04, 0xd4, 0xbc, 0x31, 0x15, 0xe5, 0xcd, 0xac, 0x2b,
  0x32, 0xc5, 0x3d, 0xe9, 0xd7, 0xf0, 0xdb, 0xdf, 0xeb, 0xc3, 0xc2, 0x29,
  0xcc, 0x3c, 0xdc, 0x81, 0xd7, 0xe0, 0xb5, 0xf8, 0xc6, 0x86, 0xd2, 0x01,
  0x3c, 0x27, 0xfe, 0x06, 0x99, 0x95, 0xc2, 0x93, 0x7d, 0x9e, 0x5c, 0x8c,
  0x68, 0xf9, 0x84, 0x83, 0x96, 0x30, 0xf0, 0x8b, 0xf7, 0x3a, 0x2b, 0xe2,
  0x1d, 0x84, 0xf1, 0x9f, 0xb8, 0x09, 0x18, 0x72, 0xaa, 0x52, 0x90, 0xb7,
  0x4e, 0x81, 0xa2, 0xf1, 0xcb, 0xbd, 0xd6, 0xf7, 0x78, 0x4a, 0x6e, 0x69,
  0x8d, 0x29, 0xd3, 0xbd, 0x44, 0x9e, 0x97, 0xfc, 0x36, 0x85, 0x92, 0x79,
  0x2b, 0xbc, 0x75, 0x88, 0x43, 0x34, 0x81, 0xd2, 0x13, 0xad, 0x0e, 0xfa,
  0x31, 0x7d, 0xcd, 0x9c, 0xca, 0xd9, 0xf1, 0x0d, 0xc0, 0xc7, 0x8c, 0xf8,
  0x96, 0xd4, 0x88, 0xad, 0xb0, 0x56, 0x97, 0xf1, 0x7f, 0xaa, 0x52, 0x67,
  0x5e, 0xf7, 0xa5, 0x7e, 0x18, 0xf9, 0xa3, 0xe7, 0xba, 0x90, 0x6b, 0xd2,
  0x7e, 0xf0, 0x0f, 0xcc, 0x30, 0x0d, 0x49, 0xa2, 0xa3, 0xd1, 0xd5, 0x1e,
  0x08, 0xfb, 0xe5, 0xf3, 0xf7, 0x0e, 0xcc, 0xad, 0x39, 0x03, 0xde, 0x4d,
  0x24, 0xa2, 0xe4, 0xd1, 0xec, 0x97, 0x1a, 0x21, 0xd9, 0x1a, 0xf5, 0xc4,
  0x39, 0xfa, 0x06, 0xdb, 0xd8, 0x29, 0xcd, 0xe2, 0x1f, 0x77, 0xe5, 0x0a,
  0x05, 0x81, 0x1d, 0x13, 0xd7, 0x43, 0x9c, 0xd0, 0x5f, 0xeb, 0xd0, 0x14,
  0x00, 0xee, 0x2e, 0x12, 0xe1, 0x05, 0x1b, 0xbd, 0xbb, 0x1e, 0xfd, 0xcb,
  0xda, 0xe4, 0x23, 0xc7, 0x1f, 0x0e, 0x2c, 0xfa, 0x99, 0x0c, 0x46, 0x91,
  0xe6, 0x37, 0x99, 0x5f, 0xde, 0xf7, 0x2a, 0xbc, 0x81, 0x84, 0x33, 0x78,
  0xb1, 0x17, 0x29, 0x7c, 0xc5, 0xc9, 0xbc, 0xa1, 0x10, 0x1c, 0x5a, 0x76,
  0xb1, 0xc1, 0x31, 0xc8, 0x22, 0x5d, 0xfc, 0x70, 0xb2, 0xad, 0x03, 0xf3,
  0x99, 0x86, 0xff, 0x6d, 0x64, 0x53, 0x41, 0x09, 0xb7, 0x11, 0xe5, 0xa9,
  0xa9, 0x0a, 0x52, 0x42, 0xf7, 0x77, 0xa7, 0xc3, 0xc2, 0x34, 0x2d, 0x50,
  0xc3, 0x17, 0x39, 0xc3, 0x52, 0x04, 0x51, 0x55, 0x90, 0xdb, 0xab, 0x21,
  0xc3, 0xb7, 0x1b, 0x04, 0xd8, 0xec, 0x54, 0x17, 0x13, 0xf3, 0x2f, 0xb6,
  0xc6, 0x19, 0x36, 0x1a, 0x00, 0x3a, 0x9f, 0xd8, 0xcf, 0xf7, 0xf1, 0xcb,
  0x81, 0x0d, 0xcd, 0x3d, 0x23, 0x37, 0xff, 0xab, 0xb7, 0x0a, 0x18, 0x33,
  0x1a, 0x26, 0x12, 0x00, 0x3d, 0xd5, 0x1b, 0xcb, 0x30, 0x25, 0x34, 0x18,
  0x43, 0x56, 0x4d, 0x30, 0x0e, 0x53, 0x20, 0x2c, 0x4a, 0xef, 0xf5, 0x1f,
  0x14, 0x4b, 0x46, 0x36, 0x44, 0xdb, 0x2f, 0x47, 0x5a, 0xf3, 0x3d, 0x57,
  0xf8, 0xa9, 0x55, 0xc4, 0x23, 0xcd, 0x3d, 0x57, 0x6d, 0xff, 0x55, 0xfb,
  0xbc, 0xbf, 0xa7, 0x81, 0xfb, 0xef, 0x4d, 0x22, 0xd6, 0xd8, 0x34, 0x4c,
  0xf6, 0xeb, 0xda, 0xd4, 0xb8, 0xe6, 0x47, 0x27, 0xe1, 0x35, 0x10, 0x0e,
  0xdb, 0xd7, 0xd8, 0x22, 0x25, 0xc6, 0x5d, 0xd2, 0x59, 0x1e, 0x24, 0x5f,
  0xe3, 0x6e, 0x4c, 0x2d, 0x53, 0x49, 0x42, 0x63, 0x30, 0xc2, 0x1c, 0x31,
  0xa6, 0xd4, 0x3e, 0xcc, 0xd2, 0xed, 0xc2, 0x08, 0x1e, 0xb6, 0xbf, 0x11,
  0xfc, 0x2b, 0x4f, 0x20, 0xfb, 0x1b, 0xbf, 0xa1, 0x67, 0x61, 0xba, 0x07,
  0xcb, 0xb0, 0xc7, 0xfd, 0x61, 0x67, 0xc8, 0xf2, 0x15, 0xea, 0x43, 0xa4,
  0x55, 0x9f, 0x5f, 0x2d, 0xba, 0x7f, 0xf1, 0x38, 0x2b, 0x0f, 0xc5, 0x60,
  0x1a, 0x93, 0xf4, 0xe7, 0xbd, 0x26, 0x46, 0x81, 0x13, 0x18, 0x1a, 0xf4,
  0x92, 0x94, 0xba, 0x36, 0x71, 0xa0, 0x3f, 0xe8, 0xc4, 0x0f, 0xc8, 0x05,
  0x30, 0x06, 0x90, 0x8f, 0xf4, 0xd4, 0x89, 0x23, 0x9c, 0xb7, 0xb5, 0x43,
  0x30, 0xeb, 0x6e, 0xd6, 0x1e, 0xe2, 0x2c, 0xa1, 0x05, 0x2b, 0x11, 0x52,
  0xb8, 0x58, 0x18, 0xdd, 0xd5, 0x98, 0xac, 0xec, 0xdf, 0xb9, 0xd6, 0xf0,
  0x23, 0x0b, 0x0b, 0x17, 0xe0, 0xdb, 0xcb, 0x0d, 0xe7, 0x12, 0x0c, 0x0b,
  0x13, 0xee, 0xf9, 0x28, 0xec, 0xf5, 0x0e, 0xed, 0x15, 0x1d, 0xf3, 0x16,
  0xf1, 0xe9, 0x19, 0xe7, 0x24, 0x30, 0xdd, 0xef, 0x0a, 0x0a, 0x06, 0x29,
  0x1b, 0x0c, 0xf8, 0x81, 0xf3, 0x1c, 0x10, 0x1d, 0xe9, 0x0a, 0xba, 0x18,
  0xdf, 0x10, 0xea, 0xfa, 0xe4, 0xde, 0xec, 0x16, 0x10, 0xdf, 0x2d, 0x28,
  0xe3, 0xee, 0xe7, 0xe8, 0xdd, 0xf2, 0xa1, 0xd8, 0x41, 0xcd, 0x44, 0xc1,
  0xfd, 0xf4, 0xb9, 0x10, 0x05, 0x1f, 0x20, 0x38, 0x1e, 0xad, 0x49, 0x66,
  0xaa, 0x7b, 0x25, 0x41, 0xd0, 0x5f, 0x4c, 0x7f, 0x2b, 0x00, 0x3d, 0x02,
  0x3b, 0x4b, 0x44, 0xe0, 0x17, 0xf8, 0xad, 0x84, 0x53, 0xfd, 0x05, 0x26,
  0x3b, 0xd6, 0x4b, 0x41, 0x07, 0x3e, 0x57, 0xc1, 0x34, 0x3c, 0xef, 0x1b,
  0x33, 0xc1, 0x30, 0x72, 0x57, 0x4a, 0x40, 0x05, 0xc7, 0x4b, 0x4a, 0x07,
  0x3c, 0xbc, 0xc7, 0x27, 0x19, 0x5f, 0x05, 0xfe, 0x25, 0x22, 0x10, 0xad,
  0x1b, 0x01, 0xbc, 0xd2, 0x3c, 0x2b, 0x90, 0x6b, 0x01, 0x27, 0x07, 0xfb,
  0xff, 0x9b, 0x7f, 0x0e, 0xf4, 0x1f, 0x2d, 0x96, 0x66, 0xa1, 0x66, 0x47,
  0xb0, 0x81, 0x64, 0x04, 0xac, 0x90, 0xee, 0x4f, 0x96, 0xdf, 0xaf, 0x02,
  0x64, 0xb3, 0xc4, 0x4d, 0x3f, 0xc7, 0xbd, 0x8c, 0x89, 0x02, 0xbe, 0x83,
  0x02, 0x50, 0xbc, 0xa2, 0x47, 0xaa, 0x07, 0x4a, 0xf1, 0x94, 0xca, 0xbf,
  0x01, 0xd6, 0x48, 0xf2, 0x0b, 0x29, 0xf1, 0xad, 0xdc, 0xe3, 0xee, 0xe7,
  0x49, 0x01, 0x44, 0xfa, 0x1a, 0x24, 0x25, 0x1f, 0xf0, 0x0b, 0x81, 0x0b,
  0x4e, 0xbd, 0xc1, 0x4f, 0xf7, 0x42, 0x28, 0xa9, 0xd5, 0x3e, 0x08, 0x15,
  0x60, 0x14, 0xcc, 0x20, 0x26, 0x53, 0x1f, 0x19, 0x1f, 0xed, 0xc0, 0xfc,
  0xee, 0x2d, 0x41, 0xc4, 0xf6, 0x90, 0x64, 0xb5, 0x75, 0xea, 0xb3, 0xe8,
  0xe7, 0x8d, 0xa5, 0x93, 0x28, 0x93, 0x56, 0x86, 0xe2, 0x4d, 0x74, 0x01,
  0x6b, 0xdc, 0x37, 0x52, 0xf1, 0xdb, 0xc7, 0x06, 0x5a, 0xac, 0x86, 0x4e,
  0xc5, 0x57, 0x32, 0xed, 0x0f, 0x83, 0x46, 0xe2, 0x6b, 0xb8, 0x04, 0xdb,
  0xb4, 0x14, 0x5f, 0x23, 0xff, 0xc0, 0x5e, 0x7f, 0x3e, 0x6c, 0x64, 0x5c,
  0xb7, 0xa5, 0x88, 0xda, 0xcb, 0x72, 0x94, 0x3f, 0xe0, 0x6a, 0x86, 0x97,
  0x27, 0x9b, 0x8f, 0x31, 0x65, 0x87, 0xbb, 0xe3, 0x77, 0x26, 0x8a, 0x87,
  0xe0, 0x27, 0x39, 0xf1, 0x74, 0xb5, 0x54, 0x2d, 0x86, 0xad, 0xbe, 0x7d,
  0x64, 0xbf, 0x84, 0x95, 0x9c, 0xea, 0x76, 0xbb, 0x7f, 0xc0, 0xfc, 0x95,
  0xc8, 0xa1, 0x64, 0x83, 0xbc, 0x24, 0xe1, 0x7b, 0x36, 0x0c, 0x43, 0x6f,
  0x5f, 0x8b, 0xd6, 0x5e, 0x86, 0xd1, 0x8c, 0x9c, 0x66, 0x88, 0xdb, 0x50,
  0x07, 0x16, 0xf5, 0xe4, 0x2d, 0xdb, 0x81, 0xdc, 0xe3, 0xf6, 0x33, 0xf5,
  0x08, 0x05, 0x2a, 0x15, 0xf0, 0xe0, 0xdc, 0x07, 0x28, 0x12, 0xff, 0x24,
  0x08, 0x25, 0x34, 0x94, 0x19, 0xef, 0x25, 0xdf, 0x41, 0xfb, 0x15, 0x2e,
  0x1e, 0xf4, 0x03, 0xb7, 0x8a, 0x2b, 0x32, 0x15, 0x04, 0xdc, 0xb2, 0x0f,
  0xda, 0x21, 0x18, 0x00, 0x21, 0xf1, 0xd7, 0xc6, 0x00, 0xd6, 0x24, 0x14,
  0xd2, 0x2e, 0xe9, 0x8f, 0x28, 0x4a, 0xd7, 0x3a, 0x4e, 0xa9, 0x37, 0xcb,
  0x3a, 0xb1, 0xc2, 0x4a, 0xb3, 0x41, 0xbc, 0xce, 0xd9, 0x05, 0x4d, 0x01,
  0x47, 0x14, 0x3c, 0xbe, 0x13, 0x59, 0x05, 0xc2, 0xad, 0x06, 0x62, 0xe9,
  0x0b, 0xd5, 0x81, 0xf7, 0xe7, 0x3f, 0x5d, 0xb6, 0xbc, 0x23, 0xa1, 0xd0,
  0x1d, 0x0f, 0xdc, 0xb8, 0x61, 0x43, 0xb2, 0x5a, 0xc2, 0xe6, 0x17, 0x2f,
  0x33, 0x0d, 0x53, 0x16, 0x18, 0x9e, 0xb2, 0xbb, 0xb4, 0x03, 0x22, 0x0d,
  0xdc, 0x1b, 0x07, 0xbf, 0xb5, 0x14, 0x23, 0x3a, 0xdd, 0xc6, 0x81, 0xe0,
  0xbe, 0x31, 0xe8, 0x0d, 0x1a, 0xe6, 0x00, 0xcf, 0x42, 0x37, 0x1b, 0x4b,
  0x1a, 0xbf, 0xe0, 0xd6, 0x1f, 0x25, 0x5a, 0x32, 0x44, 0xb7, 0xe3, 0x17,
  0x00, 0xb0, 0xd6, 0xba, 0x24, 0xef, 0x2c, 0xe4, 0x5a, 0x8c, 0x1b, 0x2c,
  0xd1, 0xcc, 0xf7, 0xbf, 0x9e, 0x40, 0x96, 0x85, 0xef, 0x6f, 0x25, 0x0e,
  0x8a, 0xe7, 0xdc, 0xa8, 0xb4, 0xd6, 0x93, 0x2c, 0x10, 0xd7, 0x3b, 0x55,
  0xae, 0x20, 0x25, 0x1c, 0x91, 0x89, 0xa8, 0x4a, 0x1b, 0xe0, 0x1d, 0x2a,
  0x99, 0x7c, 0x68, 0xc7, 0x17, 0x83, 0xd1, 0x05, 0xdb, 0xf5, 0x3e, 0xb3,
  0x12, 0x62, 0x14, 0xff, 0xd3, 0x02, 0xf7, 0xb2, 0x77, 0x7f, 0x4f, 0xc6,
  0xab, 0x25, 0x7b, 0x53, 0xf7, 0x4c, 0xea, 0xfd, 0xdf, 0xd2, 0xc5, 0xf5,
  0xf2, 0x0f, 0x8b, 0xe6, 0xc9, 0xd4, 0x24, 0xdf, 0x35, 0x22, 0x2f, 0x3f,
  0xf6, 0xcd, 0x2d, 0xa1, 0xd3, 0x0c, 0x2d, 0x41, 0x0d, 0x53, 0x1b, 0x96,
  0x18, 0xf8, 0x25, 0x3e, 0xb0, 0x0c, 0x35, 0xd5, 0xd7, 0xc5, 0x02, 0x1d,
  0x8f, 0x81, 0x06, 0xbd, 0xf4, 0x3f, 0xce, 0xd1, 0xcb, 0x00, 0x5f, 0x35,
  0xa8, 0x20, 0xde, 0xfe, 0x3a, 0x0a, 0xe2, 0x0a, 0x31, 0xf4, 0xf7, 0x6c,
  0x1e, 0xee, 0xe7, 0x0e, 0xf0, 0x25, 0x03, 0xfa, 0xff, 0x9f, 0x52, 0x62,
  0xfd, 0x50, 0x2a, 0x1f, 0xdb, 0x2f, 0xf7, 0xc8, 0x9a, 0x38, 0xbd, 0xa1,
  0xcc, 0x67, 0x62, 0xdb, 0xb0, 0x27, 0xc3, 0x29, 0x43, 0x4d, 0x4b, 0xa2,
  0x63, 0x4e, 0x3d, 0x46, 0xf7, 0x4e, 0x1e, 0x3b, 0x30, 0x00, 0xcc, 0x1a,
  0x1c, 0x41, 0x57, 0x96, 0xfb, 0xe1, 0xb6, 0xa2, 0x3d, 0xa0, 0x9f, 0x45,
  0x16, 0x9c, 0xda, 0xed, 0x55, 0x5c, 0x4f, 0xff, 0x14, 0xf0, 0x39, 0x81,
  0xed, 0x65, 0xb5, 0x9e, 0x67, 0x54, 0x92, 0x34, 0x2b, 0x95, 0xd5, 0x08,
  0x0d, 0x86, 0x0f, 0x96, 0x19, 0xc5, 0xb5, 0x0c, 0xcb, 0x27, 0x90, 0x3f,
  0x81, 0x9a, 0xb7, 0x50, 0x17, 0xe5, 0xfd, 0x58, 0xb5, 0xde, 0x91, 0xab,
  0xbb, 0x9b, 0x89, 0xd4, 0xb6, 0xff, 0x41, 0x23, 0x1a, 0xff, 0x35, 0xfe,
  0xbb, 0xcf, 0x44, 0x81, 0x27, 0x64, 0x5f, 0xaa, 0x95, 0x52, 0xec, 0x0e,
  0x89, 0x72, 0x82, 0x63, 0x12, 0x97, 0x1d, 0xef, 0xba, 0x45, 0xfa, 0x31,
  0xaa, 0x1d, 0x56, 0xc4, 0x09, 0xbe, 0x89, 0xcd, 0xa9, 0x32, 0x7f, 0xd8,
  0x0d, 0x14, 0x9a, 0xe3, 0xf2, 0x53, 0x7e, 0xb1, 0xba, 0x05, 0xca, 0xb8,
  0xe0, 0xe5, 0x38, 0x24, 0xf3, 0x38, 0xf4, 0x13, 0x20, 0x90, 0xc4, 0x7b,
  0x60, 0x17, 0x23, 0xca, 0x9c, 0x4a, 0xe5, 0x3e, 0xea, 0x0a, 0x92, 0xe9,
  0xb5, 0x61, 0x7a, 0xfd, 0xf4, 0xdc, 0x2a, 0xee, 0xba, 0x1c, 0x6d, 0x18,
  0x3b, 0x19, 0x61, 0x70, 0xb1, 0x17, 0xb5, 0x99, 0x4c, 0x6b, 0x93, 0x24,
  0x84, 0x88, 0x78, 0x4f, 0x8d, 0x2e, 0x95, 0x29, 0x86, 0x5d, 0x4f, 0x34,
  0xdf, 0x0e, 0x5e, 0x7f, 0xb0, 0xe0, 0x19, 0xc3, 0x06, 0x61, 0xd3, 0xb0,
  0xec, 0xdb, 0x82, 0x79, 0xc9, 0x20, 0xd7, 0x12, 0x13, 0xaf, 0x9a, 0x02,
  0xbf, 0xb2, 0xc9, 0x97, 0x25, 0x81, 0xf7, 0xaa, 0x3e, 0xbe, 0xf3, 0xad,
  0x48, 0x54, 0xb3, 0xdf, 0xe7, 0x17, 0xbc, 0xa7, 0x49, 0x8a, 0x22, 0x71,
  0xcf, 0xea, 0xb6, 0xb7, 0x11, 0x9d, 0x34, 0x0c, 0x0a, 0xf0, 0x36, 0xb0,
  0x2e, 0xee, 0x20, 0xac, 0xbe, 0x01, 0x0a, 0xea, 0x09, 0x26, 0x81, 0x54,
  0xfa, 0xda, 0xbe, 0xcc, 0xa6, 0x58, 0xf6, 0xc8, 0x36, 0xc5, 0xc5, 0xf1,
  0xb2, 0x03, 0xfc, 0x28, 0x07, 0x14, 0x50, 0xa4, 0xdd, 0xb8, 0x2a, 0xc3,
  0xfa, 0x87, 0x50, 0xc8, 0xbf, 0xf1, 0xa1, 0x03, 0xc6, 0x04, 0x2a, 0xdc,
  0x04, 0x28, 0xda, 0x18, 0x05, 0x22, 0xa4, 0xa6, 0xd2, 0x27, 0xec, 0x1a,
  0x38, 0x0f, 0xe9, 0xbe, 0xf3, 0x2f, 0xcb, 0x16, 0x2b, 0xf7, 0x23, 0xf4,
  0x09, 0xdd, 0x4f, 0x13, 0x3b, 0xd5, 0xf8, 0x28, 0x41, 0x25, 0x2e, 0xbe,
  0xfe, 0x1e, 0x29, 0xd8, 0x44, 0xf7, 0x00, 0x14, 0xc3, 0xe8, 0x1b, 0xe2,
  0xcb, 0xe2, 0x0f, 0x81, 0xe3, 0x65, 0xd6, 0x14, 0x52, 0x42, 0xca, 0x4a,
  0xd3, 0x22, 0xf8, 0x1c, 0xd4, 0xc9, 0xac, 0xd1, 0x1a, 0xd1, 0xc9, 0xb2,
  0xd0, 0x21, 0x57, 0xdf, 0xb4, 0xbd, 0xb0, 0xde, 0x57, 0xb4, 0x2a, 0x05,
  0xf9, 0x63, 0x43, 0x0a, 0xe7, 0xf1, 0x81, 0xd8, 0xae, 0x48, 0xca, 0xf7,
  0xfe, 0xf5, 0xbe, 0x48, 0x3f, 0xb0, 0x0e, 0xcb, 0x4b, 0x5a, 0x0f, 0xc3,
  0x0a, 0xe1, 0xbc, 0xb6, 0x0f, 0x21, 0x18, 0x48, 0xbc, 0x97, 0x61, 0xe9,
  0x19, 0x20, 0xdc, 0x2c, 0x45, 0x16, 0xd8, 0x5d, 0x1f, 0xc7, 0xc1, 0xb0,
  0xa8, 0xe0, 0xeb, 0x4e, 0x1e, 0x7f, 0x01, 0x9b, 0xe4, 0x0c, 0xcf, 0xd6,
  0x31, 0x10, 0xc4, 0xdc, 0xf9, 0x30, 0x12, 0x45, 0xbb, 0x47, 0xfd, 0x67,
  0x23, 0xda, 0x1a, 0xfb, 0xde, 0x9c, 0x00, 0x42, 0x29, 0xa5, 0x9f, 0x50,
  0x06, 0x3b, 0x24, 0xb8, 0x61, 0x2f, 0xfe, 0x49, 0xb7, 0xfc, 0xe1, 0x51,
  0xc5, 0xea, 0xe8, 0x17, 0x46, 0xff, 0xff, 0xff, 0x04, 0x00, 0x00, 0x00,
  0x80, 0x00, 0x00, 0x00, 0xc4, 0xfb, 0xff, 0xff, 0x46, 0xfd, 0xff, 0xff,
  0x1b, 0x02, 0x00, 0x00, 0x00, 0x00, 0x00, 0x00, 0x87, 0x06, 0x00, 0x00,
  0x00, 0x00, 0x00, 0x00, 0x00, 0x00, 0x00, 0x00, 0x4a, 0x29, 0x00, 0x00,
  0x00, 0x00, 0x00, 0x00, 0x63, 0x06, 0x00, 0x00, 0x74, 0xff, 0xff, 0xff,
  0x8f, 0x07, 0x00, 0x00, 0x9d, 0xf1, 0xff, 0xff, 0x6e, 0x00, 0x00, 0x00,
  0x09, 0xfe, 0xff, 0xff, 0x00, 0x00, 0x00, 0x00, 0x76, 0x06, 0x00, 0x00,
  0xf7, 0xf9, 0xff, 0xff, 0x00, 0x00, 0x00, 0x00, 0xd8, 0xfe, 0xff, 0xff,
  0x35, 0x07, 0x00, 0x00, 0x86, 0x0d, 0x00, 0x00, 0x00, 0x00, 0x00, 0x00,
  0x1c, 0xb6, 0xff, 0xff, 0xea, 0x06, 0x00, 0x00, 0x00, 0x00, 0x00, 0x00,
  0x00, 0x00, 0x00, 0x00, 0x00, 0x00, 0x00, 0x00, 0x76, 0x1f, 0x00, 0x00,
  0xac, 0x05, 0x00, 0x00, 0xe2, 0xfa, 0xff, 0xff, 0xe7, 0x05, 0x00, 0x00,
  0xd2, 0xff, 0xff, 0xff, 0x04, 0x00, 0x00, 0x00, 0x20, 0x00, 0x00, 0x00,
  0xd8, 0xf4, 0xd5, 0x16, 0x1e, 0xc5, 0xd7, 0x6c, 0xc0, 0x0e, 0xdb, 0xf5,
  0x24, 0xc0, 0xf1, 0x3a, 0x04, 0x00, 0xfc, 0xdf, 0x22, 0xae, 0xda, 0x7f,
  0x10, 0x2a, 0x2f, 0xe9, 0x47, 0xbc, 0xc8, 0x43, 0x00, 0x00, 0x06, 0x00,
  0x08, 0x00, 0x04, 0x00, 0x06, 0x00, 0x00, 0x00, 0x04, 0x00, 0x00, 0x00,
  0x04, 0x00, 0x00, 0x00, 0x7c, 0x01, 0x00, 0x00, 0x7c, 0xff, 0xff, 0xff,
  0x80, 0xff, 0xff, 0xff, 0x0f, 0x00, 0x00, 0x00, 0x4d, 0x4c, 0x49, 0x52,
  0x20, 0x43, 0x6f, 0x6e, 0x76, 0x65, 0x72, 0x74, 0x65, 0x64, 0x2e, 0x00,
  0x01, 0x00, 0x00, 0x00, 0x14, 0x00, 0x00, 0x00, 0x00, 0x00, 0x0e, 0x00,
  0x18, 0x00, 0x14, 0x00, 0x10, 0x00, 0x0c, 0x00, 0x08, 0x00, 0x04, 0x00,
  0x0e, 0x00, 0x00, 0x00, 0x14, 0x00, 0x00, 0x00, 0x1c, 0x00, 0x00, 0x00,
  0x4c, 0x01, 0x00, 0x00, 0x50, 0x01, 0x00, 0x00, 0x54, 0x01, 0x00, 0x00,
  0x04, 0x00, 0x00, 0x00, 0x6d, 0x61, 0x69, 0x6e, 0x00, 0x00, 0x00, 0x00,
  0x05, 0x00, 0x00, 0x00, 0xf4, 0x00, 0x00, 0x00, 0xac, 0x00, 0x00, 0x00,
  0x74, 0x00, 0x00, 0x00, 0x3c, 0x00, 0x00, 0x00, 0x04, 0x00, 0x00, 0x00,
  0x2e, 0xff, 0xff, 0xff, 0x14, 0x00, 0x00, 0x00, 0x00, 0x00, 0x00, 0x08,
  0x10, 0x00, 0x00, 0x00, 0x14, 0x00, 0x00, 0x00, 0x04, 0x00, 0x04, 0x00,
  0x04, 0x00, 0x00, 0x00, 0x01, 0x00, 0x00, 0x00, 0x0f, 0x00, 0x00, 0x00,
  0x03, 0x00, 0x00, 0x00, 0x0e, 0x00, 0x00, 0x00, 0x02, 0x00, 0x00, 0x00,
  0x01, 0x00, 0x00, 0x00, 0x62, 0xff, 0xff, 0xff, 0x10, 0x00, 0x00, 0x00,
  0x00, 0x00, 0x00, 0x08, 0x10, 0x00, 0x00, 0x00, 0x14, 0x00, 0x00, 0x00,
  0x52, 0xff, 0xff, 0xff, 0x00, 0x00, 0x00, 0x01, 0x01, 0x00, 0x00, 0x00,
  0x0e, 0x00, 0x00, 0x00, 0x03, 0x00, 0x00, 0x00, 0x0d, 0x00, 0x00, 0x00,
  0x04, 0x00, 0x00, 0x00, 0x03, 0x00, 0x00, 0x00, 0x96, 0xff, 0xff, 0xff,
  0x10, 0x00, 0x00, 0x00, 0x00, 0x00, 0x00, 0x08, 0x10, 0x00, 0x00, 0x00,
  0x14, 0x00, 0x00, 0x00, 0x86, 0xff, 0xff, 0xff, 0x00, 0x00, 0x00, 0x01,
  0x01, 0x00, 0x00, 0x00, 0x0d, 0x00, 0x00, 0x00, 0x03, 0x00, 0x00, 0x00,
  0x0c, 0x00, 0x00, 0x00, 0x06, 0x00, 0x00, 0x00, 0x05, 0x00, 0x00, 0x00,
  0xca, 0xff, 0xff, 0xff, 0x10, 0x00, 0x00, 0x00, 0x00, 0x00, 0x00, 0x08,
  0x10, 0x00, 0x00, 0x00, 0x14, 0x00, 0x00, 0x00, 0xba, 0xff, 0xff, 0xff,
  0x00, 0x00, 0x00, 0x01, 0x01, 0x00, 0x00, 0x00, 0x0c, 0x00, 0x00, 0x00,
  0x03, 0x00, 0x00, 0x00, 0x0b, 0x00, 0x00, 0x00, 0x08, 0x00, 0x00, 0x00,
  0x07, 0x00, 0x00, 0x00, 0x00, 0x00, 0x0e, 0x00, 0x16, 0x00, 0x00, 0x00,
  0x10, 0x00, 0x0c, 0x00, 0x0b, 0x00, 0x04, 0x00, 0x0e, 0x00, 0x00, 0x00,
  0x18, 0x00, 0x00, 0x00, 0x00, 0x00, 0x00, 0x08, 0x18, 0x00, 0x00, 0x00,
  0x1c, 0x00, 0x00, 0x00, 0x00, 0x00, 0x06, 0x00, 0x08, 0x00, 0x07, 0x00,
  0x06, 0x00, 0x00, 0x00, 0x00, 0x00, 0x00, 0x01, 0x01, 0x00, 0x00, 0x00,
  0x0b, 0x00, 0x00, 0x00, 0x03, 0x00, 0x00, 0x00, 0x00, 0x00, 0x00, 0x00,
  0x0a, 0x00, 0x00, 0x00, 0x09, 0x00, 0x00, 0x00, 0x01, 0x00, 0x00, 0x00,
  0x0f, 0x00, 0x00, 0x00, 0x01, 0x00, 0x00, 0x00, 0x00, 0x00, 0x00, 0x00,
  0x10, 0x00, 0x00, 0x00, 0xdc, 0x13, 0x00, 0x00, 0x64, 0x13, 0x00, 0x00,
  0xe8, 0x12, 0x00, 0x00, 0x14, 0x11, 0x00, 0x00, 0x38, 0x0f, 0x00, 0x00,
  0xe4, 0x0b, 0x00, 0x00, 0x88, 0x08, 0x00, 0x00, 0xb4, 0x06, 0x00, 0x00,
  0xd8, 0x04, 0x00, 0x00, 0x24, 0x04, 0x00, 0x00, 0x68, 0x03, 0x00, 0x00,
  0xb4, 0x02, 0x00, 0x00, 0xf8, 0x01, 0x00, 0x00, 0x3c, 0x01, 0x00, 0x00,
  0x80, 0x00, 0x00, 0x00, 0x04, 0x00, 0x00, 0x00, 0x7a, 0xec, 0xff, 0xff,
  0x00, 0x00, 0x00, 0x01, 0x18, 0x00, 0x00, 0x00, 0x20, 0x00, 0x00, 0x00,
  0x3c, 0x00, 0x00, 0x00, 0x10, 0x00, 0x00, 0x00, 0x00, 0x00, 0x00, 0x09,
  0x50, 0x00, 0x00, 0x00, 0x02, 0x00, 0x00, 0x00, 0xff, 0xff, 0xff, 0xff,
  0x01, 0x00, 0x00, 0x00, 0x64, 0xec, 0xff, 0xff, 0x08, 0x00, 0x00, 0x00,
  0x10, 0x00, 0x00, 0x00, 0x01, 0x00, 0x00, 0x00, 0xfd, 0xff, 0xff, 0xff,
  0xff, 0xff, 0xff, 0xff, 0x01, 0x00, 0x00, 0x00, 0x84, 0x3e, 0xfb, 0x3b,
  0x1b, 0x00, 0x00, 0x00, 0x53, 0x74, 0x61, 0x74, 0x65, 0x66, 0x75, 0x6c,
  0x50, 0x61, 0x72, 0x74, 0x69, 0x74, 0x69, 0x6f, 0x6e, 0x65, 0x64, 0x43,
  0x61, 0x6c, 0x6c, 0x5f, 0x31, 0x3a, 0x30, 0x00, 0x02, 0x00, 0x00, 0x00,
  0x01, 0x00, 0x00, 0x00, 0x01, 0x00, 0x00, 0x00, 0xf2, 0xec, 0xff, 0xff,
  0x00, 0x00, 0x00, 0x01, 0x18, 0x00, 0x00, 0x00, 0x20, 0x00, 0x00, 0x00,
  0x3c, 0x00, 0x00, 0x00, 0x0f, 0x00, 0x00, 0x00, 0x00, 0x00, 0x00, 0x09,
  0x90, 0x00, 0x00, 0x00, 0x02, 0x00, 0x00, 0x00, 0xff, 0xff, 0xff, 0xff,
  0x20, 0x00, 0x00, 0x00, 0xdc, 0xec, 0xff, 0xff, 0x08, 0x00, 0x00, 0x00,
  0x10, 0x00, 0x00, 0x00, 0x01, 0x00, 0x00, 0x00, 0x80, 0xff, 0xff, 0xff,
  0xff, 0xff, 0xff, 0xff, 0x01, 0x00, 0x00, 0x00, 0xae, 0x25, 0xd5, 0x3b,
  0x58, 0x00, 0x00, 0x00, 0x73, 0x65, 0x71, 0x75, 0x65, 0x6e, 0x74, 0x69,
  0x61, 0x6c, 0x5f, 0x31, 0x2f, 0x64, 0x65, 0x6e, 0x73, 0x65, 0x5f, 0x33,
  0x5f, 0x31, 0x2f, 0x4d, 0x61, 0x74, 0x4d, 0x75, 0x6c, 0x3b, 0x73, 0x65,
  0x71, 0x75, 0x65, 0x6e, 0x74, 0x69, 0x61, 0x6c, 0x5f, 0x31, 0x2f, 0x64,
  0x65, 0x6e, 0x73, 0x65, 0x5f, 0x33, 0x5f, 0x31, 0x2f, 0x52, 0x65, 0x6c,
  0x75, 0x3b, 0x73, 0x65, 0x71, 0x75, 0x65, 0x6e, 0x74, 0x69, 0x61, 0x6c,
  0x5f, 0x31, 0x2f, 0x64, 0x65, 0x6e, 0x73, 0x65, 0x5f, 0x33, 0x5f, 0x31,
  0x2f, 0x42, 0x69, 0x61, 0x73, 0x41, 0x64, 0x64, 0x00, 0x00, 0x00, 0x00,
  0x02, 0x00, 0x00, 0x00, 0x01, 0x00, 0x00, 0x00, 0x20, 0x00, 0x00, 0x00,
  0xaa, 0xed, 0xff, 0xff, 0x00, 0x00, 0x00, 0x01, 0x18, 0x00, 0x00, 0x00,
  0x20, 0x00, 0x00, 0x00, 0x3c, 0x00, 0x00, 0x00, 0x0e, 0x00, 0x00, 0x00,
  0x00, 0x00, 0x00, 0x09, 0x90, 0x00, 0x00, 0x00, 0x02, 0x00, 0x00, 0x00,
  0xff, 0xff, 0xff, 0xff, 0x40, 0x00, 0x00, 0x00, 0x94, 0xed, 0xff, 0xff,
  0x08, 0x00, 0x00, 0x00, 0x10, 0x00, 0x00, 0x00, 0x01, 0x00, 0x00, 0x00,
  0x80, 0xff, 0xff, 0xff, 0xff, 0xff, 0xff, 0xff, 0x01, 0x00, 0x00, 0x00,
  0x00, 0x54, 0xa6, 0x3b, 0x58, 0x00, 0x00, 0x00, 0x73, 0x65, 0x71, 0x75,
  0x65, 0x6e, 0x74, 0x69, 0x61, 0x6c, 0x5f, 0x31, 0x2f, 0x64, 0x65, 0x6e,
  0x73, 0x65, 0x5f, 0x32, 0x5f, 0x31, 0x2f, 0x4d, 0x61, 0x74, 0x4d, 0x75,
  0x6c, 0x3b, 0x73, 0x65, 0x71, 0x75, 0x65, 0x6e, 0x74, 0x69, 0x61, 0x6c,
  0x5f, 0x31, 0x2f, 0x64, 0x65, 0x6e, 0x73, 0x65, 0x5f, 0x32, 0x5f, 0x31,
  0x2f, 0x52, 0x65, 0x6c, 0x75, 0x3b, 0x73, 0x65, 0x71, 0x75, 0x65, 0x6e,
  0x74, 0x69, 0x61, 0x6c, 0x5f, 0x31, 0x2f, 0x64, 0x65, 0x6e, 0x73, 0x65,
  0x5f, 0x32, 0x5f, 0x31, 0x2f, 0x42, 0x69, 0x61, 0x73, 0x41, 0x64, 0x64,
  0x00, 0x00, 0x00, 0x00, 0x02, 0x00, 0x00, 0x00, 0x01, 0x00, 0x00, 0x00,
  0x40, 0x00, 0x00, 0x00, 0x62, 0xee, 0xff, 0xff, 0x00, 0x00, 0x00, 0x01,
  0x18, 0x00, 0x00, 0x00, 0x20, 0x00, 0x00, 0x00, 0x3c, 0x00, 0x00, 0x00,
  0x0d, 0x00, 0x00, 0x00, 0x00, 0x00, 0x00, 0x09, 0x90, 0x00, 0x00, 0x00,
  0x02, 0x00, 0x00, 0x00, 0xff, 0xff, 0xff, 0xff, 0x20, 0x00, 0x00, 0x00,
  0x4c, 0xee, 0xff, 0xff, 0x08, 0x00, 0x00, 0x00, 0x10, 0x00, 0x00, 0x00,
  0x01, 0x00, 0x00, 0x00, 0x80, 0xff, 0xff, 0xff, 0xff, 0xff, 0xff, 0xff,
  0x01, 0x00, 0x00, 0x00, 0xbe, 0x99, 0x12, 0x3c, 0x58, 0x00, 0x00, 0x00,
  0x73, 0x65, 0x71, 0x75, 0x65, 0x6e, 0x74, 0x69, 0x61, 0x6c, 0x5f, 0x31,
  0x2f, 0x64, 0x65, 0x6e, 0x73, 0x65, 0x5f, 0x31, 0x5f, 0x32, 0x2f, 0x4d,
  0x61, 0x74, 0x4d, 0x75, 0x6c, 0x3b, 0x73, 0x65, 0x71, 0x75, 0x65, 0x6e,
  0x74, 0x69, 0x61, 0x6c, 0x5f, 0x31, 0x2f, 0x64, 0x65, 0x6e, 0x73, 0x65,
  0x5f, 0x31, 0x5f, 0x32, 0x2f, 0x52, 0x65, 0x6c, 0x75, 0x3b, 0x73, 0x65,
  0x71, 0x75, 0x65, 0x6e, 0x74, 0x69, 0x61, 0x6c, 0x5f, 0x31, 0x2f, 0x64,
  0x65, 0x6e, 0x73, 0x65, 0x5f, 0x31, 0x5f, 0x32, 0x2f, 0x42, 0x69, 0x61,
  0x73, 0x41, 0x64, 0x64, 0x00, 0x00, 0x00, 0x00, 0x02, 0x00, 0x00, 0x00,
  0x01, 0x00, 0x00, 0x00, 0x20, 0x00, 0x00, 0x00, 0x1a, 0xef, 0xff, 0xff,
  0x00, 0x00, 0x00, 0x01, 0x18, 0x00, 0x00, 0x00, 0x20, 0x00, 0x00, 0x00,
  0x3c, 0x00, 0x00, 0x00, 0x0c, 0x00, 0x00, 0x00, 0x00, 0x00, 0x00, 0x09,
  0x88, 0x00, 0x00, 0x00, 0x02, 0x00, 0x00, 0x00, 0xff, 0xff, 0xff, 0xff,
  0x08, 0x00, 0x00, 0x00, 0x04, 0xef, 0xff, 0xff, 0x08, 0x00, 0x00, 0x00,
  0x10, 0x00, 0x00, 0x00, 0x01, 0x00, 0x00, 0x00, 0x80, 0xff, 0xff, 0xff,
  0xff, 0xff, 0xff, 0xff, 0x01, 0x00, 0x00, 0x00, 0xd3, 0xf2, 0x7c, 0x3c,
  0x52, 0x00, 0x00, 0x00, 0x73, 0x65, 0x71, 0x75, 0x65, 0x6e, 0x74, 0x69,
  0x61, 0x6c, 0x5f, 0x31, 0x2f, 0x64, 0x65, 0x6e, 0x73, 0x65, 0x5f, 0x31,
  0x2f, 0x4d, 0x61, 0x74, 0x4d, 0x75, 0x6c, 0x3b, 0x73, 0x65, 0x71, 0x75,
  0x65, 0x6e, 0x74, 0x69, 0x61, 0x6c, 0x5f, 0x31, 0x2f, 0x64, 0x65, 0x6e,
  0x73, 0x65, 0x5f, 0x31, 0x2f, 0x52, 0x65, 0x6c, 0x75, 0x3b, 0x73, 0x65,
  0x71, 0x75, 0x65, 0x6e, 0x74, 0x69, 0x61, 0x6c, 0x5f, 0x31, 0x2f, 0x64,
  0x65, 0x6e, 0x73, 0x65, 0x5f, 0x31, 0x2f, 0x42, 0x69, 0x61, 0x73, 0x41,
  0x64, 0x64, 0x00, 0x00, 0x02, 0x00, 0x00, 0x00, 0x01, 0x00, 0x00, 0x00,
  0x08, 0x00, 0x00, 0x00, 0x3e, 0xf0, 0xff, 0xff, 0x00, 0x00, 0x00, 0x01,
  0x14, 0x00, 0x00, 0x00, 0x88, 0x00, 0x00, 0x00, 0x0b, 0x00, 0x00, 0x00,
  0x00, 0x00, 0x00, 0x09, 0x94, 0x00, 0x00, 0x00, 0xa4, 0xef, 0xff, 0xff,
  0x08, 0x00, 0x00, 0x00, 0x4c, 0x00, 0x00, 0x00, 0x08, 0x00, 0x00, 0x00,
  0x00, 0x00, 0x00, 0x00, 0x00, 0x00, 0x00, 0x00, 0x00, 0x00, 0x00, 0x00,
  0x00, 0x00, 0x00, 0x00, 0x00, 0x00, 0x00, 0x00, 0x00, 0x00, 0x00, 0x00,
  0x00, 0x00, 0x00, 0x00, 0x00, 0x00, 0x00, 0x00, 0x00, 0x00, 0x00, 0x00,
  0x00, 0x00, 0x00, 0x00, 0x00, 0x00, 0x00, 0x00, 0x00, 0x00, 0x00, 0x00,
  0x00, 0x00, 0x00, 0x00, 0x00, 0x00, 0x00, 0x00, 0x00, 0x00, 0x00, 0x00,
  0x00, 0x00, 0x00, 0x00, 0x00, 0x00, 0x00, 0x00, 0x08, 0x00, 0x00, 0x00,
  0x5d, 0x80, 0x64, 0x3b, 0xf4, 0x82, 0x5e, 0x3b, 0x30, 0xbc, 0xab, 0x3b,
  0x0a, 0x55, 0x32, 0x3b, 0xd8, 0x56, 0x68, 0x3b, 0x93, 0xa2, 0x5e, 0x3b,
  0xc3, 0xeb, 0xa8, 0x3b, 0xbe, 0x0a, 0x9a, 0x39, 0x12, 0x00, 0x00, 0x00,
  0x74, 0x66, 0x6c, 0x2e, 0x70, 0x73, 0x65, 0x75, 0x64, 0x6f, 0x5f, 0x71,
  0x63, 0x6f, 0x6e, 0x73, 0x74, 0x39, 0x00, 0x00, 0x02, 0x00, 0x00, 0x00,
  0x08, 0x00, 0x00, 0x00, 0x01, 0x00, 0x00, 0x00, 0xf6, 0xf0, 0xff, 0xff,
  0x00, 0x00, 0x00, 0x01, 0x14, 0x00, 0x00, 0x00, 0x84, 0x00, 0x00, 0x00,
  0x0a, 0x00, 0x00, 0x00, 0x00, 0x00, 0x00, 0x02, 0x90, 0x00, 0x00, 0x00,
  0x5c, 0xf0, 0xff, 0xff, 0x08, 0x00, 0x00, 0x00, 0x48, 0x00, 0x00, 0x00,
  0x08, 0x00, 0x00, 0x00, 0x00, 0x00, 0x00, 0x00, 0x00, 0x00, 0x00, 0x00,
  0x00, 0x00, 0x00, 0x00, 0x00, 0x00, 0x00, 0x00, 0x00, 0x00, 0x00, 0x00,
  0x00, 0x00, 0x00, 0x00, 0x00, 0x00, 0x00, 0x00, 0x00, 0x00, 0x00, 0x00,
  0x00, 0x00, 0x00, 0x00, 0x00, 0x00, 0x00, 0x00, 0x00, 0x00, 0x00, 0x00,
  0x00, 0x00, 0x00, 0x00, 0x00, 0x00, 0x00, 0x00, 0x00, 0x00, 0x00, 0x00,
  0x00, 0x00, 0x00, 0x00, 0x00, 0x00, 0x00, 0x00, 0x08, 0x00, 0x00, 0x00,
  0xc2, 0x4f, 0xb2, 0x38, 0x28, 0xa3, 0xad, 0x38, 0x8b, 0x03, 0x06, 0x39,
  0x71, 0x29, 0x8b, 0x38, 0x70, 0x4e, 0xb5, 0x38, 0xd5, 0xbb, 0xad, 0x38,
  0x5c, 0xd1, 0x03, 0x39, 0xf7, 0x69, 0xf0, 0x36, 0x12, 0x00, 0x00, 0x00,
  0x74, 0x66, 0x6c, 0x2e, 0x70, 0x73, 0x65, 0x75, 0x64, 0x6f, 0x5f, 0x71,
  0x63, 0x6f, 0x6e, 0x73, 0x74, 0x38, 0x00, 0x00, 0x01, 0x00, 0x00, 0x00,
  0x08, 0x00, 0x00, 0x00, 0xa6, 0xf1, 0xff, 0xff, 0x00, 0x00, 0x00, 0x01,
  0x14, 0x00, 0x00, 0x00, 0xa8, 0x01, 0x00, 0x00, 0x09, 0x00, 0x00, 0x00,
  0x00, 0x00, 0x00, 0x09, 0xb4, 0x01, 0x00, 0x00, 0x0c, 0xf1, 0xff, 0xff,
  0x08, 0x00, 0x00, 0x00, 0x0c, 0x01, 0x00, 0x00, 0x20, 0x00, 0x00, 0x00,
  0x00, 0x00, 0x00, 0x00, 0x00, 0x00, 0x00, 0x00, 0x00, 0x00, 0x00, 0x00,
  0x00, 0x00, 0x00, 0x00, 0x00, 0x00, 0x00, 0x00, 0x00, 0x00, 0x00, 0x00,
  0x00, 0x00, 0x00, 0x00, 0x00, 0x00, 0x00, 0x00, 0x00, 0x00, 0x00, 0x00,
  0x00, 0x00, 0x00, 0x00, 0x00, 0x00, 0x00, 0x00, 0x00, 0x00, 0x00, 0x00,
  0x00, 0x00, 0x00, 0x00, 0x00, 0x00, 0x00, 0x00, 0x00, 0x00, 0x00, 0x00,
  0x00, 0x00, 0x00, 0x00, 0x00, 0x00, 0x00, 0x00, 0x00, 0x00, 0x00, 0x00,
  0x00, 0x00, 0x00, 0x00, 0x00, 0x00, 0x00, 0x00, 0x00, 0x00, 0x00, 0x00,
  0x00, 0x00, 0x00, 0x00, 0x00, 0x00, 0x00, 0x00, 0x00, 0x00, 0x00, 0x00,
  0x00, 0x00, 0x00, 0x00, 0x00, 0x00, 0x00, 0x00, 0x00, 0x00, 0x00, 0x00,
  0x00, 0x00, 0x00, 0x00, 0x00, 0x00, 0x00, 0x00, 0x00, 0x00, 0x00, 0x00,
  0x00, 0x00, 0x00, 0x00, 0x00, 0x00, 0x00, 0x00, 0x00, 0x00, 0x00, 0x00,
  0x00, 0x00, 0x00, 0x00, 0x00, 0x00, 0x00, 0x00, 0x00, 0x00, 0x00, 0x00,
  0x00, 0x00, 0x00, 0x00, 0x00, 0x00, 0x00, 0x00, 0x00, 0x00, 0x00, 0x00,
  0x00, 0x00, 0x00, 0x00, 0x00, 0x00, 0x00, 0x00, 0x00, 0x00, 0x00, 0x00,
  0x00, 0x00, 0x00, 0x00, 0x00, 0x00, 0x00, 0x00, 0x00, 0x00, 0x00, 0x00,
  0x00, 0x00, 0x00, 0x00, 0x00, 0x00, 0x00, 0x00, 0x00, 0x00, 0x00, 0x00,
  0x00, 0x00, 0x00, 0x00, 0x00, 0x00, 0x00, 0x00, 0x00, 0x00, 0x00, 0x00,
  0x00, 0x00, 0x00, 0x00, 0x00, 0x00, 0x00, 0x00, 0x00, 0x00, 0x00, 0x00,
  0x00, 0x00, 0x00, 0x00, 0x00, 0x00, 0x00, 0x00, 0x00, 0x00, 0x00, 0x00,
  0x00, 0x00, 0x00, 0x00, 0x00, 0x00, 0x00, 0x00, 0x00, 0x00, 0x00, 0x00,
  0x00, 0x00, 0x00, 0x00, 0x00, 0x00, 0x00, 0x00, 0x00, 0x00, 0x00, 0x00,
  0x00, 0x00, 0x00, 0x00, 0x00, 0x00, 0x00, 0x00, 0x20, 0x00, 0x00, 0x00,
  0x93, 0xa1, 0x3a, 0x3b, 0x9f, 0x9a, 0x29, 0x3b, 0xce, 0x1f, 0x25, 0x3b,
  0x89, 0x67, 0xe4, 0x3b, 0x4b, 0x21, 0x66, 0x3b, 0x4e, 0x27, 0x23, 0x3b,
  0xd3, 0x4c, 0x35, 0x3b, 0x31, 0xcc, 0x42, 0x3b, 0x42, 0x50, 0x6d, 0x3b,
  0xc3, 0xbf, 0x83, 0x3b, 0x11, 0x51, 0x3f, 0x3b, 0xec, 0x87, 0x3c, 0x3b,
  0xbf, 0x15, 0x3d, 0x3b, 0x35, 0x2f, 0xed, 0x3a, 0xad, 0xd5, 0x7d, 0x3b,
  0xfd, 0xf0, 0x93, 0x3b, 0x96, 0x53, 0x94, 0x3b, 0xfc, 0x11, 0x8f, 0x3b,
  0xdc, 0x8a, 0x36, 0x3b, 0x38, 0x31, 0x89, 0x3b, 0x08, 0xee, 0x40, 0x3b,
  0xc5, 0x59, 0x2a, 0x3b, 0x1c, 0xc1, 0x2f, 0x3b, 0x7f, 0x45, 0x2c, 0x3b,
  0x61, 0xc8, 0x44, 0x3b, 0x35, 0xa1, 0x33, 0x3b, 0xe5, 0xdf, 0x40, 0x3b,
  0xb5, 0x48, 0xbe, 0x3b, 0xb1, 0x0c, 0x10, 0x3b, 0xf0, 0xad, 0x45, 0x3b,
  0x02, 0xd4, 0x06, 0x3b, 0x0d, 0xf9, 0x12, 0x3b, 0x12, 0x00, 0x00, 0x00,
  0x74, 0x66, 0x6c, 0x2e, 0x70, 0x73, 0x65, 0x75, 0x64, 0x6f, 0x5f, 0x71,
  0x63, 0x6f, 0x6e, 0x73, 0x74, 0x37, 0x00, 0x00, 0x02, 0x00, 0x00, 0x00,
  0x20, 0x00, 0x00, 0x00, 0x08, 0x00, 0x00, 0x00, 0x7e, 0xf3, 0xff, 0xff,
  0x00, 0x00, 0x00, 0x01, 0x14, 0x00, 0x00, 0x00, 0xa4, 0x01, 0x00, 0x00,
  0x08, 0x00, 0x00, 0x00, 0x00, 0x00, 0x00, 0x02, 0xb0, 0x01, 0x00, 0x00,
  0xe4, 0xf2, 0xff, 0xff, 0x08, 0x00, 0x00, 0x00, 0x08, 0x01, 0x00, 0x00,
  0x20, 0x00, 0x00, 0x00, 0x00, 0x00, 0x00, 0x00, 0x00, 0x00, 0x00, 0x00,
  0x00, 0x00, 0x00, 0x00, 0x00, 0x00, 0x00, 0x00, 0x00, 0x00, 0x00, 0x00,
  0x00, 0x00, 0x00, 0x00, 0x00, 0x00, 0x00, 0x00, 0x00, 0x00, 0x00, 0x00,
  0x00, 0x00, 0x00, 0x00, 0x00, 0x00, 0x00, 0x00, 0x00, 0x00, 0x00, 0x00,
  0x00, 0x00, 0x00, 0x00, 0x00, 0x00, 0x00, 0x00, 0x00, 0x00, 0x00, 0x00,
  0x00, 0x00, 0x00, 0x00, 0x00, 0x00, 0x00, 0x00, 0x00, 0x00, 0x00, 0x00,
  0x00, 0x00, 0x00, 0x00, 0x00, 0x00, 0x00, 0x00, 0x00, 0x00, 0x00, 0x00,
  0x00, 0x00, 0x00, 0x00, 0x00, 0x00, 0x00, 0x00, 0x00, 0x00, 0x00, 0x00,
  0x00, 0x00, 0x00, 0x00, 0x00, 0x00, 0x00, 0x00, 0x00, 0x00, 0x00, 0x00,
  0x00, 0x00, 0x00, 0x00, 0x00, 0x00, 0x00, 0x00, 0x00, 0x00, 0x00, 0x00,
  0x00, 0x00, 0x00, 0x00, 0x00, 0x00, 0x00, 0x00, 0x00, 0x00, 0x00, 0x00,
  0x00, 0x00, 0x00, 0x00, 0x00, 0x00, 0x00, 0x00, 0x00, 0x00, 0x00, 0x00,
  0x00, 0x00, 0x00, 0x00, 0x00, 0x00, 0x00, 0x00, 0x00, 0x00, 0x00, 0x00,
  0x00, 0x00, 0x00, 0x00, 0x00, 0x00, 0x00, 0x00, 0x00, 0x00, 0x00, 0x00,
  0x00, 0x00, 0x00, 0x00, 0x00, 0x00, 0x00, 0x00, 0x00, 0x00, 0x00, 0x00,
  0x00, 0x00, 0x00, 0x00, 0x00, 0x00, 0x00, 0x00, 0x00, 0x00, 0x00, 0x00,
  0x00, 0x00, 0x00, 0x00, 0x00, 0x00, 0x00, 0x00, 0x00, 0x00, 0x00, 0x00,
  0x00, 0x00, 0x00, 0x00, 0x00, 0x00, 0x00, 0x00, 0x00, 0x00, 0x00, 0x00,
  0x00, 0x00, 0x00, 0x00, 0x00, 0x00, 0x00, 0x00, 0x00, 0x00, 0x00, 0x00,
  0x00, 0x00, 0x00, 0x00, 0x00, 0x00, 0x00, 0x00, 0x00, 0x00, 0x00, 0x00,
  0x00, 0x00, 0x00, 0x00, 0x00, 0x00, 0x00, 0x00, 0x00, 0x00, 0x00, 0x00,
  0x00, 0x00, 0x00, 0x00, 0x00, 0x00, 0x00, 0x00, 0x20, 0x00, 0x00, 0x00,
  0x13, 0x68, 0x38, 0x38, 0x14, 0x95, 0x27, 0x38, 0xef, 0x27, 0x23, 0x38,
  0x91, 0xae, 0xe1, 0x38, 0x0f, 0x63, 0x63, 0x38, 0x72, 0x35, 0x21, 0x38,
  0x98, 0x23, 0x33, 0x38, 0xc6, 0x79, 0x40, 0x38, 0x1a, 0x7c, 0x6a, 0x38,
  0xbc, 0x2d, 0x82, 0x38, 0x45, 0x09, 0x3d, 0x38, 0xa0, 0x48, 0x3a, 0x38,
  0xc2, 0xd4, 0x3a, 0x38, 0x72, 0x5b, 0xea, 0x37, 0x1c, 0xcf, 0x7a, 0x38,
  0x8d, 0x2d, 0x92, 0x38, 0xf9, 0x8e, 0x92, 0x38, 0x69, 0x5d, 0x8d, 0x38,
  0xd6, 0x5d, 0x34, 0x38, 0x95, 0x8e, 0x87, 0x38, 0x50, 0xa1, 0x3e, 0x38,
  0xf3, 0x51, 0x28, 0x38, 0xcd, 0xa8, 0x2d, 0x38, 0xd1, 0x37, 0x2a, 0x38,
  0xe7, 0x6f, 0x42, 0x38, 0x13, 0x7d, 0x31, 0x38, 0x58, 0x93, 0x3e, 0x38,
  0x10, 0x04, 0xbc, 0x38, 0x21, 0x55, 0x0e, 0x38, 0xba, 0x52, 0x43, 0x38,
  0x96, 0x38, 0x05, 0x38, 0x91, 0x38, 0x11, 0x38, 0x12, 0x00, 0x00, 0x00,
  0x74, 0x66, 0x6c, 0x2e, 0x70, 0x73, 0x65, 0x75, 0x64, 0x6f, 0x5f, 0x71,
  0x63, 0x6f, 0x6e, 0x73, 0x74, 0x36, 0x00, 0x00, 0x01, 0x00, 0x00, 0x00,
  0x20, 0x00, 0x00, 0x00, 0x4e, 0xf5, 0xff, 0xff, 0x00, 0x00, 0x00, 0x01,
  0x14, 0x00, 0x00, 0x00, 0x28, 0x03, 0x00, 0x00, 0x07, 0x00, 0x00, 0x00,
  0x00, 0x00, 0x00, 0x09, 0x34, 0x03, 0x00, 0x00, 0xb4, 0xf4, 0xff, 0xff,
  0x08, 0x00, 0x00, 0x00, 0x0c, 0x02, 0x00, 0x00, 0x40, 0x00, 0x00, 0x00,
  0x00, 0x00, 0x00, 0x00, 0x00, 0x00, 0x00, 0x00, 0x00, 0x00, 0x00, 0x00,
  0x00, 0x00, 0x00, 0x00, 0x00, 0x00, 0x00, 0x00, 0x00, 0x00, 0x00, 0x00,
  0x00, 0x00, 0x00, 0x00, 0x00, 0x00, 0x00, 0x00, 0x00, 0x00, 0x00, 0x00,
  0x00, 0x00, 0x00, 0x00, 0x00, 0x00, 0x00, 0x00, 0x00, 0x00, 0x00, 0x00,
  0x00, 0x00, 0x00, 0x00, 0x00, 0x00, 0x00, 0x00, 0x00, 0x00, 0x00, 0x00,
  0x00, 0x00, 0x00, 0x00, 0x00, 0x00, 0x00, 0x00, 0x00, 0x00, 0x00, 0x00,
  0x00, 0x00, 0x00, 0x00, 0x00, 0x00, 0x00, 0x00, 0x00, 0x00, 0x00, 0x00,
  0x00, 0x00, 0x00, 0x00, 0x00, 0x00, 0x00, 0x00, 0x00, 0x00, 0x00, 0x00,
  0x00, 0x00, 0x00, 0x00, 0x00, 0x00, 0x00, 0x00, 0x00, 0x00, 0x00, 0x00,
  0x00, 0x00, 0x00, 0x00, 0x00, 0x00, 0x00, 0x00, 0x00, 0x00, 0x00, 0x00,
  0x00, 0x00, 0x00, 0x00, 0x00, 0x00, 0x00, 0x00, 0x00, 0x00, 0x00, 0x00,
  0x00, 0x00, 0x00, 0x00, 0x00, 0x00, 0x00, 0x00, 0x00, 0x00, 0x00, 0x00,
  0x00, 0x00, 0x00, 0x00, 0x00, 0x00, 0x00, 0x00, 0x00, 0x00, 0x00, 0x00,
  0x00, 0x00, 0x00, 0x00, 0x00, 0x00, 0x00, 0x00, 0x00, 0x00, 0x00, 0x00,
  0x00, 0x00, 0x00, 0x00, 0x00, 0x00, 0x00, 0x00, 0x00, 0x00, 0x00, 0x00,
  0x00, 0x00, 0x00, 0x00, 0x00, 0x00, 0x00, 0x00, 0x00, 0x00, 0x00, 0x00,
  0x00, 0x00, 0x00, 0x00, 0x00, 0x00, 0x00, 0x00, 0x00, 0x00, 0x00, 0x00,
  0x00, 0x00, 0x00, 0x00, 0x00, 0x00, 0x00, 0x00, 0x00, 0x00, 0x00, 0x00,
  0x00, 0x00, 0x00, 0x00, 0x00, 0x00, 0x00, 0x00, 0x00, 0x00, 0x00, 0x00,
  0x00, 0x00, 0x00, 0x00, 0x00, 0x00, 0x00, 0x00, 0x00, 0x00, 0x00, 0x00,
  0x00, 0x00, 0x00, 0x00, 0x00, 0x00, 0x00, 0x00, 0x00, 0x00, 0x00, 0x00,
  0x00, 0x00, 0x00, 0x00, 0x00, 0x00, 0x00, 0x00, 0x00, 0x00, 0x00, 0x00,
  0x00, 0x00, 0x00, 0x00, 0x00, 0x00, 0x00, 0x00, 0x00, 0x00, 0x00, 0x00,
  0x00, 0x00, 0x00, 0x00, 0x00, 0x00, 0x00, 0x00, 0x00, 0x00, 0x00, 0x00,
  0x00, 0x00, 0x00, 0x00, 0x00, 0x00, 0x00, 0x00, 0x00, 0x00, 0x00, 0x00,
  0x00, 0x00, 0x00, 0x00, 0x00, 0x00, 0x00, 0x00, 0x00, 0x00, 0x00, 0x00,
  0x00, 0x00, 0x00, 0x00, 0x00, 0x00, 0x00, 0x00, 0x00, 0x00, 0x00, 0x00,
  0x00, 0x00, 0x00, 0x00, 0x00, 0x00, 0x00, 0x00, 0x00, 0x00, 0x00, 0x00,
  0x00, 0x00, 0x00, 0x00, 0x00, 0x00, 0x00, 0x00, 0x00, 0x00, 0x00, 0x00,
  0x00, 0x00, 0x00, 0x00, 0x00, 0x00, 0x00, 0x00, 0x00, 0x00, 0x00, 0x00,
  0x00, 0x00, 0x00, 0x00, 0x00, 0x00, 0x00, 0x00, 0x00, 0x00, 0x00, 0x00,
  0x00, 0x00, 0x00, 0x00, 0x00, 0x00, 0x00, 0x00, 0x00, 0x00, 0x00, 0x00,
  0x00, 0x00, 0x00, 0x00, 0x00, 0x00, 0x00, 0x00, 0x00, 0x00, 0x00, 0x00,
  0x00, 0x00, 0x00, 0x00, 0x00, 0x00, 0x00, 0x00, 0x00, 0x00, 0x00, 0x00,
  0x00, 0x00, 0x00, 0x00, 0x00, 0x00, 0x00, 0x00, 0x00, 0x00, 0x00, 0x00,
  0x00, 0x00, 0x00, 0x00, 0x00, 0x00, 0x00, 0x00, 0x00, 0x00, 0x00, 0x00,
  0x00, 0x00, 0x00, 0x00, 0x00, 0x00, 0x00, 0x00, 0x00, 0x00, 0x00, 0x00,
  0x00, 0x00, 0x00, 0x00, 0x00, 0x00, 0x00, 0x00, 0x00, 0x00, 0x00, 0x00,
  0x00, 0x00, 0x00, 0x00, 0x00, 0x00, 0x00, 0x00, 0x00, 0x00, 0x00, 0x00,
  0x00, 0x00, 0x00, 0x00, 0x00, 0x00, 0x00, 0x00, 0x00, 0x00, 0x00, 0x00,
  0x00, 0x00, 0x00, 0x00, 0x00, 0x00, 0x00, 0x00, 0x00, 0x00, 0x00, 0x00,
  0x00, 0x00, 0x00, 0x00, 0x00, 0x00, 0x00, 0x00, 0x00, 0x00, 0x00, 0x00,
  0x00, 0x00, 0x00, 0x00, 0x00, 0x00, 0x00, 0x00, 0x00, 0x00, 0x00, 0x00,
  0x40, 0x00, 0x00, 0x00, 0xa0, 0xf1, 0x89, 0x3b, 0x67, 0x36, 0x9c, 0x3b,
  0x1a, 0xbf, 0xfc, 0x3a, 0x04, 0x94, 0xfc, 0x3a, 0x61, 0x80, 0xfa, 0x3a,
  0xa9, 0xee, 0xfc, 0x3a, 0xcd, 0xc8, 0x78, 0x3b, 0xf8, 0x3c, 0x14, 0x3b,
  0x0a, 0x58, 0x8f, 0x3b, 0xc5, 0x4d, 0xaa, 0x3b, 0x8a, 0xa3, 0x02, 0x3b,
  0xc7, 0x2f, 0x70, 0x3b, 0x87, 0xef, 0xfd, 0x3a, 0xde, 0x1a, 0xfd, 0x3a,
  0xc8, 0x45, 0x26, 0x3b, 0x30, 0xc9, 0x21, 0x3b, 0xc4, 0x05, 0xf9, 0x3a,
  0xca, 0x7f, 0x68, 0x3b, 0xc6, 0x92, 0xde, 0x3a, 0x38, 0xd2, 0x8b, 0x3b,
  0x8f, 0x6d, 0xfc, 0x3a, 0x0a, 0x02, 0xa2, 0x3b, 0xee, 0xb0, 0xdf, 0x3a,
  0x2f, 0x95, 0x17, 0x3b, 0x2a, 0xc5, 0x88, 0x3b, 0xd2, 0x25, 0x02, 0x3b,
  0xec, 0x5d, 0xfb, 0x3a, 0x1f, 0xc3, 0x7f, 0x3b, 0x61, 0x1a, 0xed, 0x3a,
  0xe5, 0x82, 0x8e, 0x3b, 0xe6, 0xa4, 0xfe, 0x3a, 0x5a, 0x9c, 0xfa, 0x3a,
  0x67, 0x83, 0x49, 0x3b, 0x8c, 0xfc, 0x73, 0x3b, 0xc2, 0xac, 0x88, 0x3b,
  0xc3, 0x91, 0x1f, 0x3b, 0xc8, 0xb3, 0xfc, 0x3a, 0xe3, 0xfb, 0x1f, 0x3b,
  0xa9, 0x5d, 0x00, 0x3b, 0xb7, 0x12, 0x96, 0x3b, 0x75, 0x32, 0x53, 0x3b,
  0xdb, 0x54, 0x63, 0x3b, 0xef, 0xdc, 0x27, 0x3b, 0x0d, 0xcf, 0x0d, 0x3b,
  0x5a, 0x95, 0x9d, 0x3b, 0x2e, 0x47, 0xff, 0x3a, 0xaa, 0x04, 0x5e, 0x3b,
  0x80, 0x3c, 0x10, 0x3b, 0x14, 0x70, 0x3f, 0x3b, 0x25, 0x1a, 0xd2, 0x3b,
  0x2e, 0xc4, 0x00, 0x3b, 0x0c, 0x4c, 0xff, 0x3a, 0x39, 0x76, 0x17, 0x3b,
  0x5f, 0xf3, 0x00, 0x3b, 0x24, 0x4a, 0xfd, 0x3a, 0x9d, 0x9d, 0x5e, 0x3b,
  0x3e, 0x7f, 0xf4, 0x3a, 0xd0, 0x2f, 0x00, 0x3b, 0x1b, 0x4d, 0x5b, 0x3b,
  0x4e, 0x1a, 0x0a, 0x3b, 0xd8, 0x43, 0xfc, 0x3a, 0xb3, 0x36, 0xab, 0x3b,
  0x58, 0xc4, 0x56, 0x3b, 0x54, 0xd6, 0x7d, 0x3b, 0x12, 0x00, 0x00, 0x00,
  0x74, 0x66, 0x6c, 0x2e, 0x70, 0x73, 0x65, 0x75, 0x64, 0x6f, 0x5f, 0x71,
  0x63, 0x6f, 0x6e, 0x73, 0x74, 0x35, 0x00, 0x00, 0x02, 0x00, 0x00, 0x00,
  0x40, 0x00, 0x00, 0x00, 0x20, 0x00, 0x00, 0x00, 0xa6, 0xf8, 0xff, 0xff,
  0x00, 0x00, 0x00, 0x01, 0x14, 0x00, 0x00, 0x00, 0x24, 0x03, 0x00, 0x00,
  0x06, 0x00, 0x00, 0x00, 0x00, 0x00, 0x00, 0x02, 0x30, 0x03, 0x00, 0x00,
  0x0c, 0xf8, 0xff, 0xff, 0x08, 0x00, 0x00, 0x00, 0x08, 0x02, 0x00, 0x00,
  0x40, 0x00, 0x00, 0x00, 0x00, 0x00, 0x00, 0x00, 0x00, 0x00, 0x00, 0x00,
  0x00, 0x00, 0x00, 0x00, 0x00, 0x00, 0x00, 0x00, 0x00, 0x00, 0x00, 0x00,
  0x00, 0x00, 0x00, 0x00, 0x00, 0x00, 0x00, 0x00, 0x00, 0x00, 0x00, 0x00,
  0x00, 0x00, 0x00, 0x00, 0x00, 0x00, 0x00, 0x00, 0x00, 0x00, 0x00, 0x00,
  0x00, 0x00, 0x00, 0x00, 0x00, 0x00, 0x00, 0x00, 0x00, 0x00, 0x00, 0x00,
  0x00, 0x00, 0x00, 0x00, 0x00, 0x00, 0x00, 0x00, 0x00, 0x00, 0x00, 0x00,
  0x00, 0x00, 0x00, 0x00, 0x00, 0x00, 0x00, 0x00, 0x00, 0x00, 0x00, 0x00,
  0x00, 0x00, 0x00, 0x00, 0x00, 0x00, 0x00, 0x00, 0x00, 0x00, 0x00, 0x00,
  0x00, 0x00, 0x00, 0x00, 0x00, 0x00, 0x00, 0x00, 0x00, 0x00, 0x00, 0x00,
  0x00, 0x00, 0x00, 0x00, 0x00, 0x00, 0x00, 0x00, 0x00, 0x00, 0x00, 0x00,
  0x00, 0x00, 0x00, 0x00, 0x00, 0x00, 0x00, 0x00, 0x00, 0x00, 0x00, 0x00,
  0x00, 0x00, 0x00, 0x00, 0x00, 0x00, 0x00, 0x00, 0x00, 0x00, 0x00, 0x00,
  0x00, 0x00, 0x00, 0x00, 0x00, 0x00, 0x00, 0x00, 0x00, 0x00, 0x00, 0x00,
  0x00, 0x00, 0x00, 0x00, 0x00, 0x00, 0x00, 0x00, 0x00, 0x00, 0x00, 0x00,
  0x00, 0x00, 0x00, 0x00, 0x00, 0x00, 0x00, 0x00, 0x00, 0x00, 0x00, 0x00,
  0x00, 0x00, 0x00, 0x00, 0x00, 0x00, 0x00, 0x00, 0x00, 0x00, 0x00, 0x00,
  0x00, 0x00, 0x00, 0x00, 0x00, 0x00, 0x00, 0x00, 0x00, 0x00, 0x00, 0x00,
  0x00, 0x00, 0x00, 0x00, 0x00, 0x00, 0x00, 0x00, 0x00, 0x00, 0x00, 0x00,
  0x00, 0x00, 0x00, 0x00, 0x00, 0x00, 0x00, 0x00, 0x00, 0x00, 0x00, 0x00,
  0x00, 0x00, 0x00, 0x00, 0x00, 0x00, 0x00, 0x00, 0x00, 0x00, 0x00, 0x00,
  0x00, 0x00, 0x00, 0x00, 0x00, 0x00, 0x00, 0x00, 0x00, 0x00, 0x00, 0x00,
  0x00, 0x00, 0x00, 0x00, 0x00, 0x00, 0x00, 0x00, 0x00, 0x00, 0x00, 0x00,
  0x00, 0x00, 0x00, 0x00, 0x00, 0x00, 0x00, 0x00, 0x00, 0x00, 0x00, 0x00,
  0x00, 0x00, 0x00, 0x00, 0x00, 0x00, 0x00, 0x00, 0x00, 0x00, 0x00, 0x00,
  0x00, 0x00, 0x00, 0x00, 0x00, 0x00, 0x00, 0x00, 0x00, 0x00, 0x00, 0x00,
  0x00, 0x00, 0x00, 0x00, 0x00, 0x00, 0x00, 0x00, 0x00, 0x00, 0x00, 0x00,
  0x00, 0x00, 0x00, 0x00, 0x00, 0x00, 0x00, 0x00, 0x00, 0x00, 0x00, 0x00,
  0x00, 0x00, 0x00, 0x00, 0x00, 0x00, 0x00, 0x00, 0x00, 0x00, 0x00, 0x00,
  0x00, 0x00, 0x00, 0x00, 0x00, 0x00, 0x00, 0x00, 0x00, 0x00, 0x00, 0x00,
  0x00, 0x00, 0x00, 0x00, 0x00, 0x00, 0x00, 0x00, 0x00, 0x00, 0x00, 0x00,
  0x00, 0x00, 0x00, 0x00, 0x00, 0x00, 0x00, 0x00, 0x00, 0x00, 0x00, 0x00,
  0x00, 0x00, 0x00, 0x00, 0x00, 0x00, 0x00, 0x00, 0x00, 0x00, 0x00, 0x00,
  0x00, 0x00, 0x00, 0x00, 0x00, 0x00, 0x00, 0x00, 0x00, 0x00, 0x00, 0x00,
  0x00, 0x00, 0x00, 0x00, 0x00, 0x00, 0x00, 0x00, 0x00, 0x00, 0x00, 0x00,
  0x00, 0x00, 0x00, 0x00, 0x00, 0x00, 0x00, 0x00, 0x00, 0x00, 0x00, 0x00,
  0x00, 0x00, 0x00, 0x00, 0x00, 0x00, 0x00, 0x00, 0x00, 0x00, 0x00, 0x00,
  0x00, 0x00, 0x00, 0x00, 0x00, 0x00, 0x00, 0x00, 0x00, 0x00, 0x00, 0x00,
  0x00, 0x00, 0x00, 0x00, 0x00, 0x00, 0x00, 0x00, 0x00, 0x00, 0x00, 0x00,
  0x00, 0x00, 0x00, 0x00, 0x00, 0x00, 0x00, 0x00, 0x00, 0x00, 0x00, 0x00,
  0x00, 0x00, 0x00, 0x00, 0x00, 0x00, 0x00, 0x00, 0x00, 0x00, 0x00, 0x00,
  0x00, 0x00, 0x00, 0x00, 0x00, 0x00, 0x00, 0x00, 0x00, 0x00, 0x00, 0x00,
  0x00, 0x00, 0x00, 0x00, 0x00, 0x00, 0x00, 0x00, 0x00, 0x00, 0x00, 0x00,
  0x00, 0x00, 0x00, 0x00, 0x00, 0x00, 0x00, 0x00, 0x00, 0x00, 0x00, 0x00,
  0x40, 0x00, 0x00, 0x00, 0x4a, 0xfd, 0x1d, 0x38, 0xae, 0xe9, 0x32, 0x38,
  0xc7, 0xbc, 0x90, 0x37, 0x1a, 0xa4, 0x90, 0x37, 0xa8, 0x73, 0x8f, 0x37,
  0x03, 0xd8, 0x90, 0x37, 0xee, 0x77, 0x0e, 0x38, 0x98, 0xc7, 0xa9, 0x37,
  0x97, 0x2c, 0x24, 0x38, 0x42, 0x0d, 0x43, 0x38, 0x73, 0x9f, 0x95, 0x37,
  0x7e, 0x8b, 0x09, 0x38, 0x1c, 0x6b, 0x91, 0x37, 0x54, 0xf1, 0x90, 0x37,
  0x4e, 0x6f, 0xbe, 0x37, 0xcd, 0x4b, 0xb9, 0x37, 0xd7, 0x9a, 0x8e, 0x37,
  0x82, 0x24, 0x05, 0x38, 0xc0, 0xea, 0x7e, 0x37, 0xb9, 0x23, 0x20, 0x38,
  0x14, 0x8e, 0x90, 0x37, 0xea, 0x8c, 0x39, 0x38, 0x3e, 0x19, 0x80, 0x37,
  0x3b, 0x9c, 0xad, 0x37, 0x2b, 0xa5, 0x1c, 0x38, 0x76, 0x0f, 0x95, 0x37,
  0x86, 0xf2, 0x8f, 0x37, 0xe1, 0x76, 0x12, 0x38, 0x70, 0xc7, 0x87, 0x37,
  0x79, 0x38, 0x23, 0x38, 0xf9, 0xd2, 0x91, 0x37, 0xad, 0x83, 0x8f, 0x37,
  0xec, 0xcb, 0xe6, 0x37, 0x8f, 0xb8, 0x0b, 0x38, 0x37, 0x89, 0x1c, 0x38,
  0xec, 0xc1, 0xb6, 0x37, 0x4b, 0xb6, 0x90, 0x37, 0x77, 0x3b, 0xb7, 0x37,
  0x03, 0x05, 0x93, 0x37, 0x9a, 0xe1, 0x2b, 0x38, 0x39, 0xe3, 0xf1, 0x37,
  0xeb, 0x2e, 0x02, 0x38, 0xa0, 0x41, 0xc0, 0x37, 0x7f, 0x6a, 0xa2, 0x37,
  0xa1, 0x7b, 0x34, 0x38, 0xe7, 0x2f, 0x92, 0x37, 0xfd, 0x47, 0xfe, 0x37,
  0x40, 0x32, 0xa5, 0x37, 0xc7, 0x41, 0xdb, 0x37, 0x2d, 0xa2, 0x70, 0x38,
  0x6e, 0x7a, 0x93, 0x37, 0xb1, 0x32, 0x92, 0x37, 0xc5, 0x78, 0xad, 0x37,
  0x7b, 0xb0, 0x93, 0x37, 0x66, 0x0c, 0x91, 0x37, 0x2a, 0xf7, 0xfe, 0x37,
  0x67, 0x03, 0x8c, 0x37, 0x81, 0xd0, 0x92, 0x37, 0x5a, 0x2b, 0xfb, 0x37,
  0xe1, 0x2b, 0x9e, 0x37, 0x31, 0x76, 0x90, 0x37, 0x0a, 0x18, 0x44, 0x38,
  0xea, 0xf9, 0xf5, 0x37, 0xad, 0x5c, 0x11, 0x38, 0x12, 0x00, 0x00, 0x00,
  0x74, 0x66, 0x6c, 0x2e, 0x70, 0x73, 0x65, 0x75, 0x64, 0x6f, 0x5f, 0x71,
  0x63, 0x6f, 0x6e, 0x73, 0x74, 0x34, 0x00, 0x00, 0x01, 0x00, 0x00, 0x00,
  0x40, 0x00, 0x00, 0x00, 0xf6, 0xfb, 0xff, 0xff, 0x00, 0x00, 0x00, 0x01,
  0x14, 0x00, 0x00, 0x00, 0xa8, 0x01, 0x00, 0x00, 0x05, 0x00, 0x00, 0x00,
  0x00, 0x00, 0x00, 0x09, 0xb4, 0x01, 0x00, 0x00, 0x5c, 0xfb, 0xff, 0xff,
  0x08, 0x00, 0x00, 0x00, 0x0c, 0x01, 0x00, 0x00, 0x20, 0x00, 0x00, 0x00,
  0x00, 0x00, 0x00, 0x00, 0x00, 0x00, 0x00, 0x00, 0x00, 0x00, 0x00, 0x00,
  0x00, 0x00, 0x00, 0x00, 0x00, 0x00, 0x00, 0x00, 0x00, 0x00, 0x00, 0x00,
  0x00, 0x00, 0x00, 0x00, 0x00, 0x00, 0x00, 0x00, 0x00, 0x00, 0x00, 0x00,
  0x00, 0x00, 0x00, 0x00, 0x00, 0x00, 0x00, 0x00, 0x00, 0x00, 0x00, 0x00,
  0x00, 0x00, 0x00, 0x00, 0x00, 0x00, 0x00, 0x00, 0x00, 0x00, 0x00, 0x00,
  0x00, 0x00, 0x00, 0x00, 0x00, 0x00, 0x00, 0x00, 0x00, 0x00, 0x00, 0x00,
  0x00, 0x00, 0x00, 0x00, 0x00, 0x00, 0x00, 0x00, 0x00, 0x00, 0x00, 0x00,
  0x00, 0x00, 0x00, 0x00, 0x00, 0x00, 0x00, 0x00, 0x00, 0x00, 0x00, 0x00,
  0x00, 0x00, 0x00, 0x00, 0x00, 0x00, 0x00, 0x00, 0x00, 0x00, 0x00, 0x00,
  0x00, 0x00, 0x00, 0x00, 0x00, 0x00, 0x00, 0x00, 0x00, 0x00, 0x00, 0x00,
  0x00, 0x00, 0x00, 0x00, 0x00, 0x00, 0x00, 0x00, 0x00, 0x00, 0x00, 0x00,
  0x00, 0x00, 0x00, 0x00, 0x00, 0x00, 0x00, 0x00, 0x00, 0x00, 0x00, 0x00,
  0x00, 0x00, 0x00, 0x00, 0x00, 0x00, 0x00, 0x00, 0x00, 0x00, 0x00, 0x00,
  0x00, 0x00, 0x00, 0x00, 0x00, 0x00, 0x00, 0x00, 0x00, 0x00, 0x00, 0x00,
  0x00, 0x00, 0x00, 0x00, 0x00, 0x00, 0x00, 0x00, 0x00, 0x00, 0x00, 0x00,
  0x00, 0x00, 0x00, 0x00, 0x00, 0x00, 0x00, 0x00, 0x00, 0x00, 0x00, 0x00,
  0x00, 0x00, 0x00, 0x00, 0x00, 0x00, 0x00, 0x00, 0x00, 0x00, 0x00, 0x00,
  0x00, 0x00, 0x00, 0x00, 0x00, 0x00, 0x00, 0x00, 0x00, 0x00, 0x00, 0x00,
  0x00, 0x00, 0x00, 0x00, 0x00, 0x00, 0x00, 0x00, 0x00, 0x00, 0x00, 0x00,
  0x00, 0x00, 0x00, 0x00, 0x00, 0x00, 0x00, 0x00, 0x00, 0x00, 0x00, 0x00,
  0x00, 0x00, 0x00, 0x00, 0x00, 0x00, 0x00, 0x00, 0x00, 0x00, 0x00, 0x00,
  0x00, 0x00, 0x00, 0x00, 0x00, 0x00, 0x00, 0x00, 0x20, 0x00, 0x00, 0x00,
  0xac, 0x5b, 0x63, 0x3b, 0x3e, 0xf9, 0x00, 0x3b, 0x30, 0x2d, 0x23, 0x3b,
  0xbf, 0x91, 0x00, 0x3b, 0x04, 0xc7, 0x53, 0x3b, 0xb9, 0xee, 0xf7, 0x3a,
  0x9d, 0xce, 0xfe, 0x3a, 0x07, 0xf3, 0x93, 0x3b, 0x59, 0xe0, 0xf2, 0x3a,
  0x91, 0x6b, 0x2f, 0x3b, 0x6c, 0xd0, 0x33, 0x3b, 0x67, 0x8e, 0x28, 0x3b,
  0x95, 0x78, 0x0f, 0x3b, 0x56, 0x39, 0xba, 0x3b, 0x35, 0xca, 0x10, 0x3b,
  0x4b, 0xa7, 0xfb, 0x3a, 0xcd, 0xdd, 0x2c, 0x3b, 0x3e, 0x49, 0x00, 0x3b,
  0x26, 0xa3, 0xfd, 0x3a, 0xb3, 0xf0, 0x9b, 0x3b, 0xe9, 0x0b, 0x26, 0x3b,
  0x26, 0x7a, 0x5f, 0x3b, 0xce, 0xbc, 0x00, 0x3b, 0x11, 0x25, 0x96, 0x3b,
  0xea, 0x9d, 0x1d, 0x3b, 0x47, 0x72, 0x00, 0x3b, 0xc6, 0x06, 0xf1, 0x3a,
  0x20, 0x3c, 0xfc, 0x3a, 0x1e, 0x9e, 0x48, 0x3b, 0x39, 0x47, 0x80, 0x3b,
  0x5f, 0x45, 0x37, 0x3b, 0x41, 0x3b, 0x2e, 0x3b, 0x12, 0x00, 0x00, 0x00,
  0x74, 0x66, 0x6c, 0x2e, 0x70, 0x73, 0x65, 0x75, 0x64, 0x6f, 0x5f, 0x71,
  0x63, 0x6f, 0x6e, 0x73, 0x74, 0x33, 0x00, 0x00, 0x02, 0x00, 0x00, 0x00,
  0x20, 0x00, 0x00, 0x00, 0x40, 0x00, 0x00, 0x00, 0xce, 0xfd, 0xff, 0xff,
  0x00, 0x00, 0x00, 0x01, 0x14, 0x00, 0x00, 0x00, 0xa4, 0x01, 0x00, 0x00,
  0x04, 0x00, 0x00, 0x00, 0x00, 0x00, 0x00, 0x02, 0xb0, 0x01, 0x00, 0x00,
  0x34, 0xfd, 0xff, 0xff, 0x08, 0x00, 0x00, 0x00, 0x08, 0x01, 0x00, 0x00,
  0x20, 0x00, 0x00, 0x00, 0x00, 0x00, 0x00, 0x00, 0x00, 0x00, 0x00, 0x00,
  0x00, 0x00, 0x00, 0x00, 0x00, 0x00, 0x00, 0x00, 0x00, 0x00, 0x00, 0x00,
  0x00, 0x00, 0x00, 0x00, 0x00, 0x00, 0x00, 0x00, 0x00, 0x00, 0x00, 0x00,
  0x00, 0x00, 0x00, 0x00, 0x00, 0x00, 0x00, 0x00, 0x00, 0x00, 0x00, 0x00,
  0x00, 0x00, 0x00, 0x00, 0x00, 0x00, 0x00, 0x00, 0x00, 0x00, 0x00, 0x00,
  0x00, 0x00, 0x00, 0x00, 0x00, 0x00, 0x00, 0x00, 0x00, 0x00, 0x00, 0x00,
  0x00, 0x00, 0x00, 0x00, 0x00, 0x00, 0x00, 0x00, 0x00, 0x00, 0x00, 0x00,
  0x00, 0x00, 0x00, 0x00, 0x00, 0x00, 0x00, 0x00, 0x00, 0x00, 0x00, 0x00,
  0x00, 0x00, 0x00, 0x00, 0x00, 0x00, 0x00, 0x00, 0x00, 0x00, 0x00, 0x00,
  0x00, 0x00, 0x00, 0x00, 0x00, 0x00, 0x00, 0x00, 0x00, 0x00, 0x00, 0x00,
  0x00, 0x00, 0x00, 0x00, 0x00, 0x00, 0x00, 0x00, 0x00, 0x00, 0x00, 0x00,
  0x00, 0x00, 0x00, 0x00, 0x00, 0x00, 0x00, 0x00, 0x00, 0x00, 0x00, 0x00,
  0x00, 0x00, 0x00, 0x00, 0x00, 0x00, 0x00, 0x00, 0x00, 0x00, 0x00, 0x00,
  0x00, 0x00, 0x00, 0x00, 0x00, 0x00, 0x00, 0x00, 0x00, 0x00, 0x00, 0x00,
  0x00, 0x00, 0x00, 0x00, 0x00, 0x00, 0x00, 0x00, 0x00, 0x00, 0x00, 0x00,
  0x00, 0x00, 0x00, 0x00, 0x00, 0x00, 0x00, 0x00, 0x00, 0x00, 0x00, 0x00,
  0x00, 0x00, 0x00, 0x00, 0x00, 0x00, 0x00, 0x00, 0x00, 0x00, 0x00, 0x00,
  0x00, 0x00, 0x00, 0x00, 0x00, 0x00, 0x00, 0x00, 0x00, 0x00, 0x00, 0x00,
  0x00, 0x00, 0x00, 0x00, 0x00, 0x00, 0x00, 0x00, 0x00, 0x00, 0x00, 0x00,
  0x00, 0x00, 0x00, 0x00, 0x00, 0x00, 0x00, 0x00, 0x00, 0x00, 0x00, 0x00,
  0x00, 0x00, 0x00, 0x00, 0x00, 0x00, 0x00, 0x00, 0x00, 0x00, 0x00, 0x00,
  0x00, 0x00, 0x00, 0x00, 0x00, 0x00, 0x00, 0x00, 0x20, 0x00, 0x00, 0x00,
  0x0c, 0xb8, 0x93, 0x37, 0xe0, 0x97, 0x27, 0x37, 0xb0, 0x09, 0x54, 0x37,
  0x63, 0x11, 0x27, 0x37, 0x8a, 0x98, 0x89, 0x37, 0x26, 0x16, 0x21, 0x37,
  0x96, 0x8d, 0x25, 0x37, 0x45, 0x40, 0xc0, 0x37, 0x2b, 0xcd, 0x1d, 0x37,
  0x9f, 0xf2, 0x63, 0x37, 0x4d, 0xa8, 0x69, 0x37, 0x4b, 0x07, 0x5b, 0x37,
  0x88, 0x6e, 0x3a, 0x37, 0x91, 0xfc, 0xf1, 0x37, 0x41, 0x25, 0x3c, 0x37,
  0x0e, 0x81, 0x23, 0x37, 0x17, 0xa1, 0x60, 0x37, 0x2c, 0xb3, 0x26, 0x37,
  0x04, 0xcb, 0x24, 0x37, 0x7e, 0xa2, 0xca, 0x37, 0x6a, 0xc4, 0x57, 0x37,
  0x89, 0x32, 0x91, 0x37, 0x57, 0x49, 0x27, 0x37, 0x9a, 0x1a, 0xc3, 0x37,
  0x3b, 0xd0, 0x4c, 0x37, 0x7f, 0xe8, 0x26, 0x37, 0x7b, 0x99, 0x1c, 0x37,
  0xc0, 0xe1, 0x23, 0x37, 0x5b, 0x58, 0x82, 0x37, 0x8d, 0xb0, 0xa6, 0x37,
  0x3d, 0x26, 0x6e, 0x37, 0x2f, 0x67, 0x62, 0x37, 0x12, 0x00, 0x00, 0x00,
  0x74, 0x66, 0x6c, 0x2e, 0x70, 0x73, 0x65, 0x75, 0x64, 0x6f, 0x5f, 0x71,
  0x63, 0x6f, 0x6e, 0x73, 0x74, 0x32, 0x00, 0x00, 0x01, 0x00, 0x00, 0x00,
  0x20, 0x00, 0x00, 0x00, 0x9e, 0xff, 0xff, 0xff, 0x00, 0x00, 0x00, 0x01,
  0x14, 0x00, 0x00, 0x00, 0x30, 0x00, 0x00, 0x00, 0x03, 0x00, 0x00, 0x00,
  0x00, 0x00, 0x00, 0x09, 0x3c, 0x00, 0x00, 0x00, 0x04, 0xff, 0xff, 0xff,
  0x08, 0x00, 0x00, 0x00, 0x10, 0x00, 0x00, 0x00, 0x01, 0x00, 0x00, 0x00,
  0x00, 0x00, 0x00, 0x00, 0x00, 0x00, 0x00, 0x00, 0x01, 0x00, 0x00, 0x00,
  0x0b, 0x78, 0xc9, 0x3b, 0x12, 0x00, 0x00, 0x00, 0x74, 0x66, 0x6c, 0x2e,
  0x70, 0x73, 0x65, 0x75, 0x64, 0x6f, 0x5f, 0x71, 0x63, 0x6f, 0x6e, 0x73,
  0x74, 0x31, 0x00, 0x00, 0x02, 0x00, 0x00, 0x00, 0x01, 0x00, 0x00, 0x00,
  0x20, 0x00, 0x00, 0x00, 0x00, 0x00, 0x16, 0x00, 0x1c, 0x00, 0x18, 0x00,
  0x17, 0x00, 0x10, 0x00, 0x0c, 0x00, 0x08, 0x00, 0x00, 0x00, 0x00, 0x00,
  0x00, 0x00, 0x07, 0x00, 0x16, 0x00, 0x00, 0x00, 0x00, 0x00, 0x00, 0x01,
  0x14, 0x00, 0x00, 0x00, 0x30, 0x00, 0x00, 0x00, 0x02, 0x00, 0x00, 0x00,
  0x00, 0x00, 0x00, 0x02, 0x3c, 0x00, 0x00, 0x00, 0x7c, 0xff, 0xff, 0xff,
  0x08, 0x00, 0x00, 0x00, 0x10, 0x00, 0x00, 0x00, 0x01, 0x00, 0x00, 0x00,
  0x00, 0x00, 0x00, 0x00, 0x00, 0x00, 0x00, 0x00, 0x01, 0x00, 0x00, 0x00,
  0x88, 0xbe, 0x27, 0x38, 0x11, 0x00, 0x00, 0x00, 0x74, 0x66, 0x6c, 0x2e,
  0x70, 0x73, 0x65, 0x75, 0x64, 0x6f, 0x5f, 0x71, 0x63, 0x6f, 0x6e, 0x73,
  0x74, 0x00, 0x00, 0x00, 0x01, 0x00, 0x00, 0x00, 0x01, 0x00, 0x00, 0x00,
  0x00, 0x00, 0x16, 0x00, 0x20, 0x00, 0x1c, 0x00, 0x1b, 0x00, 0x14, 0x00,
  0x10, 0x00, 0x0c, 0x00, 0x00, 0x00, 0x00, 0x00, 0x08, 0x00, 0x07, 0x00,
  0x16, 0x00, 0x00, 0x00, 0x00, 0x00, 0x00, 0x01, 0x18, 0x00, 0x00, 0x00,
  0x2c, 0x00, 0x00, 0x00, 0x4c, 0x00, 0x00, 0x00, 0x01, 0x00, 0x00, 0x00,
  0x00, 0x00, 0x00, 0x09, 0x64, 0x00, 0x00, 0x00, 0x02, 0x00, 0x00, 0x00,
  0xff, 0xff, 0xff, 0xff, 0x01, 0x00, 0x00, 0x00, 0x0c, 0x00, 0x0c, 0x00,
  0x00, 0x00, 0x00, 0x00, 0x08, 0x00, 0x04, 0x00, 0x0c, 0x00, 0x00, 0x00,
  0x08, 0x00, 0x00, 0x00, 0x14, 0x00, 0x00, 0x00, 0x01, 0x00, 0x00, 0x00,
  0x80, 0xff, 0xff, 0xff, 0xff, 0xff, 0xff, 0xff, 0x00, 0x00, 0x00, 0x00,
  0x01, 0x00, 0x00, 0x00, 0x27, 0xc5, 0xc7, 0x3c, 0x1e, 0x00, 0x00, 0x00,
  0x73, 0x65, 0x72, 0x76, 0x69, 0x6e, 0x67, 0x5f, 0x64, 0x65, 0x66, 0x61,
  0x75, 0x6c, 0x74, 0x5f, 0x6b, 0x65, 0x72, 0x61, 0x73, 0x5f, 0x74, 0x65,
  0x6e, 0x73, 0x6f, 0x72, 0x3a, 0x30, 0x00, 0x00, 0x02, 0x00, 0x00, 0x00,
  0x01, 0x00, 0x00, 0x00, 0x01, 0x00, 0x00, 0x00, 0x01, 0x00, 0x00, 0x00,
  0x10, 0x00, 0x00, 0x00, 0x0c, 0x00, 0x10, 0x00, 0x0f, 0x00, 0x00, 0x00,
  0x08, 0x00, 0x04, 0x00, 0x0c, 0x00, 0x00, 0x00, 0x09, 0x00, 0x00, 0x00,
  0x04, 0x00, 0x00, 0x00, 0x00, 0x00, 0x00, 0x09
};
unsigned int models_complex_sine_model_quantized_tflite_len = 11336;
