unsigned char models_complex_sine_model_quantized_tflite[] = {
  0x20, 0x00, 0x00, 0x00, 0x54, 0x46, 0x4c, 0x33, 0x00, 0x00, 0x00, 0x00,
  0x14, 0x00, 0x20, 0x00, 0x1c, 0x00, 0x18, 0x00, 0x14, 0x00, 0x10, 0x00,
  0x0c, 0x00, 0x00, 0x00, 0x08, 0x00, 0x04, 0x00, 0x14, 0x00, 0x00, 0x00,
  0x1c, 0x00, 0x00, 0x00, 0x8c, 0x00, 0x00, 0x00, 0x0c, 0x01, 0x00, 0x00,
  0x68, 0x08, 0x00, 0x00, 0x78, 0x08, 0x00, 0x00, 0xa4, 0x19, 0x00, 0x00,
  0x03, 0x00, 0x00, 0x00, 0x01, 0x00, 0x00, 0x00, 0x04, 0x00, 0x00, 0x00,
  0x3e, 0xf7, 0xff, 0xff, 0x0c, 0x00, 0x00, 0x00, 0x1c, 0x00, 0x00, 0x00,
  0x3c, 0x00, 0x00, 0x00, 0x0f, 0x00, 0x00, 0x00, 0x73, 0x65, 0x72, 0x76,
  0x69, 0x6e, 0x67, 0x5f, 0x64, 0x65, 0x66, 0x61, 0x75, 0x6c, 0x74, 0x00,
  0x01, 0x00, 0x00, 0x00, 0x04, 0x00, 0x00, 0x00, 0x68, 0xff, 0xff, 0xff,
  0x11, 0x00, 0x00, 0x00, 0x04, 0x00, 0x00, 0x00, 0x08, 0x00, 0x00, 0x00,
  0x6f, 0x75, 0x74, 0x70, 0x75, 0x74, 0x5f, 0x30, 0x00, 0x00, 0x00, 0x00,
  0x01, 0x00, 0x00, 0x00, 0x04, 0x00, 0x00, 0x00, 0x1e, 0xf8, 0xff, 0xff,
  0x04, 0x00, 0x00, 0x00, 0x0c, 0x00, 0x00, 0x00, 0x6b, 0x65, 0x72, 0x61,
  0x73, 0x5f, 0x74, 0x65, 0x6e, 0x73, 0x6f, 0x72, 0x00, 0x00, 0x00, 0x00,
  0x03, 0x00, 0x00, 0x00, 0x5c, 0x00, 0x00, 0x00, 0x2c, 0x00, 0x00, 0x00,
  0x04, 0x00, 0x00, 0x00, 0xb8, 0xff, 0xff, 0xff, 0x15, 0x00, 0x00, 0x00,
  0x04, 0x00, 0x00, 0x00, 0x13, 0x00, 0x00, 0x00, 0x43, 0x4f, 0x4e, 0x56,
  0x45, 0x52, 0x53, 0x49, 0x4f, 0x4e, 0x5f, 0x4d, 0x45, 0x54, 0x41, 0x44,
  0x41, 0x54, 0x41, 0x00, 0xdc, 0xff, 0xff, 0xff, 0x14, 0x00, 0x00, 0x00,
  0x04, 0x00, 0x00, 0x00, 0x13, 0x00, 0x00, 0x00, 0x6d, 0x69, 0x6e, 0x5f,
  0x72, 0x75, 0x6e, 0x74, 0x69, 0x6d, 0x65, 0x5f, 0x76, 0x65, 0x72, 0x73,
  0x69, 0x6f, 0x6e, 0x00, 0x08, 0x00, 0x0c, 0x00, 0x08, 0x00, 0x04, 0x00,
  0x08, 0x00, 0x00, 0x00, 0x13, 0x00, 0x00, 0x00, 0x04, 0x00, 0x00, 0x00,
  0x13, 0x00, 0x00, 0x00, 0x6d, 0x69, 0x6e, 0x5f, 0x72, 0x75, 0x6e, 0x74,
  0x69, 0x6d, 0x65, 0x5f, 0x76, 0x65, 0x72, 0x73, 0x69, 0x6f, 0x6e, 0x00,
  0x16, 0x00, 0x00, 0x00, 0x58, 0x07, 0x00, 0x00, 0x50, 0x07, 0x00, 0x00,
  0x3c, 0x07, 0x00, 0x00, 0x14, 0x07, 0x00, 0x00, 0xc4, 0x06, 0x00, 0x00,
  0xb4, 0x04, 0x00, 0x00, 0x24, 0x04, 0x00, 0x00, 0x14, 0x02, 0x00, 0x00,
  0xc4, 0x01, 0x00, 0x00, 0x34, 0x01, 0x00, 0x00, 0x04, 0x01, 0x00, 0x00,
  0xec, 0x00, 0x00, 0x00, 0xe4, 0x00, 0x00, 0x00, 0xdc, 0x00, 0x00, 0x00,
  0xd4, 0x00, 0x00, 0x00, 0xcc, 0x00, 0x00, 0x00, 0xc4, 0x00, 0x00, 0x00,
  0xbc, 0x00, 0x00, 0x00, 0xb4, 0x00, 0x00, 0x00, 0x94, 0x00, 0x00, 0x00,
  0x74, 0x00, 0x00, 0x00, 0x04, 0x00, 0x00, 0x00, 0x1a, 0xf9, 0xff, 0xff,
  0x04, 0x00, 0x00, 0x00, 0x60, 0x00, 0x00, 0x00, 0x0c, 0x00, 0x00, 0x00,
  0x08, 0x00, 0x0e, 0x00, 0x08, 0x00, 0x04, 0x00, 0x08, 0x00, 0x00, 0x00,
  0x10, 0x00, 0x00, 0x00, 0x28, 0x00, 0x00, 0x00, 0x00, 0x00, 0x06, 0x00,
  0x08, 0x00, 0x04, 0x00, 0x06, 0x00, 0x00, 0x00, 0x04, 0x00, 0x00, 0x00,
  0x01, 0x00, 0x00, 0x00, 0xeb, 0x03, 0x00, 0x00, 0x0c, 0x00, 0x18, 0x00,
  0x14, 0x00, 0x10, 0x00, 0x0c, 0x00, 0x04, 0x00, 0x0c, 0x00, 0x00, 0x00,
  0x4a, 0xcd, 0x4c, 0x6f, 0x69, 0x7e, 0x44, 0x16, 0x02, 0x00, 0x00, 0x00,
  0x02, 0x00, 0x00, 0x00, 0x04, 0x00, 0x00, 0x00, 0x06, 0x00, 0x00, 0x00,
  0x32, 0x2e, 0x31, 0x39, 0x2e, 0x30, 0x00, 0x00, 0x86, 0xf9, 0xff, 0xff,
  0x04, 0x00, 0x00, 0x00, 0x10, 0x00, 0x00, 0x00, 0x00, 0x00, 0x00, 0x00,
  0x00, 0x00, 0x00, 0x00, 0x00, 0x00, 0x00, 0x00, 0x00, 0x00, 0x00, 0x00,
  0xa2, 0xf9, 0xff, 0xff, 0x04, 0x00, 0x00, 0x00, 0x10, 0x00, 0x00, 0x00,
  0x31, 0x2e, 0x31, 0x34, 0x2e, 0x30, 0x00, 0x00, 0x00, 0x00, 0x00, 0x00,
  0x00, 0x00, 0x00, 0x00, 0x94, 0xe8, 0xff, 0xff, 0x98, 0xe8, 0xff, 0xff,
  0x9c, 0xe8, 0xff, 0xff, 0xa0, 0xe8, 0xff, 0xff, 0xa4, 0xe8, 0xff, 0xff,
  0xa8, 0xe8, 0xff, 0xff, 0xac, 0xe8, 0xff, 0xff, 0xda, 0xf9, 0xff, 0xff,
  0x04, 0x00, 0x00, 0x00, 0x08, 0x00, 0x00, 0x00, 0x7f, 0x81, 0x81, 0x7f,
  0x7f, 0x7f, 0x81, 0x81, 0xee, 0xf9, 0xff, 0xff, 0x04, 0x00, 0x00, 0x00,
  0x20, 0x00, 0x00, 0x00, 0x58, 0xfc, 0xff, 0xff, 0x00, 0x00, 0x00, 0x00,
  0x00, 0x00, 0x00, 0x00, 0xf0, 0xf5, 0xff, 0xff, 0xc7, 0x31, 0x00, 0x00,
  0x04, 0x07, 0x00, 0x00, 0x00, 0x00, 0x00, 0x00, 0x00, 0x00, 0x00, 0x00,
  0x1a, 0xfa, 0xff, 0xff, 0x04, 0x00, 0x00, 0x00, 0x80, 0x00, 0x00, 0x00,
  0xaf, 0xd3, 0x7f, 0xba, 0xc7, 0xb2, 0x4e, 0x3c, 0xf0, 0x51, 0x41, 0x26,
  0x11, 0x9a, 0x60, 0x81, 0x6b, 0xb6, 0xeb, 0x7c, 0x40, 0xaa, 0x44, 0x7f,
  0x7c, 0x76, 0x54, 0x11, 0x81, 0x9a, 0xc7, 0x8a, 0x7f, 0x48, 0xb8, 0x70,
  0x86, 0x79, 0x10, 0x2e, 0xea, 0x3e, 0xd2, 0x81, 0x67, 0x56, 0x6f, 0xa0,
  0xcd, 0xe7, 0x7a, 0x77, 0xd7, 0x81, 0x0a, 0x22, 0x1a, 0x81, 0x88, 0xae,
  0x98, 0x8f, 0xc6, 0x9e, 0xab, 0xbb, 0x8b, 0x7f, 0x7e, 0x3f, 0x5f, 0x08,
  0x81, 0x43, 0x9e, 0xa6, 0x27, 0xa2, 0xd1, 0xde, 0x1c, 0xfc, 0xac, 0x7f,
  0x2d, 0x51, 0xce, 0xa8, 0x42, 0x1a, 0x49, 0x7d, 0xfe, 0x7a, 0xa6, 0x7f,
  0xd6, 0x17, 0x1a, 0xa5, 0x27, 0x7f, 0xa9, 0x10, 0xe9, 0x15, 0x7f, 0xe5,
  0xbb, 0xc7, 0xf9, 0xcd, 0x47, 0x97, 0xed, 0xa7, 0x81, 0x7b, 0xc5, 0x11,
  0xcd, 0x0a, 0x8d, 0xb2, 0x17, 0x14, 0x81, 0xdc, 0xa6, 0xfa, 0xff, 0xff,
  0x04, 0x00, 0x00, 0x00, 0x40, 0x00, 0x00, 0x00, 0x00, 0x00, 0x00, 0x00,
  0x59, 0x17, 0x00, 0x00, 0xce, 0xff, 0xff, 0xff, 0xa5, 0xe7, 0xff, 0xff,
  0xb4, 0xee, 0xff, 0xff, 0x19, 0x1d, 0x00, 0x00, 0x00, 0x00, 0x00, 0x00,
  0x00, 0x00, 0x00, 0x00, 0xad, 0xe9, 0xff, 0xff, 0x80, 0x08, 0x00, 0x00,
  0x1a, 0xdc, 0xff, 0xff, 0xb9, 0x0b, 0x00, 0x00, 0x14, 0x19, 0x00, 0x00,
  0x00, 0x00, 0x00, 0x00, 0xb0, 0x1d, 0x00, 0x00, 0x05, 0x0d, 0x00, 0x00,
  0xf2, 0xfa, 0xff, 0xff, 0x04, 0x00, 0x00, 0x00, 0x00, 0x02, 0x00, 0x00,
  0xeb, 0xb4, 0xcc, 0xc4, 0xd1, 0x1b, 0x17, 0x81, 0xd1, 0x0b, 0xc9, 0xca,
  0xb7, 0x41, 0x21, 0xcd, 0x49, 0xee, 0xf3, 0x8f, 0xff, 0x3c, 0x25, 0x07,
  0xea, 0xa2, 0xef, 0x05, 0x7f, 0x46, 0x2d, 0xcd, 0x36, 0xdd, 0xfe, 0x29,
  0x6a, 0x4a, 0x54, 0xdd, 0x7f, 0xf4, 0xf3, 0x45, 0x96, 0xd7, 0x2c, 0xe1,
  0xc1, 0xcd, 0x7f, 0xd2, 0x17, 0xde, 0x98, 0x55, 0x65, 0x4a, 0x10, 0xea,
  0x12, 0x55, 0x1d, 0xcd, 0xe7, 0xd7, 0x4b, 0x08, 0xe5, 0x0f, 0x19, 0xa1,
  0xcf, 0x84, 0x7f, 0x3d, 0xc9, 0xee, 0xd8, 0x60, 0xe6, 0x48, 0x1e, 0x3e,
  0xc7, 0xe6, 0x3a, 0xd9, 0xe1, 0x7f, 0x02, 0xcb, 0xea, 0x23, 0x16, 0xe7,
  0x4c, 0x10, 0x57, 0x24, 0xfe, 0xd3, 0x3e, 0x09, 0x27, 0xd8, 0xe3, 0x07,
  0xe1, 0x17, 0x33, 0x81, 0xcd, 0x13, 0xcc, 0x07, 0xd2, 0x61, 0xef, 0xd8,
  0xe9, 0xc1, 0x00, 0x1e, 0x7f, 0x42, 0x4b, 0xca, 0xc0, 0x44, 0x13, 0xb8,
  0x39, 0x52, 0xeb, 0xc2, 0xf3, 0x81, 0x21, 0x1a, 0x0c, 0x27, 0x39, 0xcb,
  0xb2, 0x81, 0x0b, 0xfd, 0x62, 0xb2, 0x02, 0x37, 0x5e, 0x28, 0xc7, 0xfd,
  0xe1, 0x18, 0x47, 0x8b, 0x10, 0x81, 0x1a, 0xfb, 0x16, 0xd4, 0x14, 0xf5,
  0x2d, 0x0f, 0x4c, 0xe7, 0xa2, 0x02, 0x02, 0x12, 0xe3, 0xd0, 0x6d, 0x88,
  0x03, 0xe2, 0x02, 0x7a, 0xa9, 0xb5, 0x0e, 0x81, 0xbd, 0x69, 0xf8, 0x61,
  0xf5, 0xf9, 0x34, 0xdb, 0xc5, 0x7f, 0x12, 0xaf, 0xd2, 0x9b, 0x1f, 0xc3,
  0x50, 0x2a, 0x2f, 0x94, 0x4f, 0x30, 0x81, 0x3d, 0x8d, 0x61, 0x5c, 0x2b,
  0x0a, 0xe5, 0x24, 0x98, 0x5e, 0xa9, 0xd9, 0x3f, 0xb2, 0x81, 0x3d, 0x72,
  0x54, 0xe8, 0x49, 0xeb, 0xee, 0xbb, 0x28, 0xcd, 0x29, 0x38, 0xe3, 0xd9,
  0xbc, 0x33, 0x87, 0xb1, 0x81, 0x4c, 0xf3, 0xd8, 0xf7, 0x7e, 0xb8, 0x99,
  0x1d, 0x4a, 0xb4, 0x61, 0x23, 0xbc, 0xd9, 0xb9, 0x47, 0xa1, 0xd8, 0x81,
  0x93, 0xda, 0x8e, 0x23, 0xac, 0xd9, 0x52, 0xc8, 0x97, 0xd6, 0xe9, 0x06,
  0x32, 0xba, 0xb7, 0xf5, 0xab, 0x11, 0x22, 0xb8, 0x90, 0x0f, 0xa3, 0x81,
  0xc5, 0x81, 0xe6, 0x3e, 0x49, 0xd1, 0xc1, 0xf8, 0x27, 0xdf, 0xfc, 0x33,
  0x98, 0x16, 0x00, 0xe1, 0xbb, 0xf3, 0x4c, 0x4e, 0x56, 0xdc, 0xd1, 0xc3,
  0xdd, 0xec, 0x62, 0x5f, 0x7f, 0x09, 0x21, 0xe2, 0x23, 0x2f, 0xfb, 0xa9,
  0x3b, 0x23, 0x29, 0x43, 0xfa, 0x81, 0x1c, 0xb3, 0x51, 0x46, 0x47, 0xb6,
  0x18, 0x8b, 0x8b, 0x38, 0x8e, 0xf7, 0x7f, 0xf4, 0xaf, 0x51, 0x00, 0xd6,
  0xb7, 0xd0, 0xac, 0xff, 0xc3, 0x02, 0x06, 0x81, 0xd5, 0x4e, 0xe0, 0xd3,
  0xe0, 0xeb, 0x30, 0x3b, 0x43, 0x1b, 0xf5, 0xf7, 0xba, 0x5b, 0xf2, 0xeb,
  0xce, 0x71, 0xfd, 0x04, 0xff, 0xef, 0x25, 0xe8, 0x7f, 0x24, 0x5d, 0xb1,
  0x3e, 0xbf, 0x19, 0x7f, 0xb2, 0x89, 0x9c, 0xef, 0x2f, 0xb4, 0x3c, 0xc7,
  0x41, 0x70, 0xe6, 0x21, 0x51, 0x0f, 0xea, 0x3a, 0xb4, 0x53, 0x62, 0xc5,
  0xb9, 0x7f, 0x50, 0x84, 0x58, 0x32, 0x3c, 0x56, 0xfa, 0xf7, 0xe8, 0x85,
  0x44, 0xc1, 0xe8, 0xe6, 0xa0, 0x81, 0xa3, 0x50, 0x26, 0xae, 0xd9, 0xf3,
  0xb5, 0xb7, 0x44, 0xfe, 0xe9, 0xec, 0x22, 0x4a, 0xd2, 0xaa, 0xed, 0x27,
  0x81, 0xf6, 0xe7, 0xfc, 0xb4, 0x7f, 0x4d, 0x18, 0xe1, 0x25, 0xfa, 0xe2,
  0xc4, 0x03, 0x94, 0x0b, 0x41, 0x2b, 0xf4, 0x06, 0x60, 0xda, 0x47, 0xbb,
  0xfc, 0x5a, 0xbf, 0x9e, 0x2e, 0x03, 0x9a, 0xf2, 0x7f, 0x41, 0x71, 0xb4,
  0xbf, 0x32, 0x85, 0x13, 0x0b, 0x6b, 0x19, 0x01, 0xc0, 0x7f, 0xcf, 0x9d,
  0x0f, 0xcb, 0x06, 0xe8, 0x81, 0xa8, 0x24, 0x33, 0x41, 0xbd, 0x9b, 0x9e,
  0x4d, 0x70, 0xca, 0x87, 0x1f, 0xe2, 0xcf, 0x49, 0xfe, 0xfc, 0xff, 0xff,
  0x04, 0x00, 0x00, 0x00, 0x80, 0x00, 0x00, 0x00, 0x00, 0x00, 0x00, 0x00,
  0x4d, 0x10, 0x00, 0x00, 0x98, 0xcd, 0xff, 0xff, 0xf1, 0xd8, 0xff, 0xff,
  0x75, 0xde, 0xff, 0xff, 0x87, 0x01, 0x00, 0x00, 0x9f, 0x12, 0x00, 0x00,
  0xc2, 0x19, 0x00, 0x00, 0x90, 0x05, 0x00, 0x00, 0x63, 0xfb, 0xff, 0xff,
  0x1d, 0xee, 0xff, 0xff, 0x00, 0x00, 0x00, 0x00, 0x64, 0x1a, 0x00, 0x00,
  0x76, 0x16, 0x00, 0x00, 0xfb, 0xc9, 0xff, 0xff, 0x65, 0x11, 0x00, 0x00,
  0x20, 0x66, 0x00, 0x00, 0xc6, 0x4b, 0x00, 0x00, 0x6d, 0xf7, 0xff, 0xff,
  0x0c, 0xd9, 0xff, 0xff, 0x19, 0x40, 0x00, 0x00, 0x00, 0x00, 0x00, 0x00,
  0x5e, 0x38, 0x00, 0x00, 0x9c, 0x12, 0x00, 0x00, 0x00, 0x00, 0x00, 0x00,
  0x26, 0x1c, 0x00, 0x00, 0x30, 0x1f, 0x00, 0x00, 0xc8, 0x1d, 0x00, 0x00,
  0xb6, 0x1e, 0x00, 0x00, 0xc7, 0x2d, 0x00, 0x00, 0xf5, 0x19, 0x00, 0x00,
  0xbf, 0xfc, 0xff, 0xff, 0x8a, 0xfd, 0xff, 0xff, 0x04, 0x00, 0x00, 0x00,
  0x00, 0x02, 0x00, 0x00, 0xae, 0x96, 0xf2, 0x93, 0x71, 0x4d, 0xad, 0xfb,
  0x15, 0x11, 0xd3, 0xa9, 0x31, 0x86, 0x55, 0xb1, 0xfd, 0x04, 0x73, 0xe5,
  0xb3, 0x92, 0xc2, 0x0a, 0xf6, 0x96, 0x81, 0xf4, 0xa4, 0x02, 0x83, 0x1a,
  0xb5, 0x7f, 0xb8, 0x5c, 0xd9, 0xb0, 0xba, 0x20, 0x59, 0xcc, 0xd9, 0xe0,
  0x40, 0x91, 0x0f, 0x90, 0xb8, 0x98, 0x07, 0x48, 0x14, 0xe0, 0x3c, 0x51,
  0x30, 0x9f, 0xe0, 0x9b, 0x28, 0x07, 0x95, 0xe2, 0xca, 0xf0, 0xf7, 0x0f,
  0x45, 0x2d, 0x50, 0x2d, 0x72, 0x7f, 0x17, 0xd6, 0x8b, 0xde, 0xd2, 0x22,
  0xd3, 0xba, 0x1c, 0x52, 0x0f, 0x53, 0xba, 0x0e, 0x45, 0x38, 0xfe, 0xec,
  0xa5, 0x01, 0xe9, 0x1c, 0xff, 0x11, 0x59, 0x9f, 0x26, 0x13, 0xfd, 0x4b,
  0xdd, 0x2b, 0xc2, 0xb6, 0x59, 0xd2, 0x49, 0x86, 0xdb, 0x13, 0x26, 0x72,
  0x18, 0x5e, 0x81, 0x22, 0x67, 0x29, 0x3e, 0xd3, 0x3f, 0xde, 0xe5, 0xf6,
  0x26, 0x2e, 0xe6, 0x15, 0x81, 0x3b, 0xa7, 0x5a, 0xca, 0xbb, 0xe9, 0xf2,
  0x48, 0x29, 0x21, 0x63, 0xf4, 0xd8, 0xa0, 0x1f, 0xd7, 0xdb, 0xfa, 0x29,
  0x19, 0x38, 0x21, 0x26, 0xc4, 0xe4, 0x69, 0x26, 0xf6, 0x92, 0x1f, 0x65,
  0xd1, 0x6c, 0x81, 0xba, 0xdf, 0xf0, 0x4a, 0xa5, 0xe6, 0xd5, 0x54, 0x89,
  0xf9, 0x8c, 0xe9, 0xa3, 0x13, 0x31, 0x36, 0x07, 0x09, 0x66, 0x82, 0xaa,
  0xf5, 0xf0, 0x83, 0x6e, 0x38, 0x65, 0x34, 0x03, 0xd3, 0x97, 0x00, 0x3b,
  0x2b, 0xf6, 0x6e, 0xfc, 0x7f, 0x2d, 0xf5, 0xe1, 0x8a, 0xed, 0xef, 0x46,
  0xbd, 0x2b, 0x11, 0x6f, 0xcb, 0xf9, 0x31, 0xb1, 0x69, 0x9c, 0x27, 0x3c,
  0xd5, 0x59, 0xe8, 0xb8, 0x37, 0xe6, 0x81, 0xfc, 0x0c, 0xdb, 0x47, 0x38,
  0x96, 0xc7, 0x9c, 0x2c, 0xce, 0xfa, 0xce, 0x44, 0x03, 0xbe, 0xc0, 0xc0,
  0x84, 0x8a, 0x99, 0x4b, 0x16, 0x23, 0x2d, 0x4d, 0xc5, 0x04, 0xb6, 0xb9,
  0xe0, 0x18, 0xb3, 0x3a, 0xee, 0x93, 0x17, 0x26, 0x50, 0x61, 0xa1, 0x7f,
  0xa2, 0xdc, 0x8b, 0x29, 0x0d, 0x06, 0xff, 0xeb, 0xe5, 0x32, 0x10, 0x21,
  0x62, 0xcb, 0x4f, 0xd5, 0x1e, 0x30, 0xb8, 0x15, 0xa9, 0x81, 0xeb, 0xe0,
  0xf9, 0xbe, 0xba, 0xdc, 0x5b, 0xa0, 0xad, 0x15, 0xd1, 0xd5, 0xaf, 0x25,
  0xc4, 0xc8, 0x30, 0x50, 0x06, 0xea, 0x1f, 0x00, 0x39, 0x5f, 0xd4, 0xe9,
  0x32, 0xb3, 0x15, 0xbd, 0x0a, 0xcd, 0xf8, 0xa8, 0x26, 0x21, 0xf8, 0x0e,
  0x81, 0xcf, 0xbb, 0x14, 0x20, 0x35, 0xc3, 0x37, 0x46, 0x0e, 0xf1, 0xfb,
  0xf6, 0xf7, 0x45, 0x30, 0xa3, 0xf2, 0x36, 0xee, 0x3d, 0xca, 0x58, 0x42,
  0x70, 0x12, 0xd8, 0xf7, 0xf1, 0x48, 0x60, 0x1c, 0xe7, 0x1e, 0x7f, 0x25,
  0x86, 0xb8, 0x41, 0x2b, 0xa2, 0x3d, 0x90, 0xf9, 0xb8, 0xd9, 0xa0, 0xf5,
  0xcc, 0xb8, 0xb9, 0x12, 0xf1, 0xe6, 0x12, 0x29, 0xff, 0x5e, 0x45, 0xb5,
  0xd9, 0x11, 0x43, 0x2b, 0x81, 0x55, 0xe2, 0x61, 0x4a, 0x1c, 0x4a, 0xfd,
  0x10, 0xd4, 0x5a, 0xb9, 0x4d, 0x2f, 0x16, 0x57, 0xa2, 0xf9, 0x62, 0xf0,
  0xd5, 0x31, 0xf9, 0x96, 0x9b, 0xa4, 0xf3, 0x7f, 0xd3, 0x35, 0xa5, 0xf4,
  0xf2, 0xad, 0x2b, 0xd6, 0xff, 0x31, 0xf0, 0x06, 0x6c, 0x24, 0xc7, 0x0f,
  0x4a, 0x9d, 0x67, 0x0c, 0x6e, 0xf1, 0x1d, 0x2d, 0x45, 0x0e, 0xf3, 0x97,
  0xbb, 0x99, 0xc1, 0x7f, 0x4c, 0xd6, 0xa2, 0xac, 0x4b, 0xcb, 0xbe, 0x8e,
  0x0a, 0xff, 0xb4, 0xf0, 0x23, 0xa9, 0x57, 0x27, 0xec, 0xb1, 0xf9, 0x0b,
  0xe8, 0x43, 0xd6, 0x3d, 0xd9, 0x65, 0xf8, 0xf9, 0x43, 0x87, 0xe8, 0xc7,
  0xb6, 0xc1, 0xe8, 0xb7, 0xc7, 0xcc, 0x61, 0x76, 0x81, 0xfb, 0xe4, 0xfc,
  0x29, 0xc0, 0x93, 0x20, 0x94, 0x46, 0x07, 0x5d, 0xbe, 0xbb, 0x83, 0x08,
  0x96, 0xff, 0xff, 0xff, 0x04, 0x00, 0x00, 0x00, 0x40, 0x00, 0x00, 0x00,
  0x00, 0x00, 0x00, 0x00, 0x69, 0xf8, 0xff, 0xff, 0x0a, 0x10, 0x00, 0x00,
  0x1c, 0xf4, 0xff, 0xff, 0x6c, 0x05, 0x00, 0x00, 0x00, 0x00, 0x00, 0x00,
  0x82, 0xef, 0xff, 0xff, 0x00, 0x00, 0x00, 0x00, 0x8a, 0x03, 0x00, 0x00,
  0xec, 0x0b, 0x00, 0x00, 0xb4, 0x0d, 0x00, 0x00, 0x31, 0xc8, 0xff, 0xff,
  0xe8, 0x0b, 0x00, 0x00, 0x4d, 0x14, 0x00, 0x00, 0x57, 0x0f, 0x00, 0x00,
  0x00, 0x00, 0x00, 0x00, 0xe2, 0xff, 0xff, 0xff, 0x04, 0x00, 0x00, 0x00,
  0x10, 0x00, 0x00, 0x00, 0xe2, 0x1f, 0xdf, 0x14, 0xdd, 0x21, 0x25, 0xd0,
  0xcb, 0x24, 0xf5, 0x7f, 0xca, 0x23, 0x2c, 0xdc, 0x00, 0x00, 0x06, 0x00,
  0x08, 0x00, 0x04, 0x00, 0x06, 0x00, 0x00, 0x00, 0x04, 0x00, 0x00, 0x00,
  0x04, 0x00, 0x00, 0x00, 0x10, 0xfc, 0xff, 0xff, 0xec, 0xee, 0xff, 0xff,
  0xf0, 0xee, 0xff, 0xff, 0x0f, 0x00, 0x00, 0x00, 0x4d, 0x4c, 0x49, 0x52,
  0x20, 0x43, 0x6f, 0x6e, 0x76, 0x65, 0x72, 0x74, 0x65, 0x64, 0x2e, 0x00,
  0x01, 0x00, 0x00, 0x00, 0x14, 0x00, 0x00, 0x00, 0x00, 0x00, 0x0e, 0x00,
  0x18, 0x00, 0x14, 0x00, 0x10, 0x00, 0x0c, 0x00, 0x08, 0x00, 0x04, 0x00,
  0x0e, 0x00, 0x00, 0x00, 0x14, 0x00, 0x00, 0x00, 0x1c, 0x00, 0x00, 0x00,
  0xb8, 0x01, 0x00, 0x00, 0xbc, 0x01, 0x00, 0x00, 0xc0, 0x01, 0x00, 0x00,
  0x04, 0x00, 0x00, 0x00, 0x6d, 0x61, 0x69, 0x6e, 0x00, 0x00, 0x00, 0x00,
  0x07, 0x00, 0x00, 0x00, 0x80, 0x01, 0x00, 0x00, 0x30, 0x01, 0x00, 0x00,
  0xe4, 0x00, 0x00, 0x00, 0xa8, 0x00, 0x00, 0x00, 0x6c, 0x00, 0x00, 0x00,
  0x34, 0x00, 0x00, 0x00, 0x10, 0x00, 0x00, 0x00, 0x00, 0x00, 0x0a, 0x00,
  0x10, 0x00, 0x0c, 0x00, 0x08, 0x00, 0x04, 0x00, 0x0a, 0x00, 0x00, 0x00,
  0x0c, 0x00, 0x00, 0x00, 0x10, 0x00, 0x00, 0x00, 0x02, 0x00, 0x00, 0x00,
  0x01, 0x00, 0x00, 0x00, 0x11, 0x00, 0x00, 0x00, 0x01, 0x00, 0x00, 0x00,
  0x10, 0x00, 0x00, 0x00, 0x22, 0xff, 0xff, 0xff, 0x14, 0x00, 0x00, 0x00,
  0x00, 0x00, 0x00, 0x08, 0x10, 0x00, 0x00, 0x00, 0x14, 0x00, 0x00, 0x00,
  0x01, 0x00, 0x00, 0x00, 0xa8, 0xef, 0xff, 0xff, 0x01, 0x00, 0x00, 0x00,
  0x10, 0x00, 0x00, 0x00, 0x03, 0x00, 0x00, 0x00, 0x0f, 0x00, 0x00, 0x00,
  0x02, 0x00, 0x00, 0x00, 0x01, 0x00, 0x00, 0x00, 0x56, 0xff, 0xff, 0xff,
  0x14, 0x00, 0x00, 0x00, 0x00, 0x00, 0x00, 0x08, 0x14, 0x00, 0x00, 0x00,
  0x18, 0x00, 0x00, 0x00, 0x01, 0x00, 0x00, 0x00, 0x46, 0xff, 0xff, 0xff,
  0x00, 0x00, 0x00, 0x01, 0x01, 0x00, 0x00, 0x00, 0x0f, 0x00, 0x00, 0x00,
  0x03, 0x00, 0x00, 0x00, 0x0e, 0x00, 0x00, 0x00, 0x04, 0x00, 0x00, 0x00,
  0x03, 0x00, 0x00, 0x00, 0x8e, 0xff, 0xff, 0xff, 0x14, 0x00, 0x00, 0x00,
  0x00, 0x00, 0x00, 0x08, 0x14, 0x00, 0x00, 0x00, 0x18, 0x00, 0x00, 0x00,
  0x01, 0x00, 0x00, 0x00, 0x7e, 0xff, 0xff, 0xff, 0x00, 0x00, 0x00, 0x01,
  0x01, 0x00, 0x00, 0x00, 0x0e, 0x00, 0x00, 0x00, 0x03, 0x00, 0x00, 0x00,
  0x0d, 0x00, 0x00, 0x00, 0x06, 0x00, 0x00, 0x00, 0x05, 0x00, 0x00, 0x00,
  0xc6, 0xff, 0xff, 0xff, 0x14, 0x00, 0x00, 0x00, 0x00, 0x00, 0x00, 0x08,
  0x14, 0x00, 0x00, 0x00, 0x18, 0x00, 0x00, 0x00, 0x01, 0x00, 0x00, 0x00,
  0xb6, 0xff, 0xff, 0xff, 0x00, 0x00, 0x00, 0x01, 0x01, 0x00, 0x00, 0x00,
  0x0d, 0x00, 0x00, 0x00, 0x03, 0x00, 0x00, 0x00, 0x0c, 0x00, 0x00, 0x00,
  0x08, 0x00, 0x00, 0x00, 0x07, 0x00, 0x00, 0x00, 0x00, 0x00, 0x0e, 0x00,
  0x1a, 0x00, 0x14, 0x00, 0x10, 0x00, 0x0c, 0x00, 0x0b, 0x00, 0x04, 0x00,
  0x0e, 0x00, 0x00, 0x00, 0x1c, 0x00, 0x00, 0x00, 0x00, 0x00, 0x00, 0x08,
  0x1c, 0x00, 0x00, 0x00, 0x20, 0x00, 0x00, 0x00, 0x01, 0x00, 0x00, 0x00,
  0x00, 0x00, 0x06, 0x00, 0x08, 0x00, 0x07, 0x00, 0x06, 0x00, 0x00, 0x00,
  0x00, 0x00, 0x00, 0x01, 0x01, 0x00, 0x00, 0x00, 0x0c, 0x00, 0x00, 0x00,
  0x03, 0x00, 0x00, 0x00, 0x0b, 0x00, 0x00, 0x00, 0x0a, 0x00, 0x00, 0x00,
  0x09, 0x00, 0x00, 0x00, 0x00, 0x00, 0x0a, 0x00, 0x0c, 0x00, 0x00, 0x00,
  0x08, 0x00, 0x04, 0x00, 0x0a, 0x00, 0x00, 0x00, 0x08, 0x00, 0x00, 0x00,
  0x0c, 0x00, 0x00, 0x00, 0x01, 0x00, 0x00, 0x00, 0x0b, 0x00, 0x00, 0x00,
  0x01, 0x00, 0x00, 0x00, 0x00, 0x00, 0x00, 0x00, 0x01, 0x00, 0x00, 0x00,
  0x11, 0x00, 0x00, 0x00, 0x01, 0x00, 0x00, 0x00, 0x00, 0x00, 0x00, 0x00,
  0x12, 0x00, 0x00, 0x00, 0xe0, 0x0e, 0x00, 0x00, 0x58, 0x0e, 0x00, 0x00,
  0xd8, 0x0d, 0x00, 0x00, 0xc4, 0x0c, 0x00, 0x00, 0xa8, 0x0b, 0x00, 0x00,
  0xd4, 0x09, 0x00, 0x00, 0xf8, 0x07, 0x00, 0x00, 0xe4, 0x06, 0x00, 0x00,
  0xc8, 0x05, 0x00, 0x00, 0x14, 0x05, 0x00, 0x00, 0x58, 0x04, 0x00, 0x00,
  0xe4, 0x03, 0x00, 0x00, 0x18, 0x03, 0x00, 0x00, 0x5c, 0x02, 0x00, 0x00,
  0xa0, 0x01, 0x00, 0x00, 0xe4, 0x00, 0x00, 0x00, 0x60, 0x00, 0x00, 0x00,
  0x04, 0x00, 0x00, 0x00, 0x7e, 0xf1, 0xff, 0xff, 0x00, 0x00, 0x00, 0x01,
  0x14, 0x00, 0x00, 0x00, 0x1c, 0x00, 0x00, 0x00, 0x1c, 0x00, 0x00, 0x00,
  0x12, 0x00, 0x00, 0x00, 0x34, 0x00, 0x00, 0x00, 0x02, 0x00, 0x00, 0x00,
  0xff, 0xff, 0xff, 0xff, 0x01, 0x00, 0x00, 0x00, 0x68, 0xf1, 0xff, 0xff,
  0x1b, 0x00, 0x00, 0x00, 0x53, 0x74, 0x61, 0x74, 0x65, 0x66, 0x75, 0x6c,
  0x50, 0x61, 0x72, 0x74, 0x69, 0x74, 0x69, 0x6f, 0x6e, 0x65, 0x64, 0x43,
  0x61, 0x6c, 0x6c, 0x5f, 0x31, 0x3a, 0x30, 0x00, 0x02, 0x00, 0x00, 0x00,
  0x01, 0x00, 0x00, 0x00, 0x01, 0x00, 0x00, 0x00, 0xa6, 0xfc, 0xff, 0xff,
  0x00, 0x00, 0x00, 0x01, 0x18, 0x00, 0x00, 0x00, 0x20, 0x00, 0x00, 0x00,
  0x40, 0x00, 0x00, 0x00, 0x11, 0x00, 0x00, 0x00, 0x00, 0x00, 0x00, 0x09,
  0x58, 0x00, 0x00, 0x00, 0x02, 0x00, 0x00, 0x00, 0xff, 0xff, 0xff, 0xff,
  0x01, 0x00, 0x00, 0x00, 0x54, 0xf2, 0xff, 0xff, 0x08, 0x00, 0x00, 0x00,
  0x14, 0x00, 0x00, 0x00, 0x01, 0x00, 0x00, 0x00, 0xfe, 0xff, 0xff, 0xff,
  0xff, 0xff, 0xff, 0xff, 0x00, 0x00, 0x00, 0x00, 0x01, 0x00, 0x00, 0x00,
  0x86, 0x3c, 0xfb, 0x3b, 0x1c, 0x00, 0x00, 0x00, 0x53, 0x74, 0x61, 0x74,
  0x65, 0x66, 0x75, 0x6c, 0x50, 0x61, 0x72, 0x74, 0x69, 0x74, 0x69, 0x6f,
  0x6e, 0x65, 0x64, 0x43, 0x61, 0x6c, 0x6c, 0x5f, 0x31, 0x3a, 0x30, 0x31,
  0x00, 0x00, 0x00, 0x00, 0x02, 0x00, 0x00, 0x00, 0x01, 0x00, 0x00, 0x00,
  0x01, 0x00, 0x00, 0x00, 0x26, 0xfd, 0xff, 0xff, 0x00, 0x00, 0x00, 0x01,
  0x18, 0x00, 0x00, 0x00, 0x20, 0x00, 0x00, 0x00, 0x3c, 0x00, 0x00, 0x00,
  0x10, 0x00, 0x00, 0x00, 0x00, 0x00, 0x00, 0x09, 0x90, 0x00, 0x00, 0x00,
  0x02, 0x00, 0x00, 0x00, 0xff, 0xff, 0xff, 0xff, 0x10, 0x00, 0x00, 0x00,
  0xd4, 0xf2, 0xff, 0xff, 0x08, 0x00, 0x00, 0x00, 0x10, 0x00, 0x00, 0x00,
  0x01, 0x00, 0x00, 0x00, 0x80, 0xff, 0xff, 0xff, 0xff, 0xff, 0xff, 0xff,
  0x01, 0x00, 0x00, 0x00, 0x4f, 0x6e, 0xa7, 0x3b, 0x58, 0x00, 0x00, 0x00,
  0x73, 0x65, 0x71, 0x75, 0x65, 0x6e, 0x74, 0x69, 0x61, 0x6c, 0x5f, 0x31,
  0x2f, 0x64, 0x65, 0x6e, 0x73, 0x65, 0x5f, 0x33, 0x5f, 0x31, 0x2f, 0x4d,
  0x61, 0x74, 0x4d, 0x75, 0x6c, 0x3b, 0x73, 0x65, 0x71, 0x75, 0x65, 0x6e,
  0x74, 0x69, 0x61, 0x6c, 0x5f, 0x31, 0x2f, 0x64, 0x65, 0x6e, 0x73, 0x65,
  0x5f, 0x33, 0x5f, 0x31, 0x2f, 0x52, 0x65, 0x6c, 0x75, 0x3b, 0x73, 0x65,
  0x71, 0x75, 0x65, 0x6e, 0x74, 0x69, 0x61, 0x6c, 0x5f, 0x31, 0x2f, 0x64,
  0x65, 0x6e, 0x73, 0x65, 0x5f, 0x33, 0x5f, 0x31, 0x2f, 0x42, 0x69, 0x61,
  0x73, 0x41, 0x64, 0x64, 0x00, 0x00, 0x00, 0x00, 0x02, 0x00, 0x00, 0x00,
  0x01, 0x00, 0x00, 0x00, 0x10, 0x00, 0x00, 0x00, 0xde, 0xfd, 0xff, 0xff,
  0x00, 0x00, 0x00, 0x01, 0x18, 0x00, 0x00, 0x00, 0x20, 0x00, 0x00, 0x00,
  0x3c, 0x00, 0x00, 0x00, 0x0f, 0x00, 0x00, 0x00, 0x00, 0x00, 0x00, 0x09,
  0x90, 0x00, 0x00, 0x00, 0x02, 0x00, 0x00, 0x00, 0xff, 0xff, 0xff, 0xff,
  0x20, 0x00, 0x00, 0x00, 0x8c, 0xf3, 0xff, 0xff, 0x08, 0x00, 0x00, 0x00,
  0x10, 0x00, 0x00, 0x00, 0x01, 0x00, 0x00, 0x00, 0x80, 0xff, 0xff, 0xff,
  0xff, 0xff, 0xff, 0xff, 0x01, 0x00, 0x00, 0x00, 0x52, 0xd9, 0x06, 0x3c,
  0x58, 0x00, 0x00, 0x00, 0x73, 0x65, 0x71, 0x75, 0x65, 0x6e, 0x74, 0x69,
  0x61, 0x6c, 0x5f, 0x31, 0x2f, 0x64, 0x65, 0x6e, 0x73, 0x65, 0x5f, 0x32,
  0x5f, 0x31, 0x2f, 0x4d, 0x61, 0x74, 0x4d, 0x75, 0x6c, 0x3b, 0x73, 0x65,
  0x71, 0x75, 0x65, 0x6e, 0x74, 0x69, 0x61, 0x6c, 0x5f, 0x31, 0x2f, 0x64,
  0x65, 0x6e, 0x73, 0x65, 0x5f, 0x32, 0x5f, 0x31, 0x2f, 0x52, 0x65, 0x6c,
  0x75, 0x3b, 0x73, 0x65, 0x71, 0x75, 0x65, 0x6e, 0x74, 0x69, 0x61, 0x6c,
  0x5f, 0x31, 0x2f, 0x64, 0x65, 0x6e, 0x73, 0x65, 0x5f, 0x32, 0x5f, 0x31,
  0x2f, 0x42, 0x69, 0x61, 0x73, 0x41, 0x64, 0x64, 0x00, 0x00, 0x00, 0x00,
  0x02, 0x00, 0x00, 0x00, 0x01, 0x00, 0x00, 0x00, 0x20, 0x00, 0x00, 0x00,
  0x96, 0xfe, 0xff, 0xff, 0x00, 0x00, 0x00, 0x01, 0x18, 0x00, 0x00, 0x00,
  0x20, 0x00, 0x00, 0x00, 0x3c, 0x00, 0x00, 0x00, 0x0e, 0x00, 0x00, 0x00,
  0x00, 0x00, 0x00, 0x09, 0x90, 0x00, 0x00, 0x00, 0x02, 0x00, 0x00, 0x00,
  0xff, 0xff, 0xff, 0xff, 0x10, 0x00, 0x00, 0x00, 0x44, 0xf4, 0xff, 0xff,
  0x08, 0x00, 0x00, 0x00, 0x10, 0x00, 0x00, 0x00, 0x01, 0x00, 0x00, 0x00,
  0x80, 0xff, 0xff, 0xff, 0xff, 0xff, 0xff, 0xff, 0x01, 0x00, 0x00, 0x00,
  0x78, 0xb2, 0xd1, 0x3b, 0x58, 0x00, 0x00, 0x00, 0x73, 0x65, 0x71, 0x75,
  0x65, 0x6e, 0x74, 0x69, 0x61, 0x6c, 0x5f, 0x31, 0x2f, 0x64, 0x65, 0x6e,
  0x73, 0x65, 0x5f, 0x31, 0x5f, 0x32, 0x2f, 0x4d, 0x61, 0x74, 0x4d, 0x75,
  0x6c, 0x3b, 0x73, 0x65, 0x71, 0x75, 0x65, 0x6e, 0x74, 0x69, 0x61, 0x6c,
  0x5f, 0x31, 0x2f, 0x64, 0x65, 0x6e, 0x73, 0x65, 0x5f, 0x31, 0x5f, 0x32,
  0x2f, 0x52, 0x65, 0x6c, 0x75, 0x3b, 0x73, 0x65, 0x71, 0x75, 0x65, 0x6e,
  0x74, 0x69, 0x61, 0x6c, 0x5f, 0x31, 0x2f, 0x64, 0x65, 0x6e, 0x73, 0x65,
  0x5f, 0x31, 0x5f, 0x32, 0x2f, 0x42, 0x69, 0x61, 0x73, 0x41, 0x64, 0x64,
  0x00, 0x00, 0x00, 0x00, 0x02, 0x00, 0x00, 0x00, 0x01, 0x00, 0x00, 0x00,
  0x10, 0x00, 0x00, 0x00, 0x4e, 0xff, 0xff, 0xff, 0x00, 0x00, 0x00, 0x01,
  0x18, 0x00, 0x00, 0x00, 0x20, 0x00, 0x00, 0x00, 0x3c, 0x00, 0x00, 0x00,
  0x0d, 0x00, 0x00, 0x00, 0x00, 0x00, 0x00, 0x09, 0x88, 0x00, 0x00, 0x00,
  0x02, 0x00, 0x00, 0x00, 0xff, 0xff, 0xff, 0xff, 0x08, 0x00, 0x00, 0x00,
  0xfc, 0xf4, 0xff, 0xff, 0x08, 0x00, 0x00, 0x00, 0x10, 0x00, 0x00, 0x00,
  0x01, 0x00, 0x00, 0x00, 0x80, 0xff, 0xff, 0xff, 0xff, 0xff, 0xff, 0xff,
  0x01, 0x00, 0x00, 0x00, 0xaf, 0x60, 0x0d, 0x3c, 0x52, 0x00, 0x00, 0x00,
  0x73, 0x65, 0x71, 0x75, 0x65, 0x6e, 0x74, 0x69, 0x61, 0x6c, 0x5f, 0x31,
  0x2f, 0x64, 0x65, 0x6e, 0x73, 0x65, 0x5f, 0x31, 0x2f, 0x4d, 0x61, 0x74,
  0x4d, 0x75, 0x6c, 0x3b, 0x73, 0x65, 0x71, 0x75, 0x65, 0x6e, 0x74, 0x69,
  0x61, 0x6c, 0x5f, 0x31, 0x2f, 0x64, 0x65, 0x6e, 0x73, 0x65, 0x5f, 0x31,
  0x2f, 0x52, 0x65, 0x6c, 0x75, 0x3b, 0x73, 0x65, 0x71, 0x75, 0x65, 0x6e,
  0x74, 0x69, 0x61, 0x6c, 0x5f, 0x31, 0x2f, 0x64, 0x65, 0x6e, 0x73, 0x65,
  0x5f, 0x31, 0x2f, 0x42, 0x69, 0x61, 0x73, 0x41, 0x64, 0x64, 0x00, 0x00,
  0x02, 0x00, 0x00, 0x00, 0x01, 0x00, 0x00, 0x00, 0x08, 0x00, 0x00, 0x00,
  0x00, 0x00, 0x16, 0x00, 0x20, 0x00, 0x1c, 0x00, 0x1b, 0x00, 0x14, 0x00,
  0x10, 0x00, 0x0c, 0x00, 0x00, 0x00, 0x00, 0x00, 0x08, 0x00, 0x07, 0x00,
  0x16, 0x00, 0x00, 0x00, 0x00, 0x00, 0x00, 0x01, 0x18, 0x00, 0x00, 0x00,
  0x20, 0x00, 0x00, 0x00, 0x40, 0x00, 0x00, 0x00, 0x0c, 0x00, 0x00, 0x00,
  0x00, 0x00, 0x00, 0x09, 0x48, 0x00, 0x00, 0x00, 0x02, 0x00, 0x00, 0x00,
  0xff, 0xff, 0xff, 0xff, 0x01, 0x00, 0x00, 0x00, 0xc4, 0xf5, 0xff, 0xff,
  0x08, 0x00, 0x00, 0x00, 0x14, 0x00, 0x00, 0x00, 0x01, 0x00, 0x00, 0x00,
  0x80, 0xff, 0xff, 0xff, 0xff, 0xff, 0xff, 0xff, 0x00, 0x00, 0x00, 0x00,
  0x01, 0x00, 0x00, 0x00, 0x3d, 0xc4, 0xc8, 0x3c, 0x0c, 0x00, 0x00, 0x00,
  0x74, 0x66, 0x6c, 0x2e, 0x71, 0x75, 0x61, 0x6e, 0x74, 0x69, 0x7a, 0x65,
  0x00, 0x00, 0x00, 0x00, 0x02, 0x00, 0x00, 0x00, 0x01, 0x00, 0x00, 0x00,
  0x01, 0x00, 0x00, 0x00, 0x3a, 0xf6, 0xff, 0xff, 0x00, 0x00, 0x00, 0x01,
  0x14, 0x00, 0x00, 0x00, 0x88, 0x00, 0x00, 0x00, 0x0b, 0x00, 0x00, 0x00,
  0x00, 0x00, 0x00, 0x09, 0x94, 0x00, 0x00, 0x00, 0x24, 0xf6, 0xff, 0xff,
  0x08, 0x00, 0x00, 0x00, 0x4c, 0x00, 0x00, 0x00, 0x08, 0x00, 0x00, 0x00,
  0x00, 0x00, 0x00, 0x00, 0x00, 0x00, 0x00, 0x00, 0x00, 0x00, 0x00, 0x00,
  0x00, 0x00, 0x00, 0x00, 0x00, 0x00, 0x00, 0x00, 0x00, 0x00, 0x00, 0x00,
  0x00, 0x00, 0x00, 0x00, 0x00, 0x00, 0x00, 0x00, 0x00, 0x00, 0x00, 0x00,
  0x00, 0x00, 0x00, 0x00, 0x00, 0x00, 0x00, 0x00, 0x00, 0x00, 0x00, 0x00,
  0x00, 0x00, 0x00, 0x00, 0x00, 0x00, 0x00, 0x00, 0x00, 0x00, 0x00, 0x00,
  0x00, 0x00, 0x00, 0x00, 0x00, 0x00, 0x00, 0x00, 0x08, 0x00, 0x00, 0x00,
  0xca, 0x19, 0x3b, 0x3b, 0x25, 0xdc, 0xc5, 0x3b, 0x9c, 0xe4, 0x2e, 0x3b,
  0x61, 0x17, 0x0d, 0x3b, 0x0a, 0xf5, 0xc1, 0x39, 0x6b, 0x8d, 0xa2, 0x3a,
  0x2d, 0x21, 0xa1, 0x3b, 0xde, 0xad, 0x90, 0x3b, 0x12, 0x00, 0x00, 0x00,
  0x74, 0x66, 0x6c, 0x2e, 0x70, 0x73, 0x65, 0x75, 0x64, 0x6f, 0x5f, 0x71,
  0x63, 0x6f, 0x6e, 0x73, 0x74, 0x39, 0x00, 0x00, 0x02, 0x00, 0x00, 0x00,
  0x08, 0x00, 0x00, 0x00, 0x01, 0x00, 0x00, 0x00, 0xf2, 0xf6, 0xff, 0xff,
  0x00, 0x00, 0x00, 0x01, 0x14, 0x00, 0x00, 0x00, 0x84, 0x00, 0x00, 0x00,
  0x0a, 0x00, 0x00, 0x00, 0x00, 0x00, 0x00, 0x02, 0x90, 0x00, 0x00, 0x00,
  0xdc, 0xf6, 0xff, 0xff, 0x08, 0x00, 0x00, 0x00, 0x48, 0x00, 0x00, 0x00,
  0x08, 0x00, 0x00, 0x00, 0x00, 0x00, 0x00, 0x00, 0x00, 0x00, 0x00, 0x00,
  0x00, 0x00, 0x00, 0x00, 0x00, 0x00, 0x00, 0x00, 0x00, 0x00, 0x00, 0x00,
  0x00, 0x00, 0x00, 0x00, 0x00, 0x00, 0x00, 0x00, 0x00, 0x00, 0x00, 0x00,
  0x00, 0x00, 0x00, 0x00, 0x00, 0x00, 0x00, 0x00, 0x00, 0x00, 0x00, 0x00,
  0x00, 0x00, 0x00, 0x00, 0x00, 0x00, 0x00, 0x00, 0x00, 0x00, 0x00, 0x00,
  0x00, 0x00, 0x00, 0x00, 0x00, 0x00, 0x00, 0x00, 0x08, 0x00, 0x00, 0x00,
  0x92, 0xbb, 0x92, 0x38, 0xa9, 0x2b, 0x1b, 0x39, 0xab, 0x28, 0x89, 0x38,
  0xd7, 0x4c, 0x5d, 0x38, 0x1e, 0x1c, 0x18, 0x37, 0x2d, 0xf6, 0xfe, 0x37,
  0xde, 0xba, 0xfc, 0x38, 0x7a, 0xed, 0xe2, 0x38, 0x12, 0x00, 0x00, 0x00,
  0x74, 0x66, 0x6c, 0x2e, 0x70, 0x73, 0x65, 0x75, 0x64, 0x6f, 0x5f, 0x71,
  0x63, 0x6f, 0x6e, 0x73, 0x74, 0x38, 0x00, 0x00, 0x01, 0x00, 0x00, 0x00,
  0x08, 0x00, 0x00, 0x00, 0xa2, 0xf7, 0xff, 0xff, 0x00, 0x00, 0x00, 0x01,
  0x14, 0x00, 0x00, 0x00, 0xe8, 0x00, 0x00, 0x00, 0x09, 0x00, 0x00, 0x00,
  0x00, 0x00, 0x00, 0x09, 0xf4, 0x00, 0x00, 0x00, 0x8c, 0xf7, 0xff, 0xff,
  0x08, 0x00, 0x00, 0x00, 0x8c, 0x00, 0x00, 0x00, 0x10, 0x00, 0x00, 0x00,
  0x00, 0x00, 0x00, 0x00, 0x00, 0x00, 0x00, 0x00, 0x00, 0x00, 0x00, 0x00,
  0x00, 0x00, 0x00, 0x00, 0x00, 0x00, 0x00, 0x00, 0x00, 0x00, 0x00, 0x00,
  0x00, 0x00, 0x00, 0x00, 0x00, 0x00, 0x00, 0x00, 0x00, 0x00, 0x00, 0x00,
  0x00, 0x00, 0x00, 0x00, 0x00, 0x00, 0x00, 0x00, 0x00, 0x00, 0x00, 0x00,
  0x00, 0x00, 0x00, 0x00, 0x00, 0x00, 0x00, 0x00, 0x00, 0x00, 0x00, 0x00,
  0x00, 0x00, 0x00, 0x00, 0x00, 0x00, 0x00, 0x00, 0x00, 0x00, 0x00, 0x00,
  0x00, 0x00, 0x00, 0x00, 0x00, 0x00, 0x00, 0x00, 0x00, 0x00, 0x00, 0x00,
  0x00, 0x00, 0x00, 0x00, 0x00, 0x00, 0x00, 0x00, 0x00, 0x00, 0x00, 0x00,
  0x00, 0x00, 0x00, 0x00, 0x00, 0x00, 0x00, 0x00, 0x00, 0x00, 0x00, 0x00,
  0x00, 0x00, 0x00, 0x00, 0x00, 0x00, 0x00, 0x00, 0x00, 0x00, 0x00, 0x00,
  0x00, 0x00, 0x00, 0x00, 0x00, 0x00, 0x00, 0x00, 0x00, 0x00, 0x00, 0x00,
  0x10, 0x00, 0x00, 0x00, 0x18, 0x8a, 0x79, 0x3b, 0x08, 0x66, 0x62, 0x3b,
  0x12, 0x01, 0x68, 0x3b, 0xa9, 0xa4, 0x86, 0x3b, 0xb4, 0x07, 0x59, 0x3b,
  0xbe, 0x07, 0x51, 0x3b, 0x1a, 0x95, 0x66, 0x3b, 0x7d, 0xc8, 0x62, 0x3b,
  0x0c, 0x09, 0x7f, 0x3b, 0x53, 0x6a, 0x9b, 0x3b, 0xd9, 0x9e, 0x8f, 0x3b,
  0xf4, 0xb3, 0x35, 0x3b, 0x1e, 0xdb, 0x92, 0x3b, 0xe8, 0x47, 0x76, 0x3b,
  0x99, 0xf1, 0x40, 0x3b, 0x38, 0x20, 0x60, 0x3b, 0x12, 0x00, 0x00, 0x00,
  0x74, 0x66, 0x6c, 0x2e, 0x70, 0x73, 0x65, 0x75, 0x64, 0x6f, 0x5f, 0x71,
  0x63, 0x6f, 0x6e, 0x73, 0x74, 0x37, 0x00, 0x00, 0x02, 0x00, 0x00, 0x00,
  0x10, 0x00, 0x00, 0x00, 0x08, 0x00, 0x00, 0x00, 0xba, 0xf8, 0xff, 0xff,
  0x00, 0x00, 0x00, 0x01, 0x14, 0x00, 0x00, 0x00, 0xe4, 0x00, 0x00, 0x00,
  0x08, 0x00, 0x00, 0x00, 0x00, 0x00, 0x00, 0x02, 0xf0, 0x00, 0x00, 0x00,
  0xa4, 0xf8, 0xff, 0xff, 0x08, 0x00, 0x00, 0x00, 0x88, 0x00, 0x00, 0x00,
  0x10, 0x00, 0x00, 0x00, 0x00, 0x00, 0x00, 0x00, 0x00, 0x00, 0x00, 0x00,
  0x00, 0x00, 0x00, 0x00, 0x00, 0x00, 0x00, 0x00, 0x00, 0x00, 0x00, 0x00,
  0x00, 0x00, 0x00, 0x00, 0x00, 0x00, 0x00, 0x00, 0x00, 0x00, 0x00, 0x00,
  0x00, 0x00, 0x00, 0x00, 0x00, 0x00, 0x00, 0x00, 0x00, 0x00, 0x00, 0x00,
  0x00, 0x00, 0x00, 0x00, 0x00, 0x00, 0x00, 0x00, 0x00, 0x00, 0x00, 0x00,
  0x00, 0x00, 0x00, 0x00, 0x00, 0x00, 0x00, 0x00, 0x00, 0x00, 0x00, 0x00,
  0x00, 0x00, 0x00, 0x00, 0x00, 0x00, 0x00, 0x00, 0x00, 0x00, 0x00, 0x00,
  0x00, 0x00, 0x00, 0x00, 0x00, 0x00, 0x00, 0x00, 0x00, 0x00, 0x00, 0x00,
  0x00, 0x00, 0x00, 0x00, 0x00, 0x00, 0x00, 0x00, 0x00, 0x00, 0x00, 0x00,
  0x00, 0x00, 0x00, 0x00, 0x00, 0x00, 0x00, 0x00, 0x00, 0x00, 0x00, 0x00,
  0x00, 0x00, 0x00, 0x00, 0x00, 0x00, 0x00, 0x00, 0x00, 0x00, 0x00, 0x00,
  0x10, 0x00, 0x00, 0x00, 0x4e, 0xcf, 0x09, 0x38, 0x67, 0x0f, 0xfa, 0x37,
  0x36, 0x20, 0x00, 0x38, 0x16, 0xb7, 0x14, 0x38, 0x6b, 0xb6, 0xef, 0x37,
  0x6b, 0xe0, 0xe6, 0x37, 0x6a, 0xae, 0xfe, 0x37, 0x26, 0x7c, 0xfa, 0x37,
  0x4d, 0xd8, 0x0c, 0x38, 0x84, 0xa8, 0x2b, 0x38, 0x77, 0xa1, 0x1e, 0x38,
  0x7a, 0xb1, 0xc8, 0x37, 0x4c, 0x34, 0x22, 0x38, 0x9e, 0x02, 0x08, 0x38,
  0xe0, 0x1b, 0xd5, 0x37, 0xc8, 0x8c, 0xf7, 0x37, 0x12, 0x00, 0x00, 0x00,
  0x74, 0x66, 0x6c, 0x2e, 0x70, 0x73, 0x65, 0x75, 0x64, 0x6f, 0x5f, 0x71,
  0x63, 0x6f, 0x6e, 0x73, 0x74, 0x36, 0x00, 0x00, 0x01, 0x00, 0x00, 0x00,
  0x10, 0x00, 0x00, 0x00, 0xca, 0xf9, 0xff, 0xff, 0x00, 0x00, 0x00, 0x01,
  0x14, 0x00, 0x00, 0x00, 0xa8, 0x01, 0x00, 0x00, 0x07, 0x00, 0x00, 0x00,
  0x00, 0x00, 0x00, 0x09, 0xb4, 0x01, 0x00, 0x00, 0xb4, 0xf9, 0xff, 0xff,
  0x08, 0x00, 0x00, 0x00, 0x0c, 0x01, 0x00, 0x00, 0x20, 0x00, 0x00, 0x00,
  0x00, 0x00, 0x00, 0x00, 0x00, 0x00, 0x00, 0x00, 0x00, 0x00, 0x00, 0x00,
  0x00, 0x00, 0x00, 0x00, 0x00, 0x00, 0x00, 0x00, 0x00, 0x00, 0x00, 0x00,
  0x00, 0x00, 0x00, 0x00, 0x00, 0x00, 0x00, 0x00, 0x00, 0x00, 0x00, 0x00,
  0x00, 0x00, 0x00, 0x00, 0x00, 0x00, 0x00, 0x00, 0x00, 0x00, 0x00, 0x00,
  0x00, 0x00, 0x00, 0x00, 0x00, 0x00, 0x00, 0x00, 0x00, 0x00, 0x00, 0x00,
  0x00, 0x00, 0x00, 0x00, 0x00, 0x00, 0x00, 0x00, 0x00, 0x00, 0x00, 0x00,
  0x00, 0x00, 0x00, 0x00, 0x00, 0x00, 0x00, 0x00, 0x00, 0x00, 0x00, 0x00,
  0x00, 0x00, 0x00, 0x00, 0x00, 0x00, 0x00, 0x00, 0x00, 0x00, 0x00, 0x00,
  0x00, 0x00, 0x00, 0x00, 0x00, 0x00, 0x00, 0x00, 0x00, 0x00, 0x00, 0x00,
  0x00, 0x00, 0x00, 0x00, 0x00, 0x00, 0x00, 0x00, 0x00, 0x00, 0x00, 0x00,
  0x00, 0x00, 0x00, 0x00, 0x00, 0x00, 0x00, 0x00, 0x00, 0x00, 0x00, 0x00,
  0x00, 0x00, 0x00, 0x00, 0x00, 0x00, 0x00, 0x00, 0x00, 0x00, 0x00, 0x00,
  0x00, 0x00, 0x00, 0x00, 0x00, 0x00, 0x00, 0x00, 0x00, 0x00, 0x00, 0x00,
  0x00, 0x00, 0x00, 0x00, 0x00, 0x00, 0x00, 0x00, 0x00, 0x00, 0x00, 0x00,
  0x00, 0x00, 0x00, 0x00, 0x00, 0x00, 0x00, 0x00, 0x00, 0x00, 0x00, 0x00,
  0x00, 0x00, 0x00, 0x00, 0x00, 0x00, 0x00, 0x00, 0x00, 0x00, 0x00, 0x00,
  0x00, 0x00, 0x00, 0x00, 0x00, 0x00, 0x00, 0x00, 0x00, 0x00, 0x00, 0x00,
  0x00, 0x00, 0x00, 0x00, 0x00, 0x00, 0x00, 0x00, 0x00, 0x00, 0x00, 0x00,
  0x00, 0x00, 0x00, 0x00, 0x00, 0x00, 0x00, 0x00, 0x00, 0x00, 0x00, 0x00,
  0x00, 0x00, 0x00, 0x00, 0x00, 0x00, 0x00, 0x00, 0x00, 0x00, 0x00, 0x00,
  0x00, 0x00, 0x00, 0x00, 0x00, 0x00, 0x00, 0x00, 0x00, 0x00, 0x00, 0x00,
  0x00, 0x00, 0x00, 0x00, 0x00, 0x00, 0x00, 0x00, 0x20, 0x00, 0x00, 0x00,
  0xf7, 0xf8, 0x2c, 0x3b, 0x48, 0xf4, 0x97, 0x3b, 0x02, 0x32, 0x52, 0x3b,
  0xf2, 0xe4, 0x34, 0x3b, 0xd4, 0xbf, 0x3a, 0x3b, 0xd6, 0xa4, 0x9a, 0x3b,
  0xd0, 0xc5, 0x82, 0x3b, 0x3e, 0x9e, 0xa2, 0x3b, 0xd2, 0xf9, 0x86, 0x3b,
  0xef, 0xc7, 0x5f, 0x3b, 0x99, 0xe2, 0xa5, 0x3b, 0x92, 0x7e, 0x35, 0x3b,
  0xb2, 0x8b, 0x8c, 0x3b, 0x69, 0x71, 0x59, 0x3b, 0x1b, 0x2a, 0x93, 0x3b,
  0x7a, 0xff, 0x90, 0x3b, 0x7b, 0xb1, 0x31, 0x3b, 0x3f, 0xf8, 0x53, 0x3b,
  0x6f, 0x19, 0x95, 0x3b, 0x8c, 0x6a, 0x95, 0x3b, 0x04, 0x32, 0x82, 0x3b,
  0x6a, 0x77, 0x33, 0x3b, 0x52, 0xbc, 0x96, 0x3b, 0xe9, 0x45, 0x85, 0x3b,
  0xb8, 0x26, 0x2b, 0x3b, 0xa4, 0x30, 0x4d, 0x3b, 0xf6, 0xee, 0x78, 0x3b,
  0x80, 0xea, 0x76, 0x3b, 0xe4, 0x9b, 0x79, 0x3b, 0x1a, 0x3a, 0x3d, 0x3b,
  0x38, 0x3b, 0x50, 0x3b, 0x3c, 0xf9, 0x34, 0x3b, 0x12, 0x00, 0x00, 0x00,
  0x74, 0x66, 0x6c, 0x2e, 0x70, 0x73, 0x65, 0x75, 0x64, 0x6f, 0x5f, 0x71,
  0x63, 0x6f, 0x6e, 0x73, 0x74, 0x35, 0x00, 0x00, 0x02, 0x00, 0x00, 0x00,
  0x20, 0x00, 0x00, 0x00, 0x10, 0x00, 0x00, 0x00, 0xa2, 0xfb, 0xff, 0xff,
  0x00, 0x00, 0x00, 0x01, 0x14, 0x00, 0x00, 0x00, 0xa4, 0x01, 0x00, 0x00,
  0x06, 0x00, 0x00, 0x00, 0x00, 0x00, 0x00, 0x02, 0xb0, 0x01, 0x00, 0x00,
  0x8c, 0xfb, 0xff, 0xff, 0x08, 0x00, 0x00, 0x00, 0x08, 0x01, 0x00, 0x00,
  0x20, 0x00, 0x00, 0x00, 0x00, 0x00, 0x00, 0x00, 0x00, 0x00, 0x00, 0x00,
  0x00, 0x00, 0x00, 0x00, 0x00, 0x00, 0x00, 0x00, 0x00, 0x00, 0x00, 0x00,
  0x00, 0x00, 0x00, 0x00, 0x00, 0x00, 0x00, 0x00, 0x00, 0x00, 0x00, 0x00,
  0x00, 0x00, 0x00, 0x00, 0x00, 0x00, 0x00, 0x00, 0x00, 0x00, 0x00, 0x00,
  0x00, 0x00, 0x00, 0x00, 0x00, 0x00, 0x00, 0x00, 0x00, 0x00, 0x00, 0x00,
  0x00, 0x00, 0x00, 0x00, 0x00, 0x00, 0x00, 0x00, 0x00, 0x00, 0x00, 0x00,
  0x00, 0x00, 0x00, 0x00, 0x00, 0x00, 0x00, 0x00, 0x00, 0x00, 0x00, 0x00,
  0x00, 0x00, 0x00, 0x00, 0x00, 0x00, 0x00, 0x00, 0x00, 0x00, 0x00, 0x00,
  0x00, 0x00, 0x00, 0x00, 0x00, 0x00, 0x00, 0x00, 0x00, 0x00, 0x00, 0x00,
  0x00, 0x00, 0x00, 0x00, 0x00, 0x00, 0x00, 0x00, 0x00, 0x00, 0x00, 0x00,
  0x00, 0x00, 0x00, 0x00, 0x00, 0x00, 0x00, 0x00, 0x00, 0x00, 0x00, 0x00,
  0x00, 0x00, 0x00, 0x00, 0x00, 0x00, 0x00, 0x00, 0x00, 0x00, 0x00, 0x00,
  0x00, 0x00, 0x00, 0x00, 0x00, 0x00, 0x00, 0x00, 0x00, 0x00, 0x00, 0x00,
  0x00, 0x00, 0x00, 0x00, 0x00, 0x00, 0x00, 0x00, 0x00, 0x00, 0x00, 0x00,
  0x00, 0x00, 0x00, 0x00, 0x00, 0x00, 0x00, 0x00, 0x00, 0x00, 0x00, 0x00,
  0x00, 0x00, 0x00, 0x00, 0x00, 0x00, 0x00, 0x00, 0x00, 0x00, 0x00, 0x00,
  0x00, 0x00, 0x00, 0x00, 0x00, 0x00, 0x00, 0x00, 0x00, 0x00, 0x00, 0x00,
  0x00, 0x00, 0x00, 0x00, 0x00, 0x00, 0x00, 0x00, 0x00, 0x00, 0x00, 0x00,
  0x00, 0x00, 0x00, 0x00, 0x00, 0x00, 0x00, 0x00, 0x00, 0x00, 0x00, 0x00,
  0x00, 0x00, 0x00, 0x00, 0x00, 0x00, 0x00, 0x00, 0x00, 0x00, 0x00, 0x00,
  0x00, 0x00, 0x00, 0x00, 0x00, 0x00, 0x00, 0x00, 0x00, 0x00, 0x00, 0x00,
  0x00, 0x00, 0x00, 0x00, 0x00, 0x00, 0x00, 0x00, 0x20, 0x00, 0x00, 0x00,
  0xd8, 0xaf, 0x8d, 0x37, 0xbc, 0xf0, 0xf8, 0x37, 0x5d, 0x2d, 0xac, 0x37,
  0x06, 0x2d, 0x94, 0x37, 0xcd, 0xf8, 0x98, 0x37, 0xc4, 0x58, 0xfd, 0x37,
  0x53, 0x3d, 0xd6, 0x37, 0x8f, 0x34, 0x05, 0x38, 0x1b, 0x20, 0xdd, 0x37,
  0x3c, 0x4e, 0xb7, 0x37, 0xa4, 0xe1, 0x07, 0x38, 0xdc, 0xaa, 0x94, 0x37,
  0x0f, 0x40, 0xe6, 0x37, 0x2e, 0x1d, 0xb2, 0x37, 0xf1, 0x17, 0xf1, 0x37,
  0x50, 0x8b, 0xed, 0x37, 0xc6, 0x8d, 0x91, 0x37, 0x71, 0xa1, 0xad, 0x37,
  0x6a, 0x43, 0xf4, 0x37, 0x4d, 0xc8, 0xf4, 0x37, 0x32, 0x4b, 0xd5, 0x37,
  0x9b, 0x01, 0x93, 0x37, 0xa9, 0xf1, 0xf6, 0x37, 0xf9, 0x55, 0xda, 0x37,
  0xed, 0x31, 0x8c, 0x37, 0xc2, 0x13, 0xa8, 0x37, 0xa2, 0xe8, 0xcb, 0x37,
  0x95, 0x41, 0xca, 0x37, 0x49, 0x76, 0xcc, 0x37, 0x5a, 0x00, 0x9b, 0x37,
  0x84, 0x91, 0xaa, 0x37, 0xa4, 0x3d, 0x94, 0x37, 0x12, 0x00, 0x00, 0x00,
  0x74, 0x66, 0x6c, 0x2e, 0x70, 0x73, 0x65, 0x75, 0x64, 0x6f, 0x5f, 0x71,
  0x63, 0x6f, 0x6e, 0x73, 0x74, 0x34, 0x00, 0x00, 0x01, 0x00, 0x00, 0x00,
  0x20, 0x00, 0x00, 0x00, 0x72, 0xfd, 0xff, 0xff, 0x00, 0x00, 0x00, 0x01,
  0x14, 0x00, 0x00, 0x00, 0xe8, 0x00, 0x00, 0x00, 0x05, 0x00, 0x00, 0x00,
  0x00, 0x00, 0x00, 0x09, 0xf4, 0x00, 0x00, 0x00, 0x5c, 0xfd, 0xff, 0xff,
  0x08, 0x00, 0x00, 0x00, 0x8c, 0x00, 0x00, 0x00, 0x10, 0x00, 0x00, 0x00,
  0x00, 0x00, 0x00, 0x00, 0x00, 0x00, 0x00, 0x00, 0x00, 0x00, 0x00, 0x00,
  0x00, 0x00, 0x00, 0x00, 0x00, 0x00, 0x00, 0x00, 0x00, 0x00, 0x00, 0x00,
  0x00, 0x00, 0x00, 0x00, 0x00, 0x00, 0x00, 0x00, 0x00, 0x00, 0x00, 0x00,
  0x00, 0x00, 0x00, 0x00, 0x00, 0x00, 0x00, 0x00, 0x00, 0x00, 0x00, 0x00,
  0x00, 0x00, 0x00, 0x00, 0x00, 0x00, 0x00, 0x00, 0x00, 0x00, 0x00, 0x00,
  0x00, 0x00, 0x00, 0x00, 0x00, 0x00, 0x00, 0x00, 0x00, 0x00, 0x00, 0x00,
  0x00, 0x00, 0x00, 0x00, 0x00, 0x00, 0x00, 0x00, 0x00, 0x00, 0x00, 0x00,
  0x00, 0x00, 0x00, 0x00, 0x00, 0x00, 0x00, 0x00, 0x00, 0x00, 0x00, 0x00,
  0x00, 0x00, 0x00, 0x00, 0x00, 0x00, 0x00, 0x00, 0x00, 0x00, 0x00, 0x00,
  0x00, 0x00, 0x00, 0x00, 0x00, 0x00, 0x00, 0x00, 0x00, 0x00, 0x00, 0x00,
  0x00, 0x00, 0x00, 0x00, 0x00, 0x00, 0x00, 0x00, 0x00, 0x00, 0x00, 0x00,
  0x10, 0x00, 0x00, 0x00, 0x77, 0x11, 0x33, 0x3b, 0x5c, 0x70, 0x84, 0x3b,
  0x7d, 0x37, 0x52, 0x3b, 0x2b, 0x04, 0x57, 0x3b, 0xb6, 0x92, 0x83, 0x3b,
  0xea, 0x62, 0x30, 0x3b, 0x57, 0xe8, 0x85, 0x3b, 0x29, 0xa1, 0x2c, 0x3b,
  0x0c, 0x78, 0x85, 0x3b, 0x86, 0xf7, 0x93, 0x3b, 0x17, 0xff, 0x9c, 0x3b,
  0x24, 0x06, 0x9d, 0x3b, 0x2e, 0x45, 0x8f, 0x3b, 0x86, 0xe5, 0x72, 0x3b,
  0x69, 0x31, 0x76, 0x3b, 0x3a, 0x0d, 0x36, 0x3b, 0x12, 0x00, 0x00, 0x00,
  0x74, 0x66, 0x6c, 0x2e, 0x70, 0x73, 0x65, 0x75, 0x64, 0x6f, 0x5f, 0x71,
  0x63, 0x6f, 0x6e, 0x73, 0x74, 0x33, 0x00, 0x00, 0x02, 0x00, 0x00, 0x00,
  0x10, 0x00, 0x00, 0x00, 0x20, 0x00, 0x00, 0x00, 0x8a, 0xfe, 0xff, 0xff,
  0x00, 0x00, 0x00, 0x01, 0x14, 0x00, 0x00, 0x00, 0xe4, 0x00, 0x00, 0x00,
  0x04, 0x00, 0x00, 0x00, 0x00, 0x00, 0x00, 0x02, 0xf0, 0x00, 0x00, 0x00,
  0x74, 0xfe, 0xff, 0xff, 0x08, 0x00, 0x00, 0x00, 0x88, 0x00, 0x00, 0x00,
  0x10, 0x00, 0x00, 0x00, 0x00, 0x00, 0x00, 0x00, 0x00, 0x00, 0x00, 0x00,
  0x00, 0x00, 0x00, 0x00, 0x00, 0x00, 0x00, 0x00, 0x00, 0x00, 0x00, 0x00,
  0x00, 0x00, 0x00, 0x00, 0x00, 0x00, 0x00, 0x00, 0x00, 0x00, 0x00, 0x00,
  0x00, 0x00, 0x00, 0x00, 0x00, 0x00, 0x00, 0x00, 0x00, 0x00, 0x00, 0x00,
  0x00, 0x00, 0x00, 0x00, 0x00, 0x00, 0x00, 0x00, 0x00, 0x00, 0x00, 0x00,
  0x00, 0x00, 0x00, 0x00, 0x00, 0x00, 0x00, 0x00, 0x00, 0x00, 0x00, 0x00,
  0x00, 0x00, 0x00, 0x00, 0x00, 0x00, 0x00, 0x00, 0x00, 0x00, 0x00, 0x00,
  0x00, 0x00, 0x00, 0x00, 0x00, 0x00, 0x00, 0x00, 0x00, 0x00, 0x00, 0x00,
  0x00, 0x00, 0x00, 0x00, 0x00, 0x00, 0x00, 0x00, 0x00, 0x00, 0x00, 0x00,
  0x00, 0x00, 0x00, 0x00, 0x00, 0x00, 0x00, 0x00, 0x00, 0x00, 0x00, 0x00,
  0x00, 0x00, 0x00, 0x00, 0x00, 0x00, 0x00, 0x00, 0x00, 0x00, 0x00, 0x00,
  0x10, 0x00, 0x00, 0x00, 0x4f, 0xa6, 0xbc, 0x37, 0x7c, 0x86, 0x0b, 0x38,
  0x00, 0x77, 0xdd, 0x37, 0x6c, 0x85, 0xe2, 0x37, 0xfa, 0x9c, 0x0a, 0x38,
  0x06, 0xd3, 0xb9, 0x37, 0x95, 0x12, 0x0d, 0x38, 0xcf, 0xdd, 0xb5, 0x37,
  0x48, 0x9c, 0x0c, 0x38, 0x59, 0xe2, 0x1b, 0x38, 0x99, 0x65, 0x25, 0x38,
  0x07, 0x6d, 0x25, 0x38, 0xab, 0xef, 0x16, 0x38, 0xad, 0xe4, 0xff, 0x37,
  0xdc, 0xae, 0x01, 0x38, 0xf0, 0xca, 0xbf, 0x37, 0x12, 0x00, 0x00, 0x00,
  0x74, 0x66, 0x6c, 0x2e, 0x70, 0x73, 0x65, 0x75, 0x64, 0x6f, 0x5f, 0x71,
  0x63, 0x6f, 0x6e, 0x73, 0x74, 0x32, 0x00, 0x00, 0x01, 0x00, 0x00, 0x00,
  0x10, 0x00, 0x00, 0x00, 0x9a, 0xff, 0xff, 0xff, 0x00, 0x00, 0x00, 0x01,
  0x14, 0x00, 0x00, 0x00, 0x34, 0x00, 0x00, 0x00, 0x03, 0x00, 0x00, 0x00,
  0x00, 0x00, 0x00, 0x09, 0x40, 0x00, 0x00, 0x00, 0x84, 0xff, 0xff, 0xff,
  0x08, 0x00, 0x00, 0x00, 0x14, 0x00, 0x00, 0x00, 0x01, 0x00, 0x00, 0x00,
  0x00, 0x00, 0x00, 0x00, 0x00, 0x00, 0x00, 0x00, 0x00, 0x00, 0x00, 0x00,
  0x01, 0x00, 0x00, 0x00, 0x7d, 0x2f, 0x2c, 0x3c, 0x12, 0x00, 0x00, 0x00,
  0x74, 0x66, 0x6c, 0x2e, 0x70, 0x73, 0x65, 0x75, 0x64, 0x6f, 0x5f, 0x71,
  0x63, 0x6f, 0x6e, 0x73, 0x74, 0x31, 0x00, 0x00, 0x02, 0x00, 0x00, 0x00,
  0x01, 0x00, 0x00, 0x00, 0x10, 0x00, 0x00, 0x00, 0x00, 0x00, 0x16, 0x00,
  0x1c, 0x00, 0x18, 0x00, 0x17, 0x00, 0x10, 0x00, 0x0c, 0x00, 0x08, 0x00,
  0x00, 0x00, 0x00, 0x00, 0x00, 0x00, 0x07, 0x00, 0x16, 0x00, 0x00, 0x00,
  0x00, 0x00, 0x00, 0x01, 0x20, 0x00, 0x00, 0x00, 0x40, 0x00, 0x00, 0x00,
  0x02, 0x00, 0x00, 0x00, 0x00, 0x00, 0x00, 0x02, 0x4c, 0x00, 0x00, 0x00,
  0x0c, 0x00, 0x0c, 0x00, 0x00, 0x00, 0x00, 0x00, 0x08, 0x00, 0x04, 0x00,
  0x0c, 0x00, 0x00, 0x00, 0x08, 0x00, 0x00, 0x00, 0x14, 0x00, 0x00, 0x00,
  0x01, 0x00, 0x00, 0x00, 0x00, 0x00, 0x00, 0x00, 0x00, 0x00, 0x00, 0x00,
  0x00, 0x00, 0x00, 0x00, 0x01, 0x00, 0x00, 0x00, 0x58, 0x3a, 0x61, 0x38,
  0x11, 0x00, 0x00, 0x00, 0x74, 0x66, 0x6c, 0x2e, 0x70, 0x73, 0x65, 0x75,
  0x64, 0x6f, 0x5f, 0x71, 0x63, 0x6f, 0x6e, 0x73, 0x74, 0x00, 0x00, 0x00,
  0x01, 0x00, 0x00, 0x00, 0x01, 0x00, 0x00, 0x00, 0x00, 0x00, 0x16, 0x00,
  0x1c, 0x00, 0x18, 0x00, 0x00, 0x00, 0x14, 0x00, 0x10, 0x00, 0x0c, 0x00,
  0x00, 0x00, 0x00, 0x00, 0x08, 0x00, 0x07, 0x00, 0x16, 0x00, 0x00, 0x00,
  0x00, 0x00, 0x00, 0x01, 0x14, 0x00, 0x00, 0x00, 0x20, 0x00, 0x00, 0x00,
  0x20, 0x00, 0x00, 0x00, 0x01, 0x00, 0x00, 0x00, 0x3c, 0x00, 0x00, 0x00,
  0x02, 0x00, 0x00, 0x00, 0xff, 0xff, 0xff, 0xff, 0x01, 0x00, 0x00, 0x00,
  0x04, 0x00, 0x04, 0x00, 0x04, 0x00, 0x00, 0x00, 0x1e, 0x00, 0x00, 0x00,
  0x73, 0x65, 0x72, 0x76, 0x69, 0x6e, 0x67, 0x5f, 0x64, 0x65, 0x66, 0x61,
  0x75, 0x6c, 0x74, 0x5f, 0x6b, 0x65, 0x72, 0x61, 0x73, 0x5f, 0x74, 0x65,
  0x6e, 0x73, 0x6f, 0x72, 0x3a, 0x30, 0x00, 0x00, 0x02, 0x00, 0x00, 0x00,
  0x01, 0x00, 0x00, 0x00, 0x01, 0x00, 0x00, 0x00, 0x03, 0x00, 0x00, 0x00,
  0x44, 0x00, 0x00, 0x00, 0x24, 0x00, 0x00, 0x00, 0x04, 0x00, 0x00, 0x00,
  0xf0, 0xff, 0xff, 0xff, 0x06, 0x00, 0x00, 0x00, 0x02, 0x00, 0x00, 0x00,
  0x00, 0x00, 0x00, 0x06, 0x0c, 0x00, 0x10, 0x00, 0x0f, 0x00, 0x00, 0x00,
  0x08, 0x00, 0x04, 0x00, 0x0c, 0x00, 0x00, 0x00, 0x09, 0x00, 0x00, 0x00,
  0x04, 0x00, 0x00, 0x00, 0x00, 0x00, 0x00, 0x09, 0x0c, 0x00, 0x0c, 0x00,
  0x0b, 0x00, 0x00, 0x00, 0x00, 0x00, 0x04, 0x00, 0x0c, 0x00, 0x00, 0x00,
  0x72, 0x00, 0x00, 0x00, 0x00, 0x00, 0x00, 0x72
};
unsigned int models_complex_sine_model_quantized_tflite_len = 6704;
