unsigned char models_complex_sine_model_quantized_tflite[] = {
  0x20, 0x00, 0x00, 0x00, 0x54, 0x46, 0x4c, 0x33, 0x00, 0x00, 0x00, 0x00,
  0x14, 0x00, 0x20, 0x00, 0x1c, 0x00, 0x18, 0x00, 0x14, 0x00, 0x10, 0x00,
  0x0c, 0x00, 0x00, 0x00, 0x08, 0x00, 0x04, 0x00, 0x14, 0x00, 0x00, 0x00,
  0x1c, 0x00, 0x00, 0x00, 0x8c, 0x00, 0x00, 0x00, 0x0c, 0x01, 0x00, 0x00,
  0x68, 0x08, 0x00, 0x00, 0x78, 0x08, 0x00, 0x00, 0xa4, 0x19, 0x00, 0x00,
  0x03, 0x00, 0x00, 0x00, 0x01, 0x00, 0x00, 0x00, 0x04, 0x00, 0x00, 0x00,
  0x3e, 0xf7, 0xff, 0xff, 0x0c, 0x00, 0x00, 0x00, 0x1c, 0x00, 0x00, 0x00,
  0x3c, 0x00, 0x00, 0x00, 0x0f, 0x00, 0x00, 0x00, 0x73, 0x65, 0x72, 0x76,
  0x69, 0x6e, 0x67, 0x5f, 0x64, 0x65, 0x66, 0x61, 0x75, 0x6c, 0x74, 0x00,
  0x01, 0x00, 0x00, 0x00, 0x04, 0x00, 0x00, 0x00, 0x68, 0xff, 0xff, 0xff,
  0x11, 0x00, 0x00, 0x00, 0x04, 0x00, 0x00, 0x00, 0x08, 0x00, 0x00, 0x00,
  0x6f, 0x75, 0x74, 0x70, 0x75, 0x74, 0x5f, 0x30, 0x00, 0x00, 0x00, 0x00,
  0x01, 0x00, 0x00, 0x00, 0x04, 0x00, 0x00, 0x00, 0x1e, 0xf8, 0xff, 0xff,
  0x04, 0x00, 0x00, 0x00, 0x0c, 0x00, 0x00, 0x00, 0x6b, 0x65, 0x72, 0x61,
  0x73, 0x5f, 0x74, 0x65, 0x6e, 0x73, 0x6f, 0x72, 0x00, 0x00, 0x00, 0x00,
  0x03, 0x00, 0x00, 0x00, 0x5c, 0x00, 0x00, 0x00, 0x2c, 0x00, 0x00, 0x00,
  0x04, 0x00, 0x00, 0x00, 0xb8, 0xff, 0xff, 0xff, 0x15, 0x00, 0x00, 0x00,
  0x04, 0x00, 0x00, 0x00, 0x13, 0x00, 0x00, 0x00, 0x43, 0x4f, 0x4e, 0x56,
  0x45, 0x52, 0x53, 0x49, 0x4f, 0x4e, 0x5f, 0x4d, 0x45, 0x54, 0x41, 0x44,
  0x41, 0x54, 0x41, 0x00, 0xdc, 0xff, 0xff, 0xff, 0x14, 0x00, 0x00, 0x00,
  0x04, 0x00, 0x00, 0x00, 0x13, 0x00, 0x00, 0x00, 0x6d, 0x69, 0x6e, 0x5f,
  0x72, 0x75, 0x6e, 0x74, 0x69, 0x6d, 0x65, 0x5f, 0x76, 0x65, 0x72, 0x73,
  0x69, 0x6f, 0x6e, 0x00, 0x08, 0x00, 0x0c, 0x00, 0x08, 0x00, 0x04, 0x00,
  0x08, 0x00, 0x00, 0x00, 0x13, 0x00, 0x00, 0x00, 0x04, 0x00, 0x00, 0x00,
  0x13, 0x00, 0x00, 0x00, 0x6d, 0x69, 0x6e, 0x5f, 0x72, 0x75, 0x6e, 0x74,
  0x69, 0x6d, 0x65, 0x5f, 0x76, 0x65, 0x72, 0x73, 0x69, 0x6f, 0x6e, 0x00,
  0x16, 0x00, 0x00, 0x00, 0x58, 0x07, 0x00, 0x00, 0x50, 0x07, 0x00, 0x00,
  0x3c, 0x07, 0x00, 0x00, 0x14, 0x07, 0x00, 0x00, 0xc4, 0x06, 0x00, 0x00,
  0xb4, 0x04, 0x00, 0x00, 0x24, 0x04, 0x00, 0x00, 0x14, 0x02, 0x00, 0x00,
  0xc4, 0x01, 0x00, 0x00, 0x34, 0x01, 0x00, 0x00, 0x04, 0x01, 0x00, 0x00,
  0xec, 0x00, 0x00, 0x00, 0xe4, 0x00, 0x00, 0x00, 0xdc, 0x00, 0x00, 0x00,
  0xd4, 0x00, 0x00, 0x00, 0xcc, 0x00, 0x00, 0x00, 0xc4, 0x00, 0x00, 0x00,
  0xbc, 0x00, 0x00, 0x00, 0xb4, 0x00, 0x00, 0x00, 0x94, 0x00, 0x00, 0x00,
  0x74, 0x00, 0x00, 0x00, 0x04, 0x00, 0x00, 0x00, 0x1a, 0xf9, 0xff, 0xff,
  0x04, 0x00, 0x00, 0x00, 0x60, 0x00, 0x00, 0x00, 0x0c, 0x00, 0x00, 0x00,
  0x08, 0x00, 0x0e, 0x00, 0x08, 0x00, 0x04, 0x00, 0x08, 0x00, 0x00, 0x00,
  0x10, 0x00, 0x00, 0x00, 0x28, 0x00, 0x00, 0x00, 0x00, 0x00, 0x06, 0x00,
  0x08, 0x00, 0x04, 0x00, 0x06, 0x00, 0x00, 0x00, 0x04, 0x00, 0x00, 0x00,
  0x01, 0x00, 0x00, 0x00, 0xeb, 0x03, 0x00, 0x00, 0x0c, 0x00, 0x18, 0x00,
  0x14, 0x00, 0x10, 0x00, 0x0c, 0x00, 0x04, 0x00, 0x0c, 0x00, 0x00, 0x00,
  0x4a, 0xcd, 0x4c, 0x6f, 0x69, 0x7e, 0x44, 0x16, 0x02, 0x00, 0x00, 0x00,
  0x02, 0x00, 0x00, 0x00, 0x04, 0x00, 0x00, 0x00, 0x06, 0x00, 0x00, 0x00,
  0x32, 0x2e, 0x31, 0x39, 0x2e, 0x30, 0x00, 0x00, 0x86, 0xf9, 0xff, 0xff,
  0x04, 0x00, 0x00, 0x00, 0x10, 0x00, 0x00, 0x00, 0x00, 0x00, 0x00, 0x00,
  0x00, 0x00, 0x00, 0x00, 0x00, 0x00, 0x00, 0x00, 0x00, 0x00, 0x00, 0x00,
  0xa2, 0xf9, 0xff, 0xff, 0x04, 0x00, 0x00, 0x00, 0x10, 0x00, 0x00, 0x00,
  0x31, 0x2e, 0x31, 0x34, 0x2e, 0x30, 0x00, 0x00, 0x00, 0x00, 0x00, 0x00,
  0x00, 0x00, 0x00, 0x00, 0x94, 0xe8, 0xff, 0xff, 0x98, 0xe8, 0xff, 0xff,
  0x9c, 0xe8, 0xff, 0xff, 0xa0, 0xe8, 0xff, 0xff, 0xa4, 0xe8, 0xff, 0xff,
  0xa8, 0xe8, 0xff, 0xff, 0xac, 0xe8, 0xff, 0xff, 0xda, 0xf9, 0xff, 0xff,
  0x04, 0x00, 0x00, 0x00, 0x08, 0x00, 0x00, 0x00, 0x7f, 0x81, 0x7f, 0x7f,
  0x81, 0x7f, 0x7f, 0x81, 0xee, 0xf9, 0xff, 0xff, 0x04, 0x00, 0x00, 0x00,
  0x20, 0x00, 0x00, 0x00, 0x26, 0xf7, 0xff, 0xff, 0x00, 0x00, 0x00, 0x00,
  0x1d, 0x30, 0x01, 0x00, 0xd2, 0x09, 0x00, 0x00, 0x00, 0x00, 0x00, 0x00,
  0xa7, 0xfd, 0xff, 0xff, 0x33, 0xfc, 0xff, 0xff, 0x00, 0x00, 0x00, 0x00,
  0x1a, 0xfa, 0xff, 0xff, 0x04, 0x00, 0x00, 0x00, 0x80, 0x00, 0x00, 0x00,
  0x7f, 0x38, 0x60, 0x29, 0x12, 0x5d, 0xc7, 0x53, 0x81, 0xb6, 0x1d, 0x4a,
  0x05, 0x11, 0xe4, 0x40, 0x5c, 0xf6, 0x81, 0xc9, 0xc8, 0x60, 0x2f, 0x12,
  0x1a, 0x81, 0x31, 0x06, 0x91, 0xc5, 0xcc, 0xcf, 0x2d, 0xb1, 0x57, 0x81,
  0x7d, 0x2c, 0x1e, 0x9d, 0xe7, 0x0a, 0x4c, 0x1d, 0x7f, 0x17, 0x0a, 0x5b,
  0x81, 0x40, 0x32, 0xf2, 0x3e, 0xcc, 0xf5, 0xf0, 0x93, 0x5e, 0x3a, 0x81,
  0x3b, 0xc1, 0x0d, 0x67, 0xe2, 0xc8, 0xa7, 0xc5, 0x82, 0x81, 0x10, 0xa7,
  0xbb, 0x3a, 0x16, 0x72, 0x7f, 0xcd, 0x23, 0x30, 0x99, 0x7f, 0x66, 0x90,
  0x4a, 0xf1, 0xa9, 0xd0, 0x3b, 0xb6, 0xde, 0xb0, 0xb7, 0xaa, 0x7f, 0xc8,
  0x8a, 0xa9, 0xa5, 0xc7, 0x06, 0x94, 0x81, 0xb9, 0x70, 0xa3, 0xc4, 0xb2,
  0x7f, 0x85, 0xe3, 0xbd, 0x8d, 0xcf, 0x7b, 0x69, 0x5b, 0x7f, 0xca, 0xeb,
  0x36, 0xea, 0x13, 0xd4, 0xe4, 0x04, 0x81, 0xd3, 0xa6, 0xfa, 0xff, 0xff,
  0x04, 0x00, 0x00, 0x00, 0x40, 0x00, 0x00, 0x00, 0x69, 0xf6, 0xff, 0xff,
  0x75, 0x0f, 0x00, 0x00, 0x45, 0xe6, 0xff, 0xff, 0x92, 0xfa, 0xff, 0xff,
  0x14, 0x00, 0x00, 0x00, 0x8f, 0x1a, 0x00, 0x00, 0x65, 0x03, 0x00, 0x00,
  0xae, 0xff, 0xff, 0xff, 0xaa, 0xff, 0xff, 0xff, 0x58, 0x0c, 0x00, 0x00,
  0xf1, 0xfd, 0xff, 0xff, 0x42, 0xff, 0xff, 0xff, 0x00, 0x00, 0x00, 0x00,
  0x00, 0x00, 0x00, 0x00, 0x2d, 0x06, 0x00, 0x00, 0x00, 0x00, 0x00, 0x00,
  0xf2, 0xfa, 0xff, 0xff, 0x04, 0x00, 0x00, 0x00, 0x00, 0x02, 0x00, 0x00,
  0x56, 0x81, 0x4c, 0x63, 0x05, 0x0a, 0x3e, 0xad, 0x94, 0x16, 0xea, 0xf6,
  0x07, 0xa4, 0x44, 0xa4, 0xac, 0x22, 0x00, 0x84, 0x19, 0x14, 0xae, 0x0d,
  0x1c, 0xd2, 0xee, 0x0b, 0xca, 0x05, 0xd7, 0x81, 0xdf, 0x81, 0xfb, 0x1f,
  0x0d, 0x4f, 0x0e, 0xed, 0xf5, 0xfd, 0xd8, 0x03, 0xe5, 0x38, 0x23, 0xcc,
  0x03, 0x7f, 0x10, 0x15, 0xb6, 0x41, 0x19, 0x01, 0x40, 0x55, 0xf3, 0x0d,
  0x3d, 0xe1, 0x3a, 0x24, 0x81, 0x37, 0xfc, 0xff, 0xb9, 0x01, 0x07, 0xe5,
  0xc9, 0x54, 0xd3, 0x48, 0xea, 0xe4, 0xca, 0x49, 0xe3, 0x81, 0xb5, 0x3c,
  0x04, 0x4c, 0xec, 0x34, 0xe3, 0x01, 0xce, 0xca, 0xc0, 0xc8, 0x3c, 0x0d,
  0x36, 0xc9, 0xd5, 0x6a, 0x7f, 0x51, 0xee, 0xbb, 0x41, 0xaf, 0x79, 0x0a,
  0xa6, 0x6d, 0x2c, 0xfc, 0x9d, 0x44, 0xb6, 0xb2, 0xc4, 0xa5, 0xf2, 0xb2,
  0xc2, 0x7f, 0x3d, 0xf6, 0x0a, 0x65, 0xba, 0xb6, 0xcd, 0xc9, 0xf0, 0x52,
  0xe5, 0x7f, 0x9b, 0xae, 0xcd, 0x98, 0x1d, 0x0f, 0xdc, 0x9e, 0xdb, 0x53,
  0xe5, 0x15, 0x7f, 0x47, 0x43, 0xb3, 0x1f, 0x20, 0x2a, 0x61, 0xca, 0x16,
  0x22, 0xe3, 0x3b, 0x21, 0x37, 0x52, 0x7f, 0xf8, 0xe4, 0x24, 0x0c, 0xc9,
  0xf1, 0x41, 0x82, 0x16, 0xdb, 0x73, 0xaa, 0x74, 0x1d, 0xd4, 0x81, 0x3d,
  0xe3, 0x5d, 0x1c, 0xfd, 0x4b, 0x40, 0xd9, 0xf3, 0xb1, 0xef, 0xc0, 0xc8,
  0xe1, 0xfb, 0x2d, 0x9c, 0xc0, 0x81, 0xea, 0x3c, 0xdb, 0x9c, 0xc0, 0xf4,
  0x1c, 0x69, 0xd0, 0xde, 0x52, 0x96, 0x1f, 0x0c, 0x29, 0x54, 0xbf, 0x66,
  0x7f, 0x69, 0xec, 0xff, 0xe4, 0xc2, 0x87, 0xb4, 0x1e, 0x7f, 0x13, 0xeb,
  0xff, 0x4d, 0x3f, 0x38, 0xcb, 0x17, 0xe7, 0xeb, 0x43, 0xab, 0xef, 0xff,
  0xd1, 0x9e, 0x43, 0x4f, 0xdc, 0xa3, 0x4f, 0xd6, 0x52, 0x93, 0x7f, 0x82,
  0xcc, 0xc7, 0x10, 0x73, 0xe9, 0xb7, 0x29, 0xe4, 0x88, 0xa6, 0x4e, 0x65,
  0x3d, 0x1d, 0x53, 0xe1, 0x3c, 0xc5, 0x7f, 0x62, 0xfa, 0x74, 0x81, 0x99,
  0x38, 0xce, 0x1e, 0x11, 0x23, 0x5e, 0x3f, 0xcd, 0x12, 0x12, 0x4f, 0xf0,
  0xf9, 0x4e, 0xf9, 0x81, 0x43, 0x98, 0x5b, 0x5e, 0x98, 0xca, 0x22, 0x7d,
  0x9c, 0xfa, 0x23, 0x2e, 0xbf, 0xa6, 0xc9, 0x78, 0xb4, 0x20, 0x5b, 0x76,
  0x50, 0x92, 0xc2, 0xf5, 0x11, 0x1c, 0x26, 0x7f, 0xcb, 0x7f, 0xb3, 0x34,
  0x22, 0x66, 0xca, 0xb0, 0xf0, 0x41, 0x08, 0x2d, 0xab, 0xcb, 0xed, 0x15,
  0xfd, 0x7f, 0xb5, 0xd4, 0x0c, 0xdf, 0xfa, 0x13, 0xda, 0x59, 0xed, 0x12,
  0x0e, 0x36, 0xf7, 0xf7, 0xc6, 0x7f, 0x1a, 0x22, 0x4e, 0x23, 0x30, 0xc3,
  0xde, 0x28, 0x13, 0x20, 0x04, 0x07, 0x42, 0xd0, 0x86, 0x81, 0x54, 0x17,
  0xf3, 0x22, 0x7a, 0x15, 0xd9, 0xa9, 0x54, 0xd3, 0x16, 0x99, 0xe8, 0x39,
  0x45, 0x58, 0x7f, 0xd1, 0xd5, 0x1a, 0x6b, 0x48, 0xe2, 0xcc, 0x1f, 0xdb,
  0xc6, 0x23, 0x62, 0xe3, 0xb7, 0xa7, 0x9c, 0x13, 0xa3, 0x12, 0xc7, 0xfa,
  0x5a, 0x0c, 0xd6, 0xf9, 0x89, 0x04, 0xf0, 0x81, 0x8a, 0x9e, 0x04, 0x77,
  0x77, 0x49, 0xab, 0x2b, 0xb7, 0xa7, 0x81, 0xbc, 0x5d, 0x12, 0x59, 0x0f,
  0xc9, 0xd3, 0xf9, 0x94, 0x08, 0x81, 0x58, 0xec, 0x4d, 0x30, 0x7d, 0xd9,
  0x20, 0x65, 0xd1, 0xf3, 0x3f, 0x81, 0xdb, 0xf9, 0xd1, 0x15, 0xbb, 0xdc,
  0x3e, 0x39, 0xe9, 0x40, 0xd4, 0x26, 0xf3, 0xd6, 0xf6, 0x7f, 0x8c, 0xce,
  0xc5, 0x1d, 0xb2, 0x1e, 0x11, 0xc7, 0x18, 0x1e, 0xbd, 0xd9, 0x2f, 0x22,
  0xb5, 0x26, 0x99, 0xd5, 0xe4, 0x7f, 0x60, 0x32, 0xcb, 0x42, 0xf1, 0x3f,
  0x56, 0x28, 0x7a, 0x71, 0x9c, 0xf8, 0x21, 0x21, 0x2f, 0x7f, 0x0c, 0xd9,
  0x63, 0xf9, 0x0b, 0x91, 0xbd, 0xcc, 0x2e, 0x55, 0xfe, 0xfc, 0xff, 0xff,
  0x04, 0x00, 0x00, 0x00, 0x80, 0x00, 0x00, 0x00, 0xbc, 0xfe, 0xff, 0xff,
  0x65, 0xfe, 0xff, 0xff, 0x0c, 0x03, 0x00, 0x00, 0x3a, 0x0e, 0x00, 0x00,
  0x7f, 0x0a, 0x00, 0x00, 0xb5, 0x08, 0x00, 0x00, 0x28, 0x02, 0x00, 0x00,
  0xaa, 0x11, 0x00, 0x00, 0x00, 0x00, 0x00, 0x00, 0xd9, 0xfb, 0xff, 0xff,
  0x18, 0xf2, 0xff, 0xff, 0x88, 0x19, 0x00, 0x00, 0x00, 0x00, 0x00, 0x00,
  0x03, 0x0b, 0x00, 0x00, 0x40, 0xfc, 0xff, 0xff, 0x00, 0x00, 0x00, 0x00,
  0x89, 0xff, 0xff, 0xff, 0xe7, 0x0e, 0x00, 0x00, 0x00, 0x00, 0x00, 0x00,
  0x00, 0x00, 0x00, 0x00, 0x53, 0x12, 0x00, 0x00, 0xa5, 0x0d, 0x00, 0x00,
  0x0e, 0x02, 0x00, 0x00, 0x00, 0x00, 0x00, 0x00, 0x14, 0xe7, 0xff, 0xff,
  0xb3, 0xff, 0xff, 0xff, 0x7f, 0xfd, 0xff, 0xff, 0x00, 0x00, 0x00, 0x00,
  0xb4, 0x05, 0x00, 0x00, 0xcb, 0x08, 0x00, 0x00, 0xed, 0x09, 0x00, 0x00,
  0x64, 0x1a, 0x00, 0x00, 0x8a, 0xfd, 0xff, 0xff, 0x04, 0x00, 0x00, 0x00,
  0x00, 0x02, 0x00, 0x00, 0x46, 0xd2, 0x4c, 0xf1, 0x0e, 0x40, 0x2d, 0xd3,
  0xc4, 0xd7, 0xc1, 0x14, 0xff, 0x17, 0x07, 0xc8, 0xec, 0xdc, 0xfa, 0xe7,
  0xd3, 0x81, 0xf9, 0x44, 0x04, 0xc3, 0x06, 0xc2, 0x24, 0x95, 0x28, 0x5e,
  0x3e, 0xed, 0x1d, 0xe6, 0xc6, 0x43, 0x21, 0xd6, 0x10, 0x39, 0xb6, 0x25,
  0xea, 0x0a, 0xe8, 0xfb, 0x46, 0x37, 0x32, 0xdc, 0x81, 0x9b, 0x01, 0xca,
  0x14, 0x0e, 0xe9, 0x2d, 0x4c, 0xc1, 0xe7, 0xe9, 0x35, 0xc4, 0xc3, 0x04,
  0x55, 0x27, 0x5a, 0x46, 0x4e, 0xdd, 0xa2, 0x0e, 0x46, 0xb6, 0xa5, 0x35,
  0xf8, 0xad, 0xa2, 0x43, 0x7f, 0x3f, 0x99, 0x98, 0xea, 0x77, 0x41, 0xde,
  0x9a, 0xe7, 0xdd, 0x42, 0x06, 0xf7, 0x02, 0x36, 0xab, 0x00, 0xdc, 0x52,
  0x5b, 0xea, 0xb7, 0x0a, 0x09, 0x42, 0x0d, 0x3b, 0x28, 0xfe, 0xb3, 0x35,
  0x90, 0x9c, 0x2a, 0xe3, 0x49, 0x06, 0xd4, 0x22, 0xd6, 0x81, 0xec, 0x09,
  0xdd, 0xef, 0x25, 0x11, 0x2f, 0xec, 0x29, 0x4c, 0x16, 0x15, 0x02, 0x56,
  0x0d, 0xf3, 0x34, 0x0a, 0x1a, 0x17, 0xff, 0x28, 0x9f, 0x93, 0x15, 0x17,
  0xcc, 0x0a, 0x0a, 0xea, 0x12, 0x81, 0x01, 0x34, 0xce, 0x38, 0xe7, 0x1a,
  0x81, 0x9e, 0xec, 0x97, 0x37, 0x3d, 0x0c, 0xcd, 0xd7, 0x45, 0x1e, 0xeb,
  0x05, 0xee, 0xd9, 0xb6, 0x65, 0x26, 0xd2, 0xec, 0x58, 0x24, 0x0f, 0x43,
  0xbe, 0x6a, 0x36, 0x19, 0x0b, 0x44, 0xd6, 0x2c, 0x89, 0x24, 0x55, 0x9d,
  0xc2, 0x28, 0xea, 0xc9, 0x30, 0xd3, 0x57, 0x2d, 0xfe, 0x5a, 0x02, 0x4b,
  0x7b, 0x7f, 0x6c, 0xd5, 0x6b, 0x14, 0xb7, 0x4d, 0xdb, 0x57, 0x37, 0xf9,
  0xc2, 0x22, 0x9a, 0x1b, 0x46, 0xa4, 0x27, 0xd1, 0xda, 0x9e, 0xc2, 0xd4,
  0x1c, 0x10, 0xd3, 0xfd, 0x15, 0x06, 0x3c, 0xdc, 0x6a, 0x91, 0x81, 0xd6,
  0xda, 0xe8, 0xd2, 0x5b, 0x10, 0x09, 0xba, 0x63, 0x2b, 0xf6, 0xf7, 0x0e,
  0xb4, 0xfe, 0xdb, 0x8c, 0x44, 0xca, 0xf4, 0xf8, 0xcb, 0xf6, 0xf8, 0xc6,
  0xd6, 0x41, 0xc9, 0xe2, 0x3a, 0x7f, 0x41, 0xc5, 0xf0, 0x13, 0x25, 0x1b,
  0xf1, 0x41, 0x04, 0x10, 0x04, 0x5b, 0xf1, 0x19, 0x35, 0x50, 0xab, 0x40,
  0xbb, 0xe0, 0x46, 0xda, 0x3f, 0xb2, 0xff, 0x35, 0x14, 0xaf, 0xfe, 0x11,
  0x86, 0xb3, 0x8e, 0x30, 0x0f, 0x7f, 0x50, 0x36, 0x9e, 0x7b, 0xbe, 0xe7,
  0x2e, 0xcd, 0x0f, 0xcc, 0xfa, 0xe1, 0x16, 0x04, 0xf5, 0x10, 0x27, 0xcd,
  0xff, 0xdf, 0x04, 0xdc, 0x22, 0xa0, 0xfa, 0x01, 0x16, 0x1c, 0xed, 0xe5,
  0x46, 0x13, 0xcc, 0x31, 0xf8, 0x1b, 0xc0, 0x81, 0xfc, 0xe7, 0xe8, 0x15,
  0x05, 0xe8, 0xf4, 0x9c, 0xfa, 0x32, 0xe6, 0x1f, 0x03, 0xee, 0x30, 0x18,
  0xd9, 0x29, 0x0e, 0xd5, 0x31, 0x2c, 0x39, 0x1e, 0x14, 0x32, 0x32, 0xfc,
  0x0e, 0x7f, 0x31, 0xda, 0x22, 0x3c, 0xcc, 0x07, 0x3e, 0x4d, 0x27, 0x34,
  0xf5, 0xc1, 0xe6, 0x43, 0x0c, 0x05, 0x30, 0xe2, 0xf6, 0xfb, 0x11, 0xff,
  0x9c, 0x81, 0x02, 0x36, 0xea, 0x36, 0x2b, 0xd9, 0xdd, 0xb2, 0x22, 0x11,
  0x9a, 0xe6, 0x0d, 0xee, 0x14, 0x73, 0xb1, 0x84, 0x8b, 0x85, 0x01, 0xeb,
  0x43, 0x2c, 0xac, 0x2e, 0xd7, 0x95, 0x7f, 0x81, 0xf2, 0x16, 0x3a, 0x2b,
  0x19, 0x22, 0x78, 0xc3, 0xf2, 0x0b, 0xce, 0x6f, 0x92, 0x2e, 0x06, 0x2a,
  0x1e, 0xb9, 0x97, 0x48, 0xb3, 0x0d, 0xc7, 0x49, 0x4f, 0xc2, 0xed, 0xb5,
  0x81, 0x53, 0xac, 0x00, 0x6e, 0x29, 0xc7, 0x2e, 0xd3, 0x4b, 0xe4, 0x53,
  0xcf, 0x90, 0xb9, 0x46, 0x8a, 0xc1, 0xf0, 0xb2, 0x5e, 0x81, 0xa1, 0x45,
  0x5a, 0x19, 0xcf, 0x31, 0x32, 0xc5, 0x4e, 0xba, 0x90, 0x20, 0x00, 0xcd,
  0x7c, 0xeb, 0x34, 0x07, 0x96, 0xe0, 0x50, 0x34, 0xa8, 0xa8, 0x4c, 0x23,
  0x96, 0xff, 0xff, 0xff, 0x04, 0x00, 0x00, 0x00, 0x40, 0x00, 0x00, 0x00,
  0x32, 0x06, 0x00, 0x00, 0x8d, 0x07, 0x00, 0x00, 0x3d, 0xff, 0xff, 0xff,
  0x0b, 0x03, 0x00, 0x00, 0x23, 0x0a, 0x00, 0x00, 0x3a, 0xfc, 0xff, 0xff,
  0x05, 0xfd, 0xff, 0xff, 0x2b, 0xfc, 0xff, 0xff, 0x5a, 0xfb, 0xff, 0xff,
  0x00, 0x00, 0x00, 0x00, 0xab, 0xe4, 0xff, 0xff, 0xf7, 0xfe, 0xff, 0xff,
  0x1f, 0x05, 0x00, 0x00, 0x00, 0x00, 0x00, 0x00, 0x96, 0x05, 0x00, 0x00,
  0xb1, 0x0c, 0x00, 0x00, 0xe2, 0xff, 0xff, 0xff, 0x04, 0x00, 0x00, 0x00,
  0x10, 0x00, 0x00, 0x00, 0xc3, 0xcc, 0xe9, 0xe3, 0xe2, 0x22, 0x18, 0xcc,
  0x0b, 0x19, 0x7f, 0x16, 0xee, 0xde, 0xdc, 0xbf, 0x00, 0x00, 0x06, 0x00,
  0x08, 0x00, 0x04, 0x00, 0x06, 0x00, 0x00, 0x00, 0x04, 0x00, 0x00, 0x00,
  0x04, 0x00, 0x00, 0x00, 0xdb, 0xff, 0xff, 0xff, 0xec, 0xee, 0xff, 0xff,
  0xf0, 0xee, 0xff, 0xff, 0x0f, 0x00, 0x00, 0x00, 0x4d, 0x4c, 0x49, 0x52,
  0x20, 0x43, 0x6f, 0x6e, 0x76, 0x65, 0x72, 0x74, 0x65, 0x64, 0x2e, 0x00,
  0x01, 0x00, 0x00, 0x00, 0x14, 0x00, 0x00, 0x00, 0x00, 0x00, 0x0e, 0x00,
  0x18, 0x00, 0x14, 0x00, 0x10, 0x00, 0x0c, 0x00, 0x08, 0x00, 0x04, 0x00,
  0x0e, 0x00, 0x00, 0x00, 0x14, 0x00, 0x00, 0x00, 0x1c, 0x00, 0x00, 0x00,
  0xb8, 0x01, 0x00, 0x00, 0xbc, 0x01, 0x00, 0x00, 0xc0, 0x01, 0x00, 0x00,
  0x04, 0x00, 0x00, 0x00, 0x6d, 0x61, 0x69, 0x6e, 0x00, 0x00, 0x00, 0x00,
  0x07, 0x00, 0x00, 0x00, 0x80, 0x01, 0x00, 0x00, 0x30, 0x01, 0x00, 0x00,
  0xe4, 0x00, 0x00, 0x00, 0xa8, 0x00, 0x00, 0x00, 0x6c, 0x00, 0x00, 0x00,
  0x34, 0x00, 0x00, 0x00, 0x10, 0x00, 0x00, 0x00, 0x00, 0x00, 0x0a, 0x00,
  0x10, 0x00, 0x0c, 0x00, 0x08, 0x00, 0x04, 0x00, 0x0a, 0x00, 0x00, 0x00,
  0x0c, 0x00, 0x00, 0x00, 0x10, 0x00, 0x00, 0x00, 0x02, 0x00, 0x00, 0x00,
  0x01, 0x00, 0x00, 0x00, 0x11, 0x00, 0x00, 0x00, 0x01, 0x00, 0x00, 0x00,
  0x10, 0x00, 0x00, 0x00, 0x22, 0xff, 0xff, 0xff, 0x14, 0x00, 0x00, 0x00,
  0x00, 0x00, 0x00, 0x08, 0x10, 0x00, 0x00, 0x00, 0x14, 0x00, 0x00, 0x00,
  0x01, 0x00, 0x00, 0x00, 0xa8, 0xef, 0xff, 0xff, 0x01, 0x00, 0x00, 0x00,
  0x10, 0x00, 0x00, 0x00, 0x03, 0x00, 0x00, 0x00, 0x0f, 0x00, 0x00, 0x00,
  0x02, 0x00, 0x00, 0x00, 0x01, 0x00, 0x00, 0x00, 0x56, 0xff, 0xff, 0xff,
  0x14, 0x00, 0x00, 0x00, 0x00, 0x00, 0x00, 0x08, 0x14, 0x00, 0x00, 0x00,
  0x18, 0x00, 0x00, 0x00, 0x01, 0x00, 0x00, 0x00, 0x46, 0xff, 0xff, 0xff,
  0x00, 0x00, 0x00, 0x01, 0x01, 0x00, 0x00, 0x00, 0x0f, 0x00, 0x00, 0x00,
  0x03, 0x00, 0x00, 0x00, 0x0e, 0x00, 0x00, 0x00, 0x04, 0x00, 0x00, 0x00,
  0x03, 0x00, 0x00, 0x00, 0x8e, 0xff, 0xff, 0xff, 0x14, 0x00, 0x00, 0x00,
  0x00, 0x00, 0x00, 0x08, 0x14, 0x00, 0x00, 0x00, 0x18, 0x00, 0x00, 0x00,
  0x01, 0x00, 0x00, 0x00, 0x7e, 0xff, 0xff, 0xff, 0x00, 0x00, 0x00, 0x01,
  0x01, 0x00, 0x00, 0x00, 0x0e, 0x00, 0x00, 0x00, 0x03, 0x00, 0x00, 0x00,
  0x0d, 0x00, 0x00, 0x00, 0x06, 0x00, 0x00, 0x00, 0x05, 0x00, 0x00, 0x00,
  0xc6, 0xff, 0xff, 0xff, 0x14, 0x00, 0x00, 0x00, 0x00, 0x00, 0x00, 0x08,
  0x14, 0x00, 0x00, 0x00, 0x18, 0x00, 0x00, 0x00, 0x01, 0x00, 0x00, 0x00,
  0xb6, 0xff, 0xff, 0xff, 0x00, 0x00, 0x00, 0x01, 0x01, 0x00, 0x00, 0x00,
  0x0d, 0x00, 0x00, 0x00, 0x03, 0x00, 0x00, 0x00, 0x0c, 0x00, 0x00, 0x00,
  0x08, 0x00, 0x00, 0x00, 0x07, 0x00, 0x00, 0x00, 0x00, 0x00, 0x0e, 0x00,
  0x1a, 0x00, 0x14, 0x00, 0x10, 0x00, 0x0c, 0x00, 0x0b, 0x00, 0x04, 0x00,
  0x0e, 0x00, 0x00, 0x00, 0x1c, 0x00, 0x00, 0x00, 0x00, 0x00, 0x00, 0x08,
  0x1c, 0x00, 0x00, 0x00, 0x20, 0x00, 0x00, 0x00, 0x01, 0x00, 0x00, 0x00,
  0x00, 0x00, 0x06, 0x00, 0x08, 0x00, 0x07, 0x00, 0x06, 0x00, 0x00, 0x00,
  0x00, 0x00, 0x00, 0x01, 0x01, 0x00, 0x00, 0x00, 0x0c, 0x00, 0x00, 0x00,
  0x03, 0x00, 0x00, 0x00, 0x0b, 0x00, 0x00, 0x00, 0x0a, 0x00, 0x00, 0x00,
  0x09, 0x00, 0x00, 0x00, 0x00, 0x00, 0x0a, 0x00, 0x0c, 0x00, 0x00, 0x00,
  0x08, 0x00, 0x04, 0x00, 0x0a, 0x00, 0x00, 0x00, 0x08, 0x00, 0x00, 0x00,
  0x0c, 0x00, 0x00, 0x00, 0x01, 0x00, 0x00, 0x00, 0x0b, 0x00, 0x00, 0x00,
  0x01, 0x00, 0x00, 0x00, 0x00, 0x00, 0x00, 0x00, 0x01, 0x00, 0x00, 0x00,
  0x11, 0x00, 0x00, 0x00, 0x01, 0x00, 0x00, 0x00, 0x00, 0x00, 0x00, 0x00,
  0x12, 0x00, 0x00, 0x00, 0xe0, 0x0e, 0x00, 0x00, 0x58, 0x0e, 0x00, 0x00,
  0xd8, 0x0d, 0x00, 0x00, 0xc4, 0x0c, 0x00, 0x00, 0xa8, 0x0b, 0x00, 0x00,
  0xd4, 0x09, 0x00, 0x00, 0xf8, 0x07, 0x00, 0x00, 0xe4, 0x06, 0x00, 0x00,
  0xc8, 0x05, 0x00, 0x00, 0x14, 0x05, 0x00, 0x00, 0x58, 0x04, 0x00, 0x00,
  0xe4, 0x03, 0x00, 0x00, 0x18, 0x03, 0x00, 0x00, 0x5c, 0x02, 0x00, 0x00,
  0xa0, 0x01, 0x00, 0x00, 0xe4, 0x00, 0x00, 0x00, 0x60, 0x00, 0x00, 0x00,
  0x04, 0x00, 0x00, 0x00, 0x7e, 0xf1, 0xff, 0xff, 0x00, 0x00, 0x00, 0x01,
  0x14, 0x00, 0x00, 0x00, 0x1c, 0x00, 0x00, 0x00, 0x1c, 0x00, 0x00, 0x00,
  0x12, 0x00, 0x00, 0x00, 0x34, 0x00, 0x00, 0x00, 0x02, 0x00, 0x00, 0x00,
  0xff, 0xff, 0xff, 0xff, 0x01, 0x00, 0x00, 0x00, 0x68, 0xf1, 0xff, 0xff,
  0x1b, 0x00, 0x00, 0x00, 0x53, 0x74, 0x61, 0x74, 0x65, 0x66, 0x75, 0x6c,
  0x50, 0x61, 0x72, 0x74, 0x69, 0x74, 0x69, 0x6f, 0x6e, 0x65, 0x64, 0x43,
  0x61, 0x6c, 0x6c, 0x5f, 0x31, 0x3a, 0x30, 0x00, 0x02, 0x00, 0x00, 0x00,
  0x01, 0x00, 0x00, 0x00, 0x01, 0x00, 0x00, 0x00, 0xa6, 0xfc, 0xff, 0xff,
  0x00, 0x00, 0x00, 0x01, 0x18, 0x00, 0x00, 0x00, 0x20, 0x00, 0x00, 0x00,
  0x40, 0x00, 0x00, 0x00, 0x11, 0x00, 0x00, 0x00, 0x00, 0x00, 0x00, 0x09,
  0x58, 0x00, 0x00, 0x00, 0x02, 0x00, 0x00, 0x00, 0xff, 0xff, 0xff, 0xff,
  0x01, 0x00, 0x00, 0x00, 0x54, 0xf2, 0xff, 0xff, 0x08, 0x00, 0x00, 0x00,
  0x14, 0x00, 0x00, 0x00, 0x01, 0x00, 0x00, 0x00, 0xfe, 0xff, 0xff, 0xff,
  0xff, 0xff, 0xff, 0xff, 0x00, 0x00, 0x00, 0x00, 0x01, 0x00, 0x00, 0x00,
  0x73, 0xa3, 0xfb, 0x3b, 0x1c, 0x00, 0x00, 0x00, 0x53, 0x74, 0x61, 0x74,
  0x65, 0x66, 0x75, 0x6c, 0x50, 0x61, 0x72, 0x74, 0x69, 0x74, 0x69, 0x6f,
  0x6e, 0x65, 0x64, 0x43, 0x61, 0x6c, 0x6c, 0x5f, 0x31, 0x3a, 0x30, 0x31,
  0x00, 0x00, 0x00, 0x00, 0x02, 0x00, 0x00, 0x00, 0x01, 0x00, 0x00, 0x00,
  0x01, 0x00, 0x00, 0x00, 0x26, 0xfd, 0xff, 0xff, 0x00, 0x00, 0x00, 0x01,
  0x18, 0x00, 0x00, 0x00, 0x20, 0x00, 0x00, 0x00, 0x3c, 0x00, 0x00, 0x00,
  0x10, 0x00, 0x00, 0x00, 0x00, 0x00, 0x00, 0x09, 0x90, 0x00, 0x00, 0x00,
  0x02, 0x00, 0x00, 0x00, 0xff, 0xff, 0xff, 0xff, 0x10, 0x00, 0x00, 0x00,
  0xd4, 0xf2, 0xff, 0xff, 0x08, 0x00, 0x00, 0x00, 0x10, 0x00, 0x00, 0x00,
  0x01, 0x00, 0x00, 0x00, 0x80, 0xff, 0xff, 0xff, 0xff, 0xff, 0xff, 0xff,
  0x01, 0x00, 0x00, 0x00, 0x51, 0x04, 0xd5, 0x3b, 0x58, 0x00, 0x00, 0x00,
  0x73, 0x65, 0x71, 0x75, 0x65, 0x6e, 0x74, 0x69, 0x61, 0x6c, 0x5f, 0x31,
  0x2f, 0x64, 0x65, 0x6e, 0x73, 0x65, 0x5f, 0x33, 0x5f, 0x31, 0x2f, 0x4d,
  0x61, 0x74, 0x4d, 0x75, 0x6c, 0x3b, 0x73, 0x65, 0x71, 0x75, 0x65, 0x6e,
  0x74, 0x69, 0x61, 0x6c, 0x5f, 0x31, 0x2f, 0x64, 0x65, 0x6e, 0x73, 0x65,
  0x5f, 0x33, 0x5f, 0x31, 0x2f, 0x52, 0x65, 0x6c, 0x75, 0x3b, 0x73, 0x65,
  0x71, 0x75, 0x65, 0x6e, 0x74, 0x69, 0x61, 0x6c, 0x5f, 0x31, 0x2f, 0x64,
  0x65, 0x6e, 0x73, 0x65, 0x5f, 0x33, 0x5f, 0x31, 0x2f, 0x42, 0x69, 0x61,
  0x73, 0x41, 0x64, 0x64, 0x00, 0x00, 0x00, 0x00, 0x02, 0x00, 0x00, 0x00,
  0x01, 0x00, 0x00, 0x00, 0x10, 0x00, 0x00, 0x00, 0xde, 0xfd, 0xff, 0xff,
  0x00, 0x00, 0x00, 0x01, 0x18, 0x00, 0x00, 0x00, 0x20, 0x00, 0x00, 0x00,
  0x3c, 0x00, 0x00, 0x00, 0x0f, 0x00, 0x00, 0x00, 0x00, 0x00, 0x00, 0x09,
  0x90, 0x00, 0x00, 0x00, 0x02, 0x00, 0x00, 0x00, 0xff, 0xff, 0xff, 0xff,
  0x20, 0x00, 0x00, 0x00, 0x8c, 0xf3, 0xff, 0xff, 0x08, 0x00, 0x00, 0x00,
  0x10, 0x00, 0x00, 0x00, 0x01, 0x00, 0x00, 0x00, 0x80, 0xff, 0xff, 0xff,
  0xff, 0xff, 0xff, 0xff, 0x01, 0x00, 0x00, 0x00, 0x9b, 0x4e, 0x13, 0x3c,
  0x58, 0x00, 0x00, 0x00, 0x73, 0x65, 0x71, 0x75, 0x65, 0x6e, 0x74, 0x69,
  0x61, 0x6c, 0x5f, 0x31, 0x2f, 0x64, 0x65, 0x6e, 0x73, 0x65, 0x5f, 0x32,
  0x5f, 0x31, 0x2f, 0x4d, 0x61, 0x74, 0x4d, 0x75, 0x6c, 0x3b, 0x73, 0x65,
  0x71, 0x75, 0x65, 0x6e, 0x74, 0x69, 0x61, 0x6c, 0x5f, 0x31, 0x2f, 0x64,
  0x65, 0x6e, 0x73, 0x65, 0x5f, 0x32, 0x5f, 0x31, 0x2f, 0x52, 0x65, 0x6c,
  0x75, 0x3b, 0x73, 0x65, 0x71, 0x75, 0x65, 0x6e, 0x74, 0x69, 0x61, 0x6c,
  0x5f, 0x31, 0x2f, 0x64, 0x65, 0x6e, 0x73, 0x65, 0x5f, 0x32, 0x5f, 0x31,
  0x2f, 0x42, 0x69, 0x61, 0x73, 0x41, 0x64, 0x64, 0x00, 0x00, 0x00, 0x00,
  0x02, 0x00, 0x00, 0x00, 0x01, 0x00, 0x00, 0x00, 0x20, 0x00, 0x00, 0x00,
  0x96, 0xfe, 0xff, 0xff, 0x00, 0x00, 0x00, 0x01, 0x18, 0x00, 0x00, 0x00,
  0x20, 0x00, 0x00, 0x00, 0x3c, 0x00, 0x00, 0x00, 0x0e, 0x00, 0x00, 0x00,
  0x00, 0x00, 0x00, 0x09, 0x90, 0x00, 0x00, 0x00, 0x02, 0x00, 0x00, 0x00,
  0xff, 0xff, 0xff, 0xff, 0x10, 0x00, 0x00, 0x00, 0x44, 0xf4, 0xff, 0xff,
  0x08, 0x00, 0x00, 0x00, 0x10, 0x00, 0x00, 0x00, 0x01, 0x00, 0x00, 0x00,
  0x80, 0xff, 0xff, 0xff, 0xff, 0xff, 0xff, 0xff, 0x01, 0x00, 0x00, 0x00,
  0x7f, 0x1b, 0x70, 0x3c, 0x58, 0x00, 0x00, 0x00, 0x73, 0x65, 0x71, 0x75,
  0x65, 0x6e, 0x74, 0x69, 0x61, 0x6c, 0x5f, 0x31, 0x2f, 0x64, 0x65, 0x6e,
  0x73, 0x65, 0x5f, 0x31, 0x5f, 0x32, 0x2f, 0x4d, 0x61, 0x74, 0x4d, 0x75,
  0x6c, 0x3b, 0x73, 0x65, 0x71, 0x75, 0x65, 0x6e, 0x74, 0x69, 0x61, 0x6c,
  0x5f, 0x31, 0x2f, 0x64, 0x65, 0x6e, 0x73, 0x65, 0x5f, 0x31, 0x5f, 0x32,
  0x2f, 0x52, 0x65, 0x6c, 0x75, 0x3b, 0x73, 0x65, 0x71, 0x75, 0x65, 0x6e,
  0x74, 0x69, 0x61, 0x6c, 0x5f, 0x31, 0x2f, 0x64, 0x65, 0x6e, 0x73, 0x65,
  0x5f, 0x31, 0x5f, 0x32, 0x2f, 0x42, 0x69, 0x61, 0x73, 0x41, 0x64, 0x64,
  0x00, 0x00, 0x00, 0x00, 0x02, 0x00, 0x00, 0x00, 0x01, 0x00, 0x00, 0x00,
  0x10, 0x00, 0x00, 0x00, 0x4e, 0xff, 0xff, 0xff, 0x00, 0x00, 0x00, 0x01,
  0x18, 0x00, 0x00, 0x00, 0x20, 0x00, 0x00, 0x00, 0x3c, 0x00, 0x00, 0x00,
  0x0d, 0x00, 0x00, 0x00, 0x00, 0x00, 0x00, 0x09, 0x88, 0x00, 0x00, 0x00,
  0x02, 0x00, 0x00, 0x00, 0xff, 0xff, 0xff, 0xff, 0x08, 0x00, 0x00, 0x00,
  0xfc, 0xf4, 0xff, 0xff, 0x08, 0x00, 0x00, 0x00, 0x10, 0x00, 0x00, 0x00,
  0x01, 0x00, 0x00, 0x00, 0x80, 0xff, 0xff, 0xff, 0xff, 0xff, 0xff, 0xff,
  0x01, 0x00, 0x00, 0x00, 0x30, 0x3f, 0x8f, 0x3c, 0x52, 0x00, 0x00, 0x00,
  0x73, 0x65, 0x71, 0x75, 0x65, 0x6e, 0x74, 0x69, 0x61, 0x6c, 0x5f, 0x31,
  0x2f, 0x64, 0x65, 0x6e, 0x73, 0x65, 0x5f, 0x31, 0x2f, 0x4d, 0x61, 0x74,
  0x4d, 0x75, 0x6c, 0x3b, 0x73, 0x65, 0x71, 0x75, 0x65, 0x6e, 0x74, 0x69,
  0x61, 0x6c, 0x5f, 0x31, 0x2f, 0x64, 0x65, 0x6e, 0x73, 0x65, 0x5f, 0x31,
  0x2f, 0x52, 0x65, 0x6c, 0x75, 0x3b, 0x73, 0x65, 0x71, 0x75, 0x65, 0x6e,
  0x74, 0x69, 0x61, 0x6c, 0x5f, 0x31, 0x2f, 0x64, 0x65, 0x6e, 0x73, 0x65,
  0x5f, 0x31, 0x2f, 0x42, 0x69, 0x61, 0x73, 0x41, 0x64, 0x64, 0x00, 0x00,
  0x02, 0x00, 0x00, 0x00, 0x01, 0x00, 0x00, 0x00, 0x08, 0x00, 0x00, 0x00,
  0x00, 0x00, 0x16, 0x00, 0x20, 0x00, 0x1c, 0x00, 0x1b, 0x00, 0x14, 0x00,
  0x10, 0x00, 0x0c, 0x00, 0x00, 0x00, 0x00, 0x00, 0x08, 0x00, 0x07, 0x00,
  0x16, 0x00, 0x00, 0x00, 0x00, 0x00, 0x00, 0x01, 0x18, 0x00, 0x00, 0x00,
  0x20, 0x00, 0x00, 0x00, 0x40, 0x00, 0x00, 0x00, 0x0c, 0x00, 0x00, 0x00,
  0x00, 0x00, 0x00, 0x09, 0x48, 0x00, 0x00, 0x00, 0x02, 0x00, 0x00, 0x00,
  0xff, 0xff, 0xff, 0xff, 0x01, 0x00, 0x00, 0x00, 0xc4, 0xf5, 0xff, 0xff,
  0x08, 0x00, 0x00, 0x00, 0x14, 0x00, 0x00, 0x00, 0x01, 0x00, 0x00, 0x00,
  0x80, 0xff, 0xff, 0xff, 0xff, 0xff, 0xff, 0xff, 0x00, 0x00, 0x00, 0x00,
  0x01, 0x00, 0x00, 0x00, 0x01, 0x0a, 0xc9, 0x3c, 0x0c, 0x00, 0x00, 0x00,
  0x74, 0x66, 0x6c, 0x2e, 0x71, 0x75, 0x61, 0x6e, 0x74, 0x69, 0x7a, 0x65,
  0x00, 0x00, 0x00, 0x00, 0x02, 0x00, 0x00, 0x00, 0x01, 0x00, 0x00, 0x00,
  0x01, 0x00, 0x00, 0x00, 0x3a, 0xf6, 0xff, 0xff, 0x00, 0x00, 0x00, 0x01,
  0x14, 0x00, 0x00, 0x00, 0x88, 0x00, 0x00, 0x00, 0x0b, 0x00, 0x00, 0x00,
  0x00, 0x00, 0x00, 0x09, 0x94, 0x00, 0x00, 0x00, 0x24, 0xf6, 0xff, 0xff,
  0x08, 0x00, 0x00, 0x00, 0x4c, 0x00, 0x00, 0x00, 0x08, 0x00, 0x00, 0x00,
  0x00, 0x00, 0x00, 0x00, 0x00, 0x00, 0x00, 0x00, 0x00, 0x00, 0x00, 0x00,
  0x00, 0x00, 0x00, 0x00, 0x00, 0x00, 0x00, 0x00, 0x00, 0x00, 0x00, 0x00,
  0x00, 0x00, 0x00, 0x00, 0x00, 0x00, 0x00, 0x00, 0x00, 0x00, 0x00, 0x00,
  0x00, 0x00, 0x00, 0x00, 0x00, 0x00, 0x00, 0x00, 0x00, 0x00, 0x00, 0x00,
  0x00, 0x00, 0x00, 0x00, 0x00, 0x00, 0x00, 0x00, 0x00, 0x00, 0x00, 0x00,
  0x00, 0x00, 0x00, 0x00, 0x00, 0x00, 0x00, 0x00, 0x08, 0x00, 0x00, 0x00,
  0xc6, 0x1c, 0xaf, 0x3b, 0x92, 0x69, 0xa3, 0x3b, 0x4b, 0x64, 0x5c, 0x39,
  0x8c, 0x65, 0xa4, 0x3b, 0x77, 0xb3, 0x35, 0x3b, 0x9e, 0x52, 0xbb, 0x3b,
  0xc4, 0xa7, 0xd5, 0x3a, 0x57, 0x13, 0xaa, 0x3b, 0x12, 0x00, 0x00, 0x00,
  0x74, 0x66, 0x6c, 0x2e, 0x70, 0x73, 0x65, 0x75, 0x64, 0x6f, 0x5f, 0x71,
  0x63, 0x6f, 0x6e, 0x73, 0x74, 0x39, 0x00, 0x00, 0x02, 0x00, 0x00, 0x00,
  0x08, 0x00, 0x00, 0x00, 0x01, 0x00, 0x00, 0x00, 0xf2, 0xf6, 0xff, 0xff,
  0x00, 0x00, 0x00, 0x01, 0x14, 0x00, 0x00, 0x00, 0x84, 0x00, 0x00, 0x00,
  0x0a, 0x00, 0x00, 0x00, 0x00, 0x00, 0x00, 0x02, 0x90, 0x00, 0x00, 0x00,
  0xdc, 0xf6, 0xff, 0xff, 0x08, 0x00, 0x00, 0x00, 0x48, 0x00, 0x00, 0x00,
  0x08, 0x00, 0x00, 0x00, 0x00, 0x00, 0x00, 0x00, 0x00, 0x00, 0x00, 0x00,
  0x00, 0x00, 0x00, 0x00, 0x00, 0x00, 0x00, 0x00, 0x00, 0x00, 0x00, 0x00,
  0x00, 0x00, 0x00, 0x00, 0x00, 0x00, 0x00, 0x00, 0x00, 0x00, 0x00, 0x00,
  0x00, 0x00, 0x00, 0x00, 0x00, 0x00, 0x00, 0x00, 0x00, 0x00, 0x00, 0x00,
  0x00, 0x00, 0x00, 0x00, 0x00, 0x00, 0x00, 0x00, 0x00, 0x00, 0x00, 0x00,
  0x00, 0x00, 0x00, 0x00, 0x00, 0x00, 0x00, 0x00, 0x08, 0x00, 0x00, 0x00,
  0x6f, 0x84, 0x09, 0x39, 0x46, 0x54, 0x00, 0x39, 0x5c, 0x13, 0xad, 0x36,
  0x28, 0x1a, 0x01, 0x39, 0x02, 0xb1, 0x8e, 0x38, 0x30, 0x1b, 0x13, 0x39,
  0x12, 0xc9, 0x27, 0x38, 0xd5, 0x8f, 0x05, 0x39, 0x12, 0x00, 0x00, 0x00,
  0x74, 0x66, 0x6c, 0x2e, 0x70, 0x73, 0x65, 0x75, 0x64, 0x6f, 0x5f, 0x71,
  0x63, 0x6f, 0x6e, 0x73, 0x74, 0x38, 0x00, 0x00, 0x01, 0x00, 0x00, 0x00,
  0x08, 0x00, 0x00, 0x00, 0xa2, 0xf7, 0xff, 0xff, 0x00, 0x00, 0x00, 0x01,
  0x14, 0x00, 0x00, 0x00, 0xe8, 0x00, 0x00, 0x00, 0x09, 0x00, 0x00, 0x00,
  0x00, 0x00, 0x00, 0x09, 0xf4, 0x00, 0x00, 0x00, 0x8c, 0xf7, 0xff, 0xff,
  0x08, 0x00, 0x00, 0x00, 0x8c, 0x00, 0x00, 0x00, 0x10, 0x00, 0x00, 0x00,
  0x00, 0x00, 0x00, 0x00, 0x00, 0x00, 0x00, 0x00, 0x00, 0x00, 0x00, 0x00,
  0x00, 0x00, 0x00, 0x00, 0x00, 0x00, 0x00, 0x00, 0x00, 0x00, 0x00, 0x00,
  0x00, 0x00, 0x00, 0x00, 0x00, 0x00, 0x00, 0x00, 0x00, 0x00, 0x00, 0x00,
  0x00, 0x00, 0x00, 0x00, 0x00, 0x00, 0x00, 0x00, 0x00, 0x00, 0x00, 0x00,
  0x00, 0x00, 0x00, 0x00, 0x00, 0x00, 0x00, 0x00, 0x00, 0x00, 0x00, 0x00,
  0x00, 0x00, 0x00, 0x00, 0x00, 0x00, 0x00, 0x00, 0x00, 0x00, 0x00, 0x00,
  0x00, 0x00, 0x00, 0x00, 0x00, 0x00, 0x00, 0x00, 0x00, 0x00, 0x00, 0x00,
  0x00, 0x00, 0x00, 0x00, 0x00, 0x00, 0x00, 0x00, 0x00, 0x00, 0x00, 0x00,
  0x00, 0x00, 0x00, 0x00, 0x00, 0x00, 0x00, 0x00, 0x00, 0x00, 0x00, 0x00,
  0x00, 0x00, 0x00, 0x00, 0x00, 0x00, 0x00, 0x00, 0x00, 0x00, 0x00, 0x00,
  0x00, 0x00, 0x00, 0x00, 0x00, 0x00, 0x00, 0x00, 0x00, 0x00, 0x00, 0x00,
  0x10, 0x00, 0x00, 0x00, 0x25, 0x94, 0x6c, 0x3b, 0x7e, 0x73, 0x8a, 0x3b,
  0x57, 0xe0, 0x3f, 0x3b, 0x9f, 0x27, 0x62, 0x3b, 0xc2, 0x93, 0x65, 0x3b,
  0x85, 0x4b, 0x80, 0x3b, 0x1f, 0x16, 0xaf, 0x3b, 0xd8, 0x41, 0x67, 0x3b,
  0x1a, 0x97, 0x5c, 0x3b, 0x75, 0xe2, 0x72, 0x3b, 0x8d, 0xd0, 0x7b, 0x3b,
  0xb3, 0x76, 0x72, 0x3b, 0xb1, 0x46, 0x7d, 0x3b, 0x83, 0xed, 0x72, 0x3b,
  0x26, 0x03, 0x6d, 0x3b, 0x83, 0x6f, 0x80, 0x3b, 0x12, 0x00, 0x00, 0x00,
  0x74, 0x66, 0x6c, 0x2e, 0x70, 0x73, 0x65, 0x75, 0x64, 0x6f, 0x5f, 0x71,
  0x63, 0x6f, 0x6e, 0x73, 0x74, 0x37, 0x00, 0x00, 0x02, 0x00, 0x00, 0x00,
  0x10, 0x00, 0x00, 0x00, 0x08, 0x00, 0x00, 0x00, 0xba, 0xf8, 0xff, 0xff,
  0x00, 0x00, 0x00, 0x01, 0x14, 0x00, 0x00, 0x00, 0xe4, 0x00, 0x00, 0x00,
  0x08, 0x00, 0x00, 0x00, 0x00, 0x00, 0x00, 0x02, 0xf0, 0x00, 0x00, 0x00,
  0xa4, 0xf8, 0xff, 0xff, 0x08, 0x00, 0x00, 0x00, 0x88, 0x00, 0x00, 0x00,
  0x10, 0x00, 0x00, 0x00, 0x00, 0x00, 0x00, 0x00, 0x00, 0x00, 0x00, 0x00,
  0x00, 0x00, 0x00, 0x00, 0x00, 0x00, 0x00, 0x00, 0x00, 0x00, 0x00, 0x00,
  0x00, 0x00, 0x00, 0x00, 0x00, 0x00, 0x00, 0x00, 0x00, 0x00, 0x00, 0x00,
  0x00, 0x00, 0x00, 0x00, 0x00, 0x00, 0x00, 0x00, 0x00, 0x00, 0x00, 0x00,
  0x00, 0x00, 0x00, 0x00, 0x00, 0x00, 0x00, 0x00, 0x00, 0x00, 0x00, 0x00,
  0x00, 0x00, 0x00, 0x00, 0x00, 0x00, 0x00, 0x00, 0x00, 0x00, 0x00, 0x00,
  0x00, 0x00, 0x00, 0x00, 0x00, 0x00, 0x00, 0x00, 0x00, 0x00, 0x00, 0x00,
  0x00, 0x00, 0x00, 0x00, 0x00, 0x00, 0x00, 0x00, 0x00, 0x00, 0x00, 0x00,
  0x00, 0x00, 0x00, 0x00, 0x00, 0x00, 0x00, 0x00, 0x00, 0x00, 0x00, 0x00,
  0x00, 0x00, 0x00, 0x00, 0x00, 0x00, 0x00, 0x00, 0x00, 0x00, 0x00, 0x00,
  0x00, 0x00, 0x00, 0x00, 0x00, 0x00, 0x00, 0x00, 0x00, 0x00, 0x00, 0x00,
  0x10, 0x00, 0x00, 0x00, 0x25, 0x61, 0x84, 0x38, 0x60, 0xf1, 0x9a, 0x38,
  0x5a, 0xbb, 0x56, 0x38, 0xe8, 0x17, 0x7d, 0x38, 0x34, 0x76, 0x80, 0x38,
  0xb4, 0x93, 0x8f, 0x38, 0x25, 0xf1, 0xc3, 0x38, 0xdc, 0x66, 0x81, 0x38,
  0xb4, 0xdd, 0x76, 0x38, 0x73, 0xe8, 0x87, 0x38, 0xa6, 0xe7, 0x8c, 0x38,
  0x27, 0xac, 0x87, 0x38, 0x01, 0xb9, 0x8d, 0x38, 0xa2, 0xee, 0x87, 0x38,
  0x42, 0x9f, 0x84, 0x38, 0xfb, 0xbb, 0x8f, 0x38, 0x12, 0x00, 0x00, 0x00,
  0x74, 0x66, 0x6c, 0x2e, 0x70, 0x73, 0x65, 0x75, 0x64, 0x6f, 0x5f, 0x71,
  0x63, 0x6f, 0x6e, 0x73, 0x74, 0x36, 0x00, 0x00, 0x01, 0x00, 0x00, 0x00,
  0x10, 0x00, 0x00, 0x00, 0xca, 0xf9, 0xff, 0xff, 0x00, 0x00, 0x00, 0x01,
  0x14, 0x00, 0x00, 0x00, 0xa8, 0x01, 0x00, 0x00, 0x07, 0x00, 0x00, 0x00,
  0x00, 0x00, 0x00, 0x09, 0xb4, 0x01, 0x00, 0x00, 0xb4, 0xf9, 0xff, 0xff,
  0x08, 0x00, 0x00, 0x00, 0x0c, 0x01, 0x00, 0x00, 0x20, 0x00, 0x00, 0x00,
  0x00, 0x00, 0x00, 0x00, 0x00, 0x00, 0x00, 0x00, 0x00, 0x00, 0x00, 0x00,
  0x00, 0x00, 0x00, 0x00, 0x00, 0x00, 0x00, 0x00, 0x00, 0x00, 0x00, 0x00,
  0x00, 0x00, 0x00, 0x00, 0x00, 0x00, 0x00, 0x00, 0x00, 0x00, 0x00, 0x00,
  0x00, 0x00, 0x00, 0x00, 0x00, 0x00, 0x00, 0x00, 0x00, 0x00, 0x00, 0x00,
  0x00, 0x00, 0x00, 0x00, 0x00, 0x00, 0x00, 0x00, 0x00, 0x00, 0x00, 0x00,
  0x00, 0x00, 0x00, 0x00, 0x00, 0x00, 0x00, 0x00, 0x00, 0x00, 0x00, 0x00,
  0x00, 0x00, 0x00, 0x00, 0x00, 0x00, 0x00, 0x00, 0x00, 0x00, 0x00, 0x00,
  0x00, 0x00, 0x00, 0x00, 0x00, 0x00, 0x00, 0x00, 0x00, 0x00, 0x00, 0x00,
  0x00, 0x00, 0x00, 0x00, 0x00, 0x00, 0x00, 0x00, 0x00, 0x00, 0x00, 0x00,
  0x00, 0x00, 0x00, 0x00, 0x00, 0x00, 0x00, 0x00, 0x00, 0x00, 0x00, 0x00,
  0x00, 0x00, 0x00, 0x00, 0x00, 0x00, 0x00, 0x00, 0x00, 0x00, 0x00, 0x00,
  0x00, 0x00, 0x00, 0x00, 0x00, 0x00, 0x00, 0x00, 0x00, 0x00, 0x00, 0x00,
  0x00, 0x00, 0x00, 0x00, 0x00, 0x00, 0x00, 0x00, 0x00, 0x00, 0x00, 0x00,
  0x00, 0x00, 0x00, 0x00, 0x00, 0x00, 0x00, 0x00, 0x00, 0x00, 0x00, 0x00,
  0x00, 0x00, 0x00, 0x00, 0x00, 0x00, 0x00, 0x00, 0x00, 0x00, 0x00, 0x00,
  0x00, 0x00, 0x00, 0x00, 0x00, 0x00, 0x00, 0x00, 0x00, 0x00, 0x00, 0x00,
  0x00, 0x00, 0x00, 0x00, 0x00, 0x00, 0x00, 0x00, 0x00, 0x00, 0x00, 0x00,
  0x00, 0x00, 0x00, 0x00, 0x00, 0x00, 0x00, 0x00, 0x00, 0x00, 0x00, 0x00,
  0x00, 0x00, 0x00, 0x00, 0x00, 0x00, 0x00, 0x00, 0x00, 0x00, 0x00, 0x00,
  0x00, 0x00, 0x00, 0x00, 0x00, 0x00, 0x00, 0x00, 0x00, 0x00, 0x00, 0x00,
  0x00, 0x00, 0x00, 0x00, 0x00, 0x00, 0x00, 0x00, 0x00, 0x00, 0x00, 0x00,
  0x00, 0x00, 0x00, 0x00, 0x00, 0x00, 0x00, 0x00, 0x20, 0x00, 0x00, 0x00,
  0x0f, 0xa9, 0x30, 0x3b, 0xca, 0xc9, 0x22, 0x3b, 0x72, 0x1b, 0x83, 0x3b,
  0x13, 0x8d, 0x96, 0x3b, 0xa8, 0xc4, 0x9c, 0x3b, 0xba, 0x38, 0x96, 0x3b,
  0x05, 0xe8, 0x2d, 0x3b, 0x37, 0x1c, 0x52, 0x3b, 0x39, 0x47, 0x28, 0x3b,
  0xe6, 0x2a, 0x65, 0x3b, 0xb7, 0x5e, 0x39, 0x3b, 0x42, 0x9f, 0x82, 0x3b,
  0x99, 0xc6, 0x23, 0x3b, 0xac, 0xa8, 0x2f, 0x3b, 0x0b, 0x3d, 0x80, 0x3b,
  0xf9, 0xdf, 0x2b, 0x3b, 0x35, 0xdc, 0x39, 0x3b, 0x47, 0x33, 0x6a, 0x3b,
  0x73, 0x93, 0x35, 0x3b, 0x3d, 0x28, 0x2b, 0x3b, 0x62, 0x29, 0x81, 0x3b,
  0x73, 0x33, 0x9f, 0x3b, 0xa3, 0xc2, 0x8e, 0x3b, 0xdc, 0x85, 0x34, 0x3b,
  0xa6, 0xc2, 0x89, 0x3b, 0x0e, 0xe7, 0x2a, 0x3b, 0x99, 0x4a, 0x2f, 0x3b,
  0x72, 0x03, 0x1f, 0x3b, 0x66, 0xe2, 0x9f, 0x3b, 0x47, 0x15, 0x88, 0x3b,
  0xae, 0xda, 0x3b, 0x3b, 0xb5, 0x97, 0x4b, 0x3b, 0x12, 0x00, 0x00, 0x00,
  0x74, 0x66, 0x6c, 0x2e, 0x70, 0x73, 0x65, 0x75, 0x64, 0x6f, 0x5f, 0x71,
  0x63, 0x6f, 0x6e, 0x73, 0x74, 0x35, 0x00, 0x00, 0x02, 0x00, 0x00, 0x00,
  0x20, 0x00, 0x00, 0x00, 0x10, 0x00, 0x00, 0x00, 0xa2, 0xfb, 0xff, 0xff,
  0x00, 0x00, 0x00, 0x01, 0x14, 0x00, 0x00, 0x00, 0xa4, 0x01, 0x00, 0x00,
  0x06, 0x00, 0x00, 0x00, 0x00, 0x00, 0x00, 0x02, 0xb0, 0x01, 0x00, 0x00,
  0x8c, 0xfb, 0xff, 0xff, 0x08, 0x00, 0x00, 0x00, 0x08, 0x01, 0x00, 0x00,
  0x20, 0x00, 0x00, 0x00, 0x00, 0x00, 0x00, 0x00, 0x00, 0x00, 0x00, 0x00,
  0x00, 0x00, 0x00, 0x00, 0x00, 0x00, 0x00, 0x00, 0x00, 0x00, 0x00, 0x00,
  0x00, 0x00, 0x00, 0x00, 0x00, 0x00, 0x00, 0x00, 0x00, 0x00, 0x00, 0x00,
  0x00, 0x00, 0x00, 0x00, 0x00, 0x00, 0x00, 0x00, 0x00, 0x00, 0x00, 0x00,
  0x00, 0x00, 0x00, 0x00, 0x00, 0x00, 0x00, 0x00, 0x00, 0x00, 0x00, 0x00,
  0x00, 0x00, 0x00, 0x00, 0x00, 0x00, 0x00, 0x00, 0x00, 0x00, 0x00, 0x00,
  0x00, 0x00, 0x00, 0x00, 0x00, 0x00, 0x00, 0x00, 0x00, 0x00, 0x00, 0x00,
  0x00, 0x00, 0x00, 0x00, 0x00, 0x00, 0x00, 0x00, 0x00, 0x00, 0x00, 0x00,
  0x00, 0x00, 0x00, 0x00, 0x00, 0x00, 0x00, 0x00, 0x00, 0x00, 0x00, 0x00,
  0x00, 0x00, 0x00, 0x00, 0x00, 0x00, 0x00, 0x00, 0x00, 0x00, 0x00, 0x00,
  0x00, 0x00, 0x00, 0x00, 0x00, 0x00, 0x00, 0x00, 0x00, 0x00, 0x00, 0x00,
  0x00, 0x00, 0x00, 0x00, 0x00, 0x00, 0x00, 0x00, 0x00, 0x00, 0x00, 0x00,
  0x00, 0x00, 0x00, 0x00, 0x00, 0x00, 0x00, 0x00, 0x00, 0x00, 0x00, 0x00,
  0x00, 0x00, 0x00, 0x00, 0x00, 0x00, 0x00, 0x00, 0x00, 0x00, 0x00, 0x00,
  0x00, 0x00, 0x00, 0x00, 0x00, 0x00, 0x00, 0x00, 0x00, 0x00, 0x00, 0x00,
  0x00, 0x00, 0x00, 0x00, 0x00, 0x00, 0x00, 0x00, 0x00, 0x00, 0x00, 0x00,
  0x00, 0x00, 0x00, 0x00, 0x00, 0x00, 0x00, 0x00, 0x00, 0x00, 0x00, 0x00,
  0x00, 0x00, 0x00, 0x00, 0x00, 0x00, 0x00, 0x00, 0x00, 0x00, 0x00, 0x00,
  0x00, 0x00, 0x00, 0x00, 0x00, 0x00, 0x00, 0x00, 0x00, 0x00, 0x00, 0x00,
  0x00, 0x00, 0x00, 0x00, 0x00, 0x00, 0x00, 0x00, 0x00, 0x00, 0x00, 0x00,
  0x00, 0x00, 0x00, 0x00, 0x00, 0x00, 0x00, 0x00, 0x00, 0x00, 0x00, 0x00,
  0x00, 0x00, 0x00, 0x00, 0x00, 0x00, 0x00, 0x00, 0x20, 0x00, 0x00, 0x00,
  0x78, 0xb1, 0x25, 0x38, 0xa9, 0xae, 0x18, 0x38, 0xa0, 0xef, 0x75, 0x38,
  0x6d, 0x34, 0x8d, 0x38, 0x34, 0x09, 0x93, 0x38, 0x51, 0xe5, 0x8c, 0x38,
  0x32, 0x1c, 0x23, 0x38, 0x05, 0x11, 0x45, 0x38, 0xd8, 0xd4, 0x1d, 0x38,
  0xd5, 0xf0, 0x56, 0x38, 0xb5, 0xdc, 0x2d, 0x38, 0xab, 0x06, 0x75, 0x38,
  0xc7, 0x9b, 0x19, 0x38, 0xff, 0xc0, 0x24, 0x38, 0x01, 0x8e, 0x70, 0x38,
  0x6f, 0x34, 0x21, 0x38, 0x68, 0x52, 0x2e, 0x38, 0x3a, 0xa9, 0x5b, 0x38,
  0xbc, 0x4d, 0x2a, 0x38, 0x1b, 0x88, 0x20, 0x38, 0x57, 0x49, 0x72, 0x38,
  0x55, 0x51, 0x95, 0x38, 0xce, 0xe5, 0x85, 0x38, 0xe2, 0x50, 0x29, 0x38,
  0x47, 0x35, 0x81, 0x38, 0xf8, 0x4a, 0x20, 0x38, 0xc3, 0x68, 0x24, 0x38,
  0x4f, 0x24, 0x15, 0x38, 0x6c, 0xf5, 0x95, 0x38, 0x21, 0x45, 0x7f, 0x38,
  0x30, 0x31, 0x30, 0x38, 0x18, 0xf4, 0x3e, 0x38, 0x12, 0x00, 0x00, 0x00,
  0x74, 0x66, 0x6c, 0x2e, 0x70, 0x73, 0x65, 0x75, 0x64, 0x6f, 0x5f, 0x71,
  0x63, 0x6f, 0x6e, 0x73, 0x74, 0x34, 0x00, 0x00, 0x01, 0x00, 0x00, 0x00,
  0x20, 0x00, 0x00, 0x00, 0x72, 0xfd, 0xff, 0xff, 0x00, 0x00, 0x00, 0x01,
  0x14, 0x00, 0x00, 0x00, 0xe8, 0x00, 0x00, 0x00, 0x05, 0x00, 0x00, 0x00,
  0x00, 0x00, 0x00, 0x09, 0xf4, 0x00, 0x00, 0x00, 0x5c, 0xfd, 0xff, 0xff,
  0x08, 0x00, 0x00, 0x00, 0x8c, 0x00, 0x00, 0x00, 0x10, 0x00, 0x00, 0x00,
  0x00, 0x00, 0x00, 0x00, 0x00, 0x00, 0x00, 0x00, 0x00, 0x00, 0x00, 0x00,
  0x00, 0x00, 0x00, 0x00, 0x00, 0x00, 0x00, 0x00, 0x00, 0x00, 0x00, 0x00,
  0x00, 0x00, 0x00, 0x00, 0x00, 0x00, 0x00, 0x00, 0x00, 0x00, 0x00, 0x00,
  0x00, 0x00, 0x00, 0x00, 0x00, 0x00, 0x00, 0x00, 0x00, 0x00, 0x00, 0x00,
  0x00, 0x00, 0x00, 0x00, 0x00, 0x00, 0x00, 0x00, 0x00, 0x00, 0x00, 0x00,
  0x00, 0x00, 0x00, 0x00, 0x00, 0x00, 0x00, 0x00, 0x00, 0x00, 0x00, 0x00,
  0x00, 0x00, 0x00, 0x00, 0x00, 0x00, 0x00, 0x00, 0x00, 0x00, 0x00, 0x00,
  0x00, 0x00, 0x00, 0x00, 0x00, 0x00, 0x00, 0x00, 0x00, 0x00, 0x00, 0x00,
  0x00, 0x00, 0x00, 0x00, 0x00, 0x00, 0x00, 0x00, 0x00, 0x00, 0x00, 0x00,
  0x00, 0x00, 0x00, 0x00, 0x00, 0x00, 0x00, 0x00, 0x00, 0x00, 0x00, 0x00,
  0x00, 0x00, 0x00, 0x00, 0x00, 0x00, 0x00, 0x00, 0x00, 0x00, 0x00, 0x00,
  0x10, 0x00, 0x00, 0x00, 0xb3, 0x2d, 0x97, 0x3b, 0x30, 0x0e, 0x9e, 0x3b,
  0xed, 0x4a, 0x42, 0x3b, 0x7b, 0x2d, 0x7f, 0x3b, 0xc2, 0x03, 0xde, 0x3b,
  0x54, 0x16, 0x93, 0x3b, 0x5c, 0xc0, 0x74, 0x3b, 0xfc, 0xb2, 0x3d, 0x3b,
  0x38, 0x5b, 0xa7, 0x3b, 0xb2, 0x6f, 0x36, 0x3b, 0x1e, 0x2f, 0xd5, 0x3b,
  0x8c, 0xc0, 0xd2, 0x3b, 0x67, 0xdc, 0xb6, 0x3b, 0xb2, 0x4c, 0x35, 0x3b,
  0x8d, 0x52, 0x7a, 0x3b, 0xaa, 0x03, 0x7c, 0x3b, 0x12, 0x00, 0x00, 0x00,
  0x74, 0x66, 0x6c, 0x2e, 0x70, 0x73, 0x65, 0x75, 0x64, 0x6f, 0x5f, 0x71,
  0x63, 0x6f, 0x6e, 0x73, 0x74, 0x33, 0x00, 0x00, 0x02, 0x00, 0x00, 0x00,
  0x10, 0x00, 0x00, 0x00, 0x20, 0x00, 0x00, 0x00, 0x8a, 0xfe, 0xff, 0xff,
  0x00, 0x00, 0x00, 0x01, 0x14, 0x00, 0x00, 0x00, 0xe4, 0x00, 0x00, 0x00,
  0x04, 0x00, 0x00, 0x00, 0x00, 0x00, 0x00, 0x02, 0xf0, 0x00, 0x00, 0x00,
  0x74, 0xfe, 0xff, 0xff, 0x08, 0x00, 0x00, 0x00, 0x88, 0x00, 0x00, 0x00,
  0x10, 0x00, 0x00, 0x00, 0x00, 0x00, 0x00, 0x00, 0x00, 0x00, 0x00, 0x00,
  0x00, 0x00, 0x00, 0x00, 0x00, 0x00, 0x00, 0x00, 0x00, 0x00, 0x00, 0x00,
  0x00, 0x00, 0x00, 0x00, 0x00, 0x00, 0x00, 0x00, 0x00, 0x00, 0x00, 0x00,
  0x00, 0x00, 0x00, 0x00, 0x00, 0x00, 0x00, 0x00, 0x00, 0x00, 0x00, 0x00,
  0x00, 0x00, 0x00, 0x00, 0x00, 0x00, 0x00, 0x00, 0x00, 0x00, 0x00, 0x00,
  0x00, 0x00, 0x00, 0x00, 0x00, 0x00, 0x00, 0x00, 0x00, 0x00, 0x00, 0x00,
  0x00, 0x00, 0x00, 0x00, 0x00, 0x00, 0x00, 0x00, 0x00, 0x00, 0x00, 0x00,
  0x00, 0x00, 0x00, 0x00, 0x00, 0x00, 0x00, 0x00, 0x00, 0x00, 0x00, 0x00,
  0x00, 0x00, 0x00, 0x00, 0x00, 0x00, 0x00, 0x00, 0x00, 0x00, 0x00, 0x00,
  0x00, 0x00, 0x00, 0x00, 0x00, 0x00, 0x00, 0x00, 0x00, 0x00, 0x00, 0x00,
  0x00, 0x00, 0x00, 0x00, 0x00, 0x00, 0x00, 0x00, 0x00, 0x00, 0x00, 0x00,
  0x10, 0x00, 0x00, 0x00, 0x52, 0xfb, 0x2d, 0x38, 0x5b, 0xe5, 0x35, 0x38,
  0x5d, 0x99, 0xdf, 0x37, 0x78, 0xd5, 0x12, 0x38, 0xa8, 0x80, 0x7f, 0x38,
  0xf8, 0x45, 0x29, 0x38, 0x9c, 0xd5, 0x0c, 0x38, 0x0c, 0x50, 0xda, 0x37,
  0x89, 0x99, 0x40, 0x38, 0x4f, 0xf4, 0xd1, 0x37, 0x07, 0x57, 0x75, 0x38,
  0x8d, 0x8a, 0x72, 0x38, 0x6a, 0x71, 0x52, 0x38, 0x6b, 0xa5, 0xd0, 0x37,
  0x44, 0x0a, 0x10, 0x38, 0x7c, 0x03, 0x11, 0x38, 0x12, 0x00, 0x00, 0x00,
  0x74, 0x66, 0x6c, 0x2e, 0x70, 0x73, 0x65, 0x75, 0x64, 0x6f, 0x5f, 0x71,
  0x63, 0x6f, 0x6e, 0x73, 0x74, 0x32, 0x00, 0x00, 0x01, 0x00, 0x00, 0x00,
  0x10, 0x00, 0x00, 0x00, 0x9a, 0xff, 0xff, 0xff, 0x00, 0x00, 0x00, 0x01,
  0x14, 0x00, 0x00, 0x00, 0x34, 0x00, 0x00, 0x00, 0x03, 0x00, 0x00, 0x00,
  0x00, 0x00, 0x00, 0x09, 0x40, 0x00, 0x00, 0x00, 0x84, 0xff, 0xff, 0xff,
  0x08, 0x00, 0x00, 0x00, 0x14, 0x00, 0x00, 0x00, 0x01, 0x00, 0x00, 0x00,
  0x00, 0x00, 0x00, 0x00, 0x00, 0x00, 0x00, 0x00, 0x00, 0x00, 0x00, 0x00,
  0x01, 0x00, 0x00, 0x00, 0x98, 0xa7, 0x22, 0x3c, 0x12, 0x00, 0x00, 0x00,
  0x74, 0x66, 0x6c, 0x2e, 0x70, 0x73, 0x65, 0x75, 0x64, 0x6f, 0x5f, 0x71,
  0x63, 0x6f, 0x6e, 0x73, 0x74, 0x31, 0x00, 0x00, 0x02, 0x00, 0x00, 0x00,
  0x01, 0x00, 0x00, 0x00, 0x10, 0x00, 0x00, 0x00, 0x00, 0x00, 0x16, 0x00,
  0x1c, 0x00, 0x18, 0x00, 0x17, 0x00, 0x10, 0x00, 0x0c, 0x00, 0x08, 0x00,
  0x00, 0x00, 0x00, 0x00, 0x00, 0x00, 0x07, 0x00, 0x16, 0x00, 0x00, 0x00,
  0x00, 0x00, 0x00, 0x01, 0x20, 0x00, 0x00, 0x00, 0x40, 0x00, 0x00, 0x00,
  0x02, 0x00, 0x00, 0x00, 0x00, 0x00, 0x00, 0x02, 0x4c, 0x00, 0x00, 0x00,
  0x0c, 0x00, 0x0c, 0x00, 0x00, 0x00, 0x00, 0x00, 0x08, 0x00, 0x04, 0x00,
  0x0c, 0x00, 0x00, 0x00, 0x08, 0x00, 0x00, 0x00, 0x14, 0x00, 0x00, 0x00,
  0x01, 0x00, 0x00, 0x00, 0x00, 0x00, 0x00, 0x00, 0x00, 0x00, 0x00, 0x00,
  0x00, 0x00, 0x00, 0x00, 0x01, 0x00, 0x00, 0x00, 0x30, 0x58, 0x87, 0x38,
  0x11, 0x00, 0x00, 0x00, 0x74, 0x66, 0x6c, 0x2e, 0x70, 0x73, 0x65, 0x75,
  0x64, 0x6f, 0x5f, 0x71, 0x63, 0x6f, 0x6e, 0x73, 0x74, 0x00, 0x00, 0x00,
  0x01, 0x00, 0x00, 0x00, 0x01, 0x00, 0x00, 0x00, 0x00, 0x00, 0x16, 0x00,
  0x1c, 0x00, 0x18, 0x00, 0x00, 0x00, 0x14, 0x00, 0x10, 0x00, 0x0c, 0x00,
  0x00, 0x00, 0x00, 0x00, 0x08, 0x00, 0x07, 0x00, 0x16, 0x00, 0x00, 0x00,
  0x00, 0x00, 0x00, 0x01, 0x14, 0x00, 0x00, 0x00, 0x20, 0x00, 0x00, 0x00,
  0x20, 0x00, 0x00, 0x00, 0x01, 0x00, 0x00, 0x00, 0x3c, 0x00, 0x00, 0x00,
  0x02, 0x00, 0x00, 0x00, 0xff, 0xff, 0xff, 0xff, 0x01, 0x00, 0x00, 0x00,
  0x04, 0x00, 0x04, 0x00, 0x04, 0x00, 0x00, 0x00, 0x1e, 0x00, 0x00, 0x00,
  0x73, 0x65, 0x72, 0x76, 0x69, 0x6e, 0x67, 0x5f, 0x64, 0x65, 0x66, 0x61,
  0x75, 0x6c, 0x74, 0x5f, 0x6b, 0x65, 0x72, 0x61, 0x73, 0x5f, 0x74, 0x65,
  0x6e, 0x73, 0x6f, 0x72, 0x3a, 0x30, 0x00, 0x00, 0x02, 0x00, 0x00, 0x00,
  0x01, 0x00, 0x00, 0x00, 0x01, 0x00, 0x00, 0x00, 0x03, 0x00, 0x00, 0x00,
  0x44, 0x00, 0x00, 0x00, 0x24, 0x00, 0x00, 0x00, 0x04, 0x00, 0x00, 0x00,
  0xf0, 0xff, 0xff, 0xff, 0x06, 0x00, 0x00, 0x00, 0x02, 0x00, 0x00, 0x00,
  0x00, 0x00, 0x00, 0x06, 0x0c, 0x00, 0x10, 0x00, 0x0f, 0x00, 0x00, 0x00,
  0x08, 0x00, 0x04, 0x00, 0x0c, 0x00, 0x00, 0x00, 0x09, 0x00, 0x00, 0x00,
  0x04, 0x00, 0x00, 0x00, 0x00, 0x00, 0x00, 0x09, 0x0c, 0x00, 0x0c, 0x00,
  0x0b, 0x00, 0x00, 0x00, 0x00, 0x00, 0x04, 0x00, 0x0c, 0x00, 0x00, 0x00,
  0x72, 0x00, 0x00, 0x00, 0x00, 0x00, 0x00, 0x72
};
unsigned int models_complex_sine_model_quantized_tflite_len = 6704;
