unsigned char models_complex_sine_model_quantized_tflite[] = {
  0x20, 0x00, 0x00, 0x00, 0x54, 0x46, 0x4c, 0x33, 0x00, 0x00, 0x00, 0x00,
  0x14, 0x00, 0x20, 0x00, 0x1c, 0x00, 0x18, 0x00, 0x14, 0x00, 0x10, 0x00,
  0x0c, 0x00, 0x00, 0x00, 0x08, 0x00, 0x04, 0x00, 0x14, 0x00, 0x00, 0x00,
  0x1c, 0x00, 0x00, 0x00, 0x8c, 0x00, 0x00, 0x00, 0x0c, 0x01, 0x00, 0x00,
  0x68, 0x08, 0x00, 0x00, 0x78, 0x08, 0x00, 0x00, 0xa4, 0x19, 0x00, 0x00,
  0x03, 0x00, 0x00, 0x00, 0x01, 0x00, 0x00, 0x00, 0x04, 0x00, 0x00, 0x00,
  0x3e, 0xf7, 0xff, 0xff, 0x0c, 0x00, 0x00, 0x00, 0x1c, 0x00, 0x00, 0x00,
  0x3c, 0x00, 0x00, 0x00, 0x0f, 0x00, 0x00, 0x00, 0x73, 0x65, 0x72, 0x76,
  0x69, 0x6e, 0x67, 0x5f, 0x64, 0x65, 0x66, 0x61, 0x75, 0x6c, 0x74, 0x00,
  0x01, 0x00, 0x00, 0x00, 0x04, 0x00, 0x00, 0x00, 0x68, 0xff, 0xff, 0xff,
  0x11, 0x00, 0x00, 0x00, 0x04, 0x00, 0x00, 0x00, 0x08, 0x00, 0x00, 0x00,
  0x6f, 0x75, 0x74, 0x70, 0x75, 0x74, 0x5f, 0x30, 0x00, 0x00, 0x00, 0x00,
  0x01, 0x00, 0x00, 0x00, 0x04, 0x00, 0x00, 0x00, 0x1e, 0xf8, 0xff, 0xff,
  0x04, 0x00, 0x00, 0x00, 0x0c, 0x00, 0x00, 0x00, 0x6b, 0x65, 0x72, 0x61,
  0x73, 0x5f, 0x74, 0x65, 0x6e, 0x73, 0x6f, 0x72, 0x00, 0x00, 0x00, 0x00,
  0x03, 0x00, 0x00, 0x00, 0x5c, 0x00, 0x00, 0x00, 0x2c, 0x00, 0x00, 0x00,
  0x04, 0x00, 0x00, 0x00, 0xb8, 0xff, 0xff, 0xff, 0x15, 0x00, 0x00, 0x00,
  0x04, 0x00, 0x00, 0x00, 0x13, 0x00, 0x00, 0x00, 0x43, 0x4f, 0x4e, 0x56,
  0x45, 0x52, 0x53, 0x49, 0x4f, 0x4e, 0x5f, 0x4d, 0x45, 0x54, 0x41, 0x44,
  0x41, 0x54, 0x41, 0x00, 0xdc, 0xff, 0xff, 0xff, 0x14, 0x00, 0x00, 0x00,
  0x04, 0x00, 0x00, 0x00, 0x13, 0x00, 0x00, 0x00, 0x6d, 0x69, 0x6e, 0x5f,
  0x72, 0x75, 0x6e, 0x74, 0x69, 0x6d, 0x65, 0x5f, 0x76, 0x65, 0x72, 0x73,
  0x69, 0x6f, 0x6e, 0x00, 0x08, 0x00, 0x0c, 0x00, 0x08, 0x00, 0x04, 0x00,
  0x08, 0x00, 0x00, 0x00, 0x13, 0x00, 0x00, 0x00, 0x04, 0x00, 0x00, 0x00,
  0x13, 0x00, 0x00, 0x00, 0x6d, 0x69, 0x6e, 0x5f, 0x72, 0x75, 0x6e, 0x74,
  0x69, 0x6d, 0x65, 0x5f, 0x76, 0x65, 0x72, 0x73, 0x69, 0x6f, 0x6e, 0x00,
  0x16, 0x00, 0x00, 0x00, 0x58, 0x07, 0x00, 0x00, 0x50, 0x07, 0x00, 0x00,
  0x3c, 0x07, 0x00, 0x00, 0x14, 0x07, 0x00, 0x00, 0xc4, 0x06, 0x00, 0x00,
  0xb4, 0x04, 0x00, 0x00, 0x24, 0x04, 0x00, 0x00, 0x14, 0x02, 0x00, 0x00,
  0xc4, 0x01, 0x00, 0x00, 0x34, 0x01, 0x00, 0x00, 0x04, 0x01, 0x00, 0x00,
  0xec, 0x00, 0x00, 0x00, 0xe4, 0x00, 0x00, 0x00, 0xdc, 0x00, 0x00, 0x00,
  0xd4, 0x00, 0x00, 0x00, 0xcc, 0x00, 0x00, 0x00, 0xc4, 0x00, 0x00, 0x00,
  0xbc, 0x00, 0x00, 0x00, 0xb4, 0x00, 0x00, 0x00, 0x94, 0x00, 0x00, 0x00,
  0x74, 0x00, 0x00, 0x00, 0x04, 0x00, 0x00, 0x00, 0x1a, 0xf9, 0xff, 0xff,
  0x04, 0x00, 0x00, 0x00, 0x60, 0x00, 0x00, 0x00, 0x0c, 0x00, 0x00, 0x00,
  0x08, 0x00, 0x0e, 0x00, 0x08, 0x00, 0x04, 0x00, 0x08, 0x00, 0x00, 0x00,
  0x10, 0x00, 0x00, 0x00, 0x28, 0x00, 0x00, 0x00, 0x00, 0x00, 0x06, 0x00,
  0x08, 0x00, 0x04, 0x00, 0x06, 0x00, 0x00, 0x00, 0x04, 0x00, 0x00, 0x00,
  0x01, 0x00, 0x00, 0x00, 0xeb, 0x03, 0x00, 0x00, 0x0c, 0x00, 0x18, 0x00,
  0x14, 0x00, 0x10, 0x00, 0x0c, 0x00, 0x04, 0x00, 0x0c, 0x00, 0x00, 0x00,
  0x4a, 0xcd, 0x4c, 0x6f, 0x69, 0x7e, 0x44, 0x16, 0x02, 0x00, 0x00, 0x00,
  0x02, 0x00, 0x00, 0x00, 0x04, 0x00, 0x00, 0x00, 0x06, 0x00, 0x00, 0x00,
  0x32, 0x2e, 0x31, 0x39, 0x2e, 0x30, 0x00, 0x00, 0x86, 0xf9, 0xff, 0xff,
  0x04, 0x00, 0x00, 0x00, 0x10, 0x00, 0x00, 0x00, 0x00, 0x00, 0x00, 0x00,
  0x00, 0x00, 0x00, 0x00, 0x00, 0x00, 0x00, 0x00, 0x00, 0x00, 0x00, 0x00,
  0xa2, 0xf9, 0xff, 0xff, 0x04, 0x00, 0x00, 0x00, 0x10, 0x00, 0x00, 0x00,
  0x31, 0x2e, 0x31, 0x34, 0x2e, 0x30, 0x00, 0x00, 0x00, 0x00, 0x00, 0x00,
  0x00, 0x00, 0x00, 0x00, 0x94, 0xe8, 0xff, 0xff, 0x98, 0xe8, 0xff, 0xff,
  0x9c, 0xe8, 0xff, 0xff, 0xa0, 0xe8, 0xff, 0xff, 0xa4, 0xe8, 0xff, 0xff,
  0xa8, 0xe8, 0xff, 0xff, 0xac, 0xe8, 0xff, 0xff, 0xda, 0xf9, 0xff, 0xff,
  0x04, 0x00, 0x00, 0x00, 0x08, 0x00, 0x00, 0x00, 0x7f, 0x81, 0x81, 0x81,
  0x81, 0x81, 0x7f, 0x7f, 0xee, 0xf9, 0xff, 0xff, 0x04, 0x00, 0x00, 0x00,
  0x20, 0x00, 0x00, 0x00, 0xf3, 0x39, 0x00, 0x00, 0x00, 0x00, 0x00, 0x00,
  0x00, 0x00, 0x00, 0x00, 0x00, 0x00, 0x00, 0x00, 0x00, 0x00, 0x00, 0x00,
  0x00, 0x00, 0x00, 0x00, 0x40, 0xfe, 0xff, 0xff, 0x71, 0xf4, 0xff, 0xff,
  0x1a, 0xfa, 0xff, 0xff, 0x04, 0x00, 0x00, 0x00, 0x80, 0x00, 0x00, 0x00,
  0x7f, 0xed, 0xd9, 0x36, 0xad, 0xc3, 0xae, 0x07, 0xe3, 0x0d, 0x53, 0x39,
  0x89, 0x7f, 0xd9, 0xf2, 0x7f, 0x57, 0x5a, 0xac, 0x0b, 0xe6, 0xee, 0xd7,
  0xf1, 0xd6, 0x65, 0x56, 0x9d, 0xbc, 0x1d, 0x81, 0xd5, 0x77, 0xd7, 0xd7,
  0xb9, 0xe5, 0x81, 0xb6, 0xcc, 0xa7, 0x21, 0x31, 0x21, 0x53, 0x7f, 0x6e,
  0x81, 0x72, 0x77, 0x10, 0xc8, 0x44, 0x8f, 0x0e, 0x81, 0x23, 0x60, 0x39,
  0x3a, 0xf5, 0xb2, 0x35, 0x7f, 0x97, 0x6e, 0xc6, 0xb6, 0xe7, 0x94, 0xbd,
  0xcd, 0xa7, 0x61, 0x1f, 0xed, 0x8d, 0x81, 0x4c, 0x4f, 0x81, 0x31, 0xb8,
  0xde, 0x27, 0x3e, 0xf7, 0xa6, 0x6a, 0x8f, 0x22, 0x8b, 0x51, 0x1d, 0x81,
  0x46, 0x26, 0x1a, 0x66, 0x97, 0x7a, 0xfa, 0x81, 0xe7, 0xcc, 0x95, 0x18,
  0x81, 0x25, 0x9a, 0x2c, 0x1e, 0x81, 0xec, 0x36, 0x60, 0x77, 0xae, 0x89,
  0xe8, 0xb9, 0x81, 0x87, 0xa0, 0x2e, 0x35, 0x74, 0xa6, 0xfa, 0xff, 0xff,
  0x04, 0x00, 0x00, 0x00, 0x40, 0x00, 0x00, 0x00, 0x55, 0x0a, 0x00, 0x00,
  0x00, 0x00, 0x00, 0x00, 0xa7, 0x0d, 0x00, 0x00, 0x24, 0x01, 0x00, 0x00,
  0x00, 0x00, 0x00, 0x00, 0x96, 0xf1, 0xff, 0xff, 0x00, 0x00, 0x00, 0x00,
  0x00, 0x00, 0x00, 0x00, 0x12, 0x07, 0x00, 0x00, 0x00, 0x00, 0x00, 0x00,
  0x06, 0x19, 0x00, 0x00, 0x00, 0x00, 0x00, 0x00, 0x46, 0x0d, 0x00, 0x00,
  0x00, 0x00, 0x00, 0x00, 0x30, 0xfd, 0xff, 0xff, 0xa8, 0xe7, 0xff, 0xff,
  0xf2, 0xfa, 0xff, 0xff, 0x04, 0x00, 0x00, 0x00, 0x00, 0x02, 0x00, 0x00,
  0xf5, 0xb7, 0x7f, 0x1e, 0xef, 0xde, 0x11, 0x10, 0xca, 0xbf, 0xfa, 0xeb,
  0xb8, 0x0a, 0xc0, 0x25, 0xe8, 0x38, 0x1f, 0x7f, 0x18, 0xe6, 0xd4, 0xdf,
  0x33, 0xc6, 0x35, 0xe5, 0x39, 0xff, 0x19, 0xc7, 0x81, 0xbe, 0x56, 0xfd,
  0x29, 0xd0, 0x26, 0xdb, 0xdd, 0x39, 0x38, 0xde, 0x0a, 0x11, 0xb8, 0xba,
  0xb7, 0x3d, 0x7f, 0x56, 0xa4, 0xf3, 0x43, 0x01, 0xb1, 0x56, 0xee, 0xda,
  0xc5, 0x51, 0x50, 0xf4, 0x83, 0x1f, 0x08, 0x7f, 0x13, 0xc1, 0xff, 0xad,
  0x17, 0xf7, 0x2c, 0x43, 0x01, 0xd5, 0x05, 0x1f, 0x43, 0x29, 0xf1, 0x81,
  0xb7, 0xe1, 0xa0, 0x3f, 0xa1, 0x41, 0x35, 0xdd, 0xf7, 0x5d, 0xdf, 0x9a,
  0xcf, 0x5f, 0xb0, 0xc2, 0x17, 0x29, 0x18, 0xf0, 0xc4, 0xdb, 0xf3, 0x01,
  0x81, 0x04, 0x3f, 0xcc, 0x0e, 0xfc, 0x81, 0x16, 0x11, 0x17, 0x1b, 0x11,
  0x0b, 0x21, 0xe6, 0x0e, 0x14, 0x20, 0xff, 0x23, 0x2a, 0xe4, 0xe4, 0x7f,
  0x0e, 0x0f, 0xba, 0x48, 0x1a, 0x03, 0x12, 0xb7, 0xe6, 0x4d, 0x11, 0x1a,
  0xb8, 0x77, 0x2f, 0x9e, 0x6f, 0x27, 0x2f, 0x34, 0x12, 0x86, 0xef, 0x78,
  0x06, 0xf4, 0x7f, 0xa0, 0xf1, 0xdd, 0x81, 0x1a, 0x10, 0x1e, 0xd7, 0x1a,
  0x14, 0x1b, 0xed, 0x28, 0xcd, 0xdd, 0x24, 0x39, 0x70, 0x20, 0xee, 0xa5,
  0x41, 0xd4, 0x08, 0xac, 0xb6, 0xf1, 0xae, 0x58, 0x30, 0xe3, 0x7f, 0xcb,
  0xd1, 0x45, 0x59, 0x7f, 0xbf, 0x08, 0xdd, 0xe9, 0x00, 0x11, 0x36, 0x02,
  0x12, 0xdb, 0xec, 0x2f, 0xd4, 0x2c, 0x48, 0x34, 0x23, 0x1a, 0x97, 0x2e,
  0x19, 0x48, 0xed, 0x17, 0x09, 0x2d, 0xcc, 0x7f, 0x1a, 0xb1, 0x78, 0x7f,
  0x14, 0xb8, 0xfa, 0xf6, 0x00, 0xbb, 0x3a, 0x1b, 0x07, 0x30, 0x4a, 0x0c,
  0xec, 0xb3, 0x2e, 0xd5, 0xfa, 0xaa, 0x32, 0xc6, 0x81, 0xb9, 0x70, 0xa7,
  0xe3, 0xce, 0x4b, 0xc2, 0x6c, 0xc3, 0xb2, 0x02, 0x31, 0x55, 0x15, 0xfd,
  0x6d, 0xf8, 0x50, 0x1b, 0x7f, 0xfc, 0x5f, 0xbf, 0xb4, 0xcb, 0x7f, 0x60,
  0xb4, 0xca, 0xba, 0x01, 0xe4, 0xda, 0x48, 0x1e, 0xb3, 0xbe, 0x28, 0xc9,
  0x2d, 0x3e, 0xc1, 0x81, 0xf5, 0x25, 0x37, 0x34, 0x33, 0x10, 0x09, 0x30,
  0x0c, 0x16, 0x13, 0xc7, 0x7f, 0xb7, 0x99, 0x58, 0xe7, 0xed, 0xf0, 0xa8,
  0xa4, 0x9e, 0xcf, 0x6f, 0x76, 0xd5, 0x89, 0x17, 0x0f, 0xe8, 0xac, 0x8e,
  0x71, 0xa9, 0xe3, 0x90, 0x81, 0x7d, 0xc4, 0xe8, 0x79, 0x31, 0x50, 0xac,
  0xc2, 0x38, 0x0c, 0x81, 0x40, 0xcb, 0x37, 0x1c, 0xc5, 0xe4, 0x49, 0xb9,
  0x00, 0xf1, 0x0a, 0x19, 0x1b, 0x24, 0x81, 0xe9, 0xdc, 0x37, 0x2b, 0x14,
  0x08, 0x04, 0xca, 0x0c, 0xda, 0xd4, 0xe2, 0xe0, 0xa5, 0x82, 0xb7, 0x1a,
  0xe7, 0xe3, 0x91, 0x0a, 0x87, 0x81, 0x9e, 0xe3, 0xa7, 0xa5, 0x9e, 0xda,
  0x2f, 0xac, 0x0c, 0x87, 0x0e, 0x81, 0x3e, 0x4a, 0x3a, 0x1b, 0x0d, 0x21,
  0x65, 0xe9, 0xda, 0xa2, 0xe4, 0x35, 0x39, 0xe5, 0x97, 0x9d, 0x7f, 0xcb,
  0x2c, 0x61, 0xb2, 0x9e, 0xc4, 0xf6, 0xfb, 0x8c, 0x7f, 0xac, 0xe9, 0x28,
  0x40, 0x47, 0xe6, 0xc0, 0x79, 0xaa, 0x60, 0xd1, 0x3d, 0xf6, 0xea, 0x68,
  0x92, 0x22, 0x7f, 0x4a, 0xb7, 0xb4, 0x06, 0xdd, 0x98, 0xc9, 0x6f, 0xd5,
  0xd5, 0xaa, 0x25, 0xae, 0x7c, 0x81, 0x0a, 0xff, 0xd6, 0xd5, 0x3a, 0xb4,
  0x97, 0x66, 0x91, 0xff, 0x86, 0xb2, 0x3b, 0xee, 0x81, 0xb8, 0x48, 0x50,
  0x47, 0xe0, 0x40, 0xfc, 0x26, 0xc7, 0x4e, 0x08, 0x93, 0xc4, 0xde, 0x1e,
  0xc2, 0xfa, 0x7f, 0x81, 0xaa, 0xd2, 0xcf, 0x18, 0xe0, 0x18, 0x01, 0x62,
  0xeb, 0xfb, 0x71, 0xf8, 0xab, 0xed, 0x0d, 0x85, 0x79, 0x92, 0x02, 0x06,
  0x35, 0x96, 0x85, 0x7f, 0x37, 0xc4, 0x42, 0xb5, 0xfe, 0xfc, 0xff, 0xff,
  0x04, 0x00, 0x00, 0x00, 0x80, 0x00, 0x00, 0x00, 0xae, 0x0c, 0x00, 0x00,
  0x11, 0x09, 0x00, 0x00, 0x58, 0x0b, 0x00, 0x00, 0x5e, 0x11, 0x00, 0x00,
  0x46, 0x08, 0x00, 0x00, 0x07, 0x07, 0x00, 0x00, 0xa4, 0x0d, 0x00, 0x00,
  0xaa, 0xee, 0xff, 0xff, 0x57, 0xff, 0xff, 0xff, 0x5f, 0xfb, 0xff, 0xff,
  0xc1, 0xe8, 0xff, 0xff, 0x67, 0xff, 0xff, 0xff, 0xf4, 0x06, 0x00, 0x00,
  0xe0, 0x15, 0x00, 0x00, 0xf8, 0x0e, 0x00, 0x00, 0xb4, 0x34, 0x00, 0x00,
  0x57, 0x20, 0x00, 0x00, 0x5a, 0x0f, 0x00, 0x00, 0xc9, 0x07, 0x00, 0x00,
  0x9e, 0xfd, 0xff, 0xff, 0x00, 0x00, 0x00, 0x00, 0x18, 0x1b, 0x00, 0x00,
  0x13, 0xfa, 0xff, 0xff, 0x00, 0x00, 0x00, 0x00, 0xaa, 0x07, 0x00, 0x00,
  0xad, 0xfe, 0xff, 0xff, 0x72, 0xf0, 0xff, 0xff, 0x17, 0x11, 0x00, 0x00,
  0xd1, 0xfe, 0xff, 0xff, 0x96, 0x13, 0x00, 0x00, 0x41, 0x3e, 0x00, 0x00,
  0x00, 0x00, 0x00, 0x00, 0x8a, 0xfd, 0xff, 0xff, 0x04, 0x00, 0x00, 0x00,
  0x00, 0x02, 0x00, 0x00, 0x60, 0xef, 0x12, 0x26, 0x79, 0xa2, 0xa2, 0xa3,
  0x03, 0x47, 0x81, 0x18, 0x30, 0x4c, 0x52, 0x2f, 0xb7, 0x74, 0x15, 0x38,
  0xff, 0xc1, 0x3f, 0x53, 0x8d, 0x00, 0x0b, 0x5f, 0x18, 0x05, 0xc4, 0xbf,
  0x11, 0x1b, 0x0c, 0x7f, 0x4c, 0xcf, 0xfc, 0xd2, 0x30, 0x06, 0xa4, 0xc9,
  0x2f, 0x3c, 0x0d, 0xf8, 0xa5, 0x58, 0x15, 0xfb, 0xe9, 0x3d, 0xe6, 0xcb,
  0xa2, 0x13, 0xd8, 0x73, 0xfa, 0x0a, 0x01, 0x3c, 0x1c, 0x69, 0xab, 0x34,
  0xe1, 0x10, 0xf3, 0xde, 0x24, 0x65, 0x18, 0x05, 0x61, 0xa5, 0xc5, 0x2e,
  0xf6, 0x2f, 0x2b, 0xd6, 0x59, 0xab, 0xf0, 0x26, 0x5f, 0x14, 0x00, 0xa8,
  0xc6, 0xa2, 0x81, 0x71, 0xd3, 0xc6, 0xc3, 0x0a, 0xc3, 0x09, 0xe0, 0xc4,
  0x2e, 0xe5, 0xd9, 0x27, 0x28, 0x2c, 0xce, 0x7f, 0x38, 0xdf, 0xea, 0xe4,
  0x21, 0x09, 0x03, 0x19, 0x1e, 0xea, 0x24, 0xdb, 0xd6, 0x2b, 0x3f, 0xd6,
  0x8c, 0x8d, 0xf5, 0x54, 0x01, 0x2f, 0x97, 0xaa, 0xd3, 0xc9, 0xb6, 0x15,
  0xd5, 0x0b, 0xbe, 0x14, 0xd6, 0x42, 0xc8, 0x6b, 0x0e, 0xbb, 0xf5, 0x9d,
  0x7f, 0xde, 0x34, 0x91, 0x75, 0x85, 0xd6, 0xe3, 0xec, 0xd1, 0xc6, 0x58,
  0xea, 0xe6, 0x27, 0xb3, 0x69, 0x8e, 0x93, 0x05, 0x7f, 0x11, 0x06, 0x89,
  0xb0, 0xa6, 0x01, 0x5a, 0x3d, 0x43, 0xf3, 0xe0, 0x29, 0x0b, 0xac, 0x19,
  0x9e, 0xa1, 0x6f, 0x27, 0xc1, 0x3f, 0x62, 0x1a, 0x18, 0xb6, 0x55, 0xb5,
  0x0b, 0x9a, 0xe9, 0x26, 0x4c, 0xb4, 0xa0, 0x51, 0x81, 0xdb, 0xc6, 0x3d,
  0xba, 0x08, 0xd2, 0x4b, 0xc9, 0x03, 0x62, 0xfb, 0x22, 0xf6, 0xac, 0x40,
  0x7f, 0xe0, 0x32, 0x02, 0x02, 0x20, 0xe6, 0x19, 0xae, 0xf5, 0x76, 0xd6,
  0xdb, 0x33, 0x6a, 0x82, 0x3f, 0xa4, 0xb6, 0x87, 0x8e, 0xfe, 0xb3, 0x6c,
  0x8b, 0xf3, 0x9d, 0x8e, 0xda, 0x96, 0x25, 0xd3, 0x0f, 0xdf, 0x8a, 0x3b,
  0x2c, 0xb4, 0xf1, 0xbd, 0xae, 0x2d, 0xc2, 0x95, 0x3b, 0x81, 0xa8, 0xf4,
  0x9c, 0x21, 0x13, 0x58, 0x96, 0x09, 0x30, 0x39, 0x4b, 0xc2, 0xdc, 0x70,
  0x1e, 0x1d, 0xbc, 0xab, 0x99, 0x14, 0xdd, 0x81, 0x13, 0x9d, 0x23, 0x74,
  0x36, 0x7d, 0x86, 0x71, 0x7e, 0x9f, 0x2f, 0x39, 0x96, 0xeb, 0x86, 0xb8,
  0xee, 0xc2, 0x47, 0x65, 0x2f, 0x34, 0x83, 0x25, 0xeb, 0xe9, 0x5e, 0xad,
  0x3e, 0x3c, 0x0f, 0x3f, 0xf0, 0xdb, 0xdc, 0x7f, 0x26, 0xe7, 0x56, 0x02,
  0x15, 0x10, 0x1b, 0xab, 0xf2, 0x3d, 0xe5, 0xfe, 0x01, 0xda, 0x1d, 0xe2,
  0xe2, 0x0b, 0x28, 0x3a, 0xe7, 0x00, 0xe9, 0xe8, 0x0c, 0x90, 0x02, 0x81,
  0xcb, 0xde, 0x50, 0x34, 0x25, 0x53, 0x49, 0xab, 0xc6, 0xcd, 0xb3, 0xab,
  0x15, 0x90, 0xb9, 0x35, 0x7f, 0x78, 0x2d, 0xad, 0x00, 0x07, 0xcf, 0x36,
  0x7b, 0x97, 0x95, 0xef, 0x22, 0x00, 0x3d, 0xd8, 0x73, 0xb2, 0x26, 0xf8,
  0xcb, 0x08, 0xd0, 0x2f, 0x27, 0xcd, 0xdd, 0x66, 0xbb, 0x1e, 0xe1, 0x50,
  0xd8, 0x20, 0x2a, 0x0b, 0x91, 0x34, 0xac, 0x7f, 0xac, 0x46, 0x4d, 0x0a,
  0x1c, 0xf4, 0x70, 0x5e, 0x4f, 0x9b, 0x1c, 0x15, 0x34, 0xd1, 0xd1, 0x59,
  0xfb, 0x45, 0x78, 0x7f, 0xd7, 0x7f, 0xc0, 0xcc, 0x02, 0x0f, 0x24, 0xe4,
  0xae, 0xe8, 0xb8, 0x60, 0xe6, 0xd5, 0x2b, 0x4c, 0x3f, 0x1d, 0xfc, 0x36,
  0x07, 0xcc, 0x06, 0x7f, 0xfb, 0xfd, 0xf8, 0x04, 0xd2, 0x19, 0x21, 0x9e,
  0x1c, 0x4c, 0x13, 0x14, 0xdd, 0xb9, 0x22, 0x29, 0xf5, 0x2c, 0x31, 0xf5,
  0x1a, 0x08, 0xbc, 0xcd, 0x72, 0x4f, 0x7f, 0x7e, 0x7c, 0x29, 0xc1, 0x34,
  0x35, 0xcf, 0xea, 0xab, 0xfa, 0xde, 0x16, 0x6a, 0x2b, 0x6a, 0x08, 0x44,
  0xfb, 0xd6, 0x32, 0x34, 0xb6, 0x4a, 0x9c, 0x5e, 0xec, 0x37, 0x3f, 0x43,
  0x96, 0xff, 0xff, 0xff, 0x04, 0x00, 0x00, 0x00, 0x40, 0x00, 0x00, 0x00,
  0x4d, 0x06, 0x00, 0x00, 0xb7, 0x15, 0x00, 0x00, 0xad, 0xf9, 0xff, 0xff,
  0x76, 0x19, 0x00, 0x00, 0x00, 0x00, 0x00, 0x00, 0x00, 0x00, 0x00, 0x00,
  0x5d, 0xf5, 0xff, 0xff, 0x00, 0x00, 0x00, 0x00, 0xf8, 0xf8, 0xff, 0xff,
  0x72, 0xfb, 0xff, 0xff, 0xe0, 0xed, 0xff, 0xff, 0x0a, 0xfb, 0xff, 0xff,
  0x21, 0x0e, 0x00, 0x00, 0xa8, 0x17, 0x00, 0x00, 0x24, 0xe4, 0xff, 0xff,
  0x0d, 0x06, 0x00, 0x00, 0xe2, 0xff, 0xff, 0xff, 0x04, 0x00, 0x00, 0x00,
  0x10, 0x00, 0x00, 0x00, 0x10, 0x1a, 0x14, 0xd1, 0xf0, 0xe6, 0x0a, 0x03,
  0xfd, 0x36, 0x7f, 0x13, 0x2b, 0x31, 0x16, 0x34, 0x00, 0x00, 0x06, 0x00,
  0x08, 0x00, 0x04, 0x00, 0x06, 0x00, 0x00, 0x00, 0x04, 0x00, 0x00, 0x00,
  0x04, 0x00, 0x00, 0x00, 0x67, 0xf3, 0xff, 0xff, 0xec, 0xee, 0xff, 0xff,
  0xf0, 0xee, 0xff, 0xff, 0x0f, 0x00, 0x00, 0x00, 0x4d, 0x4c, 0x49, 0x52,
  0x20, 0x43, 0x6f, 0x6e, 0x76, 0x65, 0x72, 0x74, 0x65, 0x64, 0x2e, 0x00,
  0x01, 0x00, 0x00, 0x00, 0x14, 0x00, 0x00, 0x00, 0x00, 0x00, 0x0e, 0x00,
  0x18, 0x00, 0x14, 0x00, 0x10, 0x00, 0x0c, 0x00, 0x08, 0x00, 0x04, 0x00,
  0x0e, 0x00, 0x00, 0x00, 0x14, 0x00, 0x00, 0x00, 0x1c, 0x00, 0x00, 0x00,
  0xb8, 0x01, 0x00, 0x00, 0xbc, 0x01, 0x00, 0x00, 0xc0, 0x01, 0x00, 0x00,
  0x04, 0x00, 0x00, 0x00, 0x6d, 0x61, 0x69, 0x6e, 0x00, 0x00, 0x00, 0x00,
  0x07, 0x00, 0x00, 0x00, 0x80, 0x01, 0x00, 0x00, 0x30, 0x01, 0x00, 0x00,
  0xe4, 0x00, 0x00, 0x00, 0xa8, 0x00, 0x00, 0x00, 0x6c, 0x00, 0x00, 0x00,
  0x34, 0x00, 0x00, 0x00, 0x10, 0x00, 0x00, 0x00, 0x00, 0x00, 0x0a, 0x00,
  0x10, 0x00, 0x0c, 0x00, 0x08, 0x00, 0x04, 0x00, 0x0a, 0x00, 0x00, 0x00,
  0x0c, 0x00, 0x00, 0x00, 0x10, 0x00, 0x00, 0x00, 0x02, 0x00, 0x00, 0x00,
  0x01, 0x00, 0x00, 0x00, 0x11, 0x00, 0x00, 0x00, 0x01, 0x00, 0x00, 0x00,
  0x10, 0x00, 0x00, 0x00, 0x22, 0xff, 0xff, 0xff, 0x14, 0x00, 0x00, 0x00,
  0x00, 0x00, 0x00, 0x08, 0x10, 0x00, 0x00, 0x00, 0x14, 0x00, 0x00, 0x00,
  0x01, 0x00, 0x00, 0x00, 0xa8, 0xef, 0xff, 0xff, 0x01, 0x00, 0x00, 0x00,
  0x10, 0x00, 0x00, 0x00, 0x03, 0x00, 0x00, 0x00, 0x0f, 0x00, 0x00, 0x00,
  0x02, 0x00, 0x00, 0x00, 0x01, 0x00, 0x00, 0x00, 0x56, 0xff, 0xff, 0xff,
  0x14, 0x00, 0x00, 0x00, 0x00, 0x00, 0x00, 0x08, 0x14, 0x00, 0x00, 0x00,
  0x18, 0x00, 0x00, 0x00, 0x01, 0x00, 0x00, 0x00, 0x46, 0xff, 0xff, 0xff,
  0x00, 0x00, 0x00, 0x01, 0x01, 0x00, 0x00, 0x00, 0x0f, 0x00, 0x00, 0x00,
  0x03, 0x00, 0x00, 0x00, 0x0e, 0x00, 0x00, 0x00, 0x04, 0x00, 0x00, 0x00,
  0x03, 0x00, 0x00, 0x00, 0x8e, 0xff, 0xff, 0xff, 0x14, 0x00, 0x00, 0x00,
  0x00, 0x00, 0x00, 0x08, 0x14, 0x00, 0x00, 0x00, 0x18, 0x00, 0x00, 0x00,
  0x01, 0x00, 0x00, 0x00, 0x7e, 0xff, 0xff, 0xff, 0x00, 0x00, 0x00, 0x01,
  0x01, 0x00, 0x00, 0x00, 0x0e, 0x00, 0x00, 0x00, 0x03, 0x00, 0x00, 0x00,
  0x0d, 0x00, 0x00, 0x00, 0x06, 0x00, 0x00, 0x00, 0x05, 0x00, 0x00, 0x00,
  0xc6, 0xff, 0xff, 0xff, 0x14, 0x00, 0x00, 0x00, 0x00, 0x00, 0x00, 0x08,
  0x14, 0x00, 0x00, 0x00, 0x18, 0x00, 0x00, 0x00, 0x01, 0x00, 0x00, 0x00,
  0xb6, 0xff, 0xff, 0xff, 0x00, 0x00, 0x00, 0x01, 0x01, 0x00, 0x00, 0x00,
  0x0d, 0x00, 0x00, 0x00, 0x03, 0x00, 0x00, 0x00, 0x0c, 0x00, 0x00, 0x00,
  0x08, 0x00, 0x00, 0x00, 0x07, 0x00, 0x00, 0x00, 0x00, 0x00, 0x0e, 0x00,
  0x1a, 0x00, 0x14, 0x00, 0x10, 0x00, 0x0c, 0x00, 0x0b, 0x00, 0x04, 0x00,
  0x0e, 0x00, 0x00, 0x00, 0x1c, 0x00, 0x00, 0x00, 0x00, 0x00, 0x00, 0x08,
  0x1c, 0x00, 0x00, 0x00, 0x20, 0x00, 0x00, 0x00, 0x01, 0x00, 0x00, 0x00,
  0x00, 0x00, 0x06, 0x00, 0x08, 0x00, 0x07, 0x00, 0x06, 0x00, 0x00, 0x00,
  0x00, 0x00, 0x00, 0x01, 0x01, 0x00, 0x00, 0x00, 0x0c, 0x00, 0x00, 0x00,
  0x03, 0x00, 0x00, 0x00, 0x0b, 0x00, 0x00, 0x00, 0x0a, 0x00, 0x00, 0x00,
  0x09, 0x00, 0x00, 0x00, 0x00, 0x00, 0x0a, 0x00, 0x0c, 0x00, 0x00, 0x00,
  0x08, 0x00, 0x04, 0x00, 0x0a, 0x00, 0x00, 0x00, 0x08, 0x00, 0x00, 0x00,
  0x0c, 0x00, 0x00, 0x00, 0x01, 0x00, 0x00, 0x00, 0x0b, 0x00, 0x00, 0x00,
  0x01, 0x00, 0x00, 0x00, 0x00, 0x00, 0x00, 0x00, 0x01, 0x00, 0x00, 0x00,
  0x11, 0x00, 0x00, 0x00, 0x01, 0x00, 0x00, 0x00, 0x00, 0x00, 0x00, 0x00,
  0x12, 0x00, 0x00, 0x00, 0xe0, 0x0e, 0x00, 0x00, 0x58, 0x0e, 0x00, 0x00,
  0xd8, 0x0d, 0x00, 0x00, 0xc4, 0x0c, 0x00, 0x00, 0xa8, 0x0b, 0x00, 0x00,
  0xd4, 0x09, 0x00, 0x00, 0xf8, 0x07, 0x00, 0x00, 0xe4, 0x06, 0x00, 0x00,
  0xc8, 0x05, 0x00, 0x00, 0x14, 0x05, 0x00, 0x00, 0x58, 0x04, 0x00, 0x00,
  0xe4, 0x03, 0x00, 0x00, 0x18, 0x03, 0x00, 0x00, 0x5c, 0x02, 0x00, 0x00,
  0xa0, 0x01, 0x00, 0x00, 0xe4, 0x00, 0x00, 0x00, 0x60, 0x00, 0x00, 0x00,
  0x04, 0x00, 0x00, 0x00, 0x7e, 0xf1, 0xff, 0xff, 0x00, 0x00, 0x00, 0x01,
  0x14, 0x00, 0x00, 0x00, 0x1c, 0x00, 0x00, 0x00, 0x1c, 0x00, 0x00, 0x00,
  0x12, 0x00, 0x00, 0x00, 0x34, 0x00, 0x00, 0x00, 0x02, 0x00, 0x00, 0x00,
  0xff, 0xff, 0xff, 0xff, 0x01, 0x00, 0x00, 0x00, 0x68, 0xf1, 0xff, 0xff,
  0x1b, 0x00, 0x00, 0x00, 0x53, 0x74, 0x61, 0x74, 0x65, 0x66, 0x75, 0x6c,
  0x50, 0x61, 0x72, 0x74, 0x69, 0x74, 0x69, 0x6f, 0x6e, 0x65, 0x64, 0x43,
  0x61, 0x6c, 0x6c, 0x5f, 0x31, 0x3a, 0x30, 0x00, 0x02, 0x00, 0x00, 0x00,
  0x01, 0x00, 0x00, 0x00, 0x01, 0x00, 0x00, 0x00, 0xa6, 0xfc, 0xff, 0xff,
  0x00, 0x00, 0x00, 0x01, 0x18, 0x00, 0x00, 0x00, 0x20, 0x00, 0x00, 0x00,
  0x40, 0x00, 0x00, 0x00, 0x11, 0x00, 0x00, 0x00, 0x00, 0x00, 0x00, 0x09,
  0x58, 0x00, 0x00, 0x00, 0x02, 0x00, 0x00, 0x00, 0xff, 0xff, 0xff, 0xff,
  0x01, 0x00, 0x00, 0x00, 0x54, 0xf2, 0xff, 0xff, 0x08, 0x00, 0x00, 0x00,
  0x14, 0x00, 0x00, 0x00, 0x01, 0x00, 0x00, 0x00, 0xff, 0xff, 0xff, 0xff,
  0xff, 0xff, 0xff, 0xff, 0x00, 0x00, 0x00, 0x00, 0x01, 0x00, 0x00, 0x00,
  0xcb, 0x1a, 0x04, 0x3c, 0x1c, 0x00, 0x00, 0x00, 0x53, 0x74, 0x61, 0x74,
  0x65, 0x66, 0x75, 0x6c, 0x50, 0x61, 0x72, 0x74, 0x69, 0x74, 0x69, 0x6f,
  0x6e, 0x65, 0x64, 0x43, 0x61, 0x6c, 0x6c, 0x5f, 0x31, 0x3a, 0x30, 0x31,
  0x00, 0x00, 0x00, 0x00, 0x02, 0x00, 0x00, 0x00, 0x01, 0x00, 0x00, 0x00,
  0x01, 0x00, 0x00, 0x00, 0x26, 0xfd, 0xff, 0xff, 0x00, 0x00, 0x00, 0x01,
  0x18, 0x00, 0x00, 0x00, 0x20, 0x00, 0x00, 0x00, 0x3c, 0x00, 0x00, 0x00,
  0x10, 0x00, 0x00, 0x00, 0x00, 0x00, 0x00, 0x09, 0x90, 0x00, 0x00, 0x00,
  0x02, 0x00, 0x00, 0x00, 0xff, 0xff, 0xff, 0xff, 0x10, 0x00, 0x00, 0x00,
  0xd4, 0xf2, 0xff, 0xff, 0x08, 0x00, 0x00, 0x00, 0x10, 0x00, 0x00, 0x00,
  0x01, 0x00, 0x00, 0x00, 0x80, 0xff, 0xff, 0xff, 0xff, 0xff, 0xff, 0xff,
  0x01, 0x00, 0x00, 0x00, 0x35, 0x6b, 0xdb, 0x3b, 0x58, 0x00, 0x00, 0x00,
  0x73, 0x65, 0x71, 0x75, 0x65, 0x6e, 0x74, 0x69, 0x61, 0x6c, 0x5f, 0x31,
  0x2f, 0x64, 0x65, 0x6e, 0x73, 0x65, 0x5f, 0x33, 0x5f, 0x31, 0x2f, 0x4d,
  0x61, 0x74, 0x4d, 0x75, 0x6c, 0x3b, 0x73, 0x65, 0x71, 0x75, 0x65, 0x6e,
  0x74, 0x69, 0x61, 0x6c, 0x5f, 0x31, 0x2f, 0x64, 0x65, 0x6e, 0x73, 0x65,
  0x5f, 0x33, 0x5f, 0x31, 0x2f, 0x52, 0x65, 0x6c, 0x75, 0x3b, 0x73, 0x65,
  0x71, 0x75, 0x65, 0x6e, 0x74, 0x69, 0x61, 0x6c, 0x5f, 0x31, 0x2f, 0x64,
  0x65, 0x6e, 0x73, 0x65, 0x5f, 0x33, 0x5f, 0x31, 0x2f, 0x42, 0x69, 0x61,
  0x73, 0x41, 0x64, 0x64, 0x00, 0x00, 0x00, 0x00, 0x02, 0x00, 0x00, 0x00,
  0x01, 0x00, 0x00, 0x00, 0x10, 0x00, 0x00, 0x00, 0xde, 0xfd, 0xff, 0xff,
  0x00, 0x00, 0x00, 0x01, 0x18, 0x00, 0x00, 0x00, 0x20, 0x00, 0x00, 0x00,
  0x3c, 0x00, 0x00, 0x00, 0x0f, 0x00, 0x00, 0x00, 0x00, 0x00, 0x00, 0x09,
  0x90, 0x00, 0x00, 0x00, 0x02, 0x00, 0x00, 0x00, 0xff, 0xff, 0xff, 0xff,
  0x20, 0x00, 0x00, 0x00, 0x8c, 0xf3, 0xff, 0xff, 0x08, 0x00, 0x00, 0x00,
  0x10, 0x00, 0x00, 0x00, 0x01, 0x00, 0x00, 0x00, 0x80, 0xff, 0xff, 0xff,
  0xff, 0xff, 0xff, 0xff, 0x01, 0x00, 0x00, 0x00, 0xff, 0x00, 0xac, 0x3b,
  0x58, 0x00, 0x00, 0x00, 0x73, 0x65, 0x71, 0x75, 0x65, 0x6e, 0x74, 0x69,
  0x61, 0x6c, 0x5f, 0x31, 0x2f, 0x64, 0x65, 0x6e, 0x73, 0x65, 0x5f, 0x32,
  0x5f, 0x31, 0x2f, 0x4d, 0x61, 0x74, 0x4d, 0x75, 0x6c, 0x3b, 0x73, 0x65,
  0x71, 0x75, 0x65, 0x6e, 0x74, 0x69, 0x61, 0x6c, 0x5f, 0x31, 0x2f, 0x64,
  0x65, 0x6e, 0x73, 0x65, 0x5f, 0x32, 0x5f, 0x31, 0x2f, 0x52, 0x65, 0x6c,
  0x75, 0x3b, 0x73, 0x65, 0x71, 0x75, 0x65, 0x6e, 0x74, 0x69, 0x61, 0x6c,
  0x5f, 0x31, 0x2f, 0x64, 0x65, 0x6e, 0x73, 0x65, 0x5f, 0x32, 0x5f, 0x31,
  0x2f, 0x42, 0x69, 0x61, 0x73, 0x41, 0x64, 0x64, 0x00, 0x00, 0x00, 0x00,
  0x02, 0x00, 0x00, 0x00, 0x01, 0x00, 0x00, 0x00, 0x20, 0x00, 0x00, 0x00,
  0x96, 0xfe, 0xff, 0xff, 0x00, 0x00, 0x00, 0x01, 0x18, 0x00, 0x00, 0x00,
  0x20, 0x00, 0x00, 0x00, 0x3c, 0x00, 0x00, 0x00, 0x0e, 0x00, 0x00, 0x00,
  0x00, 0x00, 0x00, 0x09, 0x90, 0x00, 0x00, 0x00, 0x02, 0x00, 0x00, 0x00,
  0xff, 0xff, 0xff, 0xff, 0x10, 0x00, 0x00, 0x00, 0x44, 0xf4, 0xff, 0xff,
  0x08, 0x00, 0x00, 0x00, 0x10, 0x00, 0x00, 0x00, 0x01, 0x00, 0x00, 0x00,
  0x80, 0xff, 0xff, 0xff, 0xff, 0xff, 0xff, 0xff, 0x01, 0x00, 0x00, 0x00,
  0xa2, 0x38, 0x13, 0x3c, 0x58, 0x00, 0x00, 0x00, 0x73, 0x65, 0x71, 0x75,
  0x65, 0x6e, 0x74, 0x69, 0x61, 0x6c, 0x5f, 0x31, 0x2f, 0x64, 0x65, 0x6e,
  0x73, 0x65, 0x5f, 0x31, 0x5f, 0x32, 0x2f, 0x4d, 0x61, 0x74, 0x4d, 0x75,
  0x6c, 0x3b, 0x73, 0x65, 0x71, 0x75, 0x65, 0x6e, 0x74, 0x69, 0x61, 0x6c,
  0x5f, 0x31, 0x2f, 0x64, 0x65, 0x6e, 0x73, 0x65, 0x5f, 0x31, 0x5f, 0x32,
  0x2f, 0x52, 0x65, 0x6c, 0x75, 0x3b, 0x73, 0x65, 0x71, 0x75, 0x65, 0x6e,
  0x74, 0x69, 0x61, 0x6c, 0x5f, 0x31, 0x2f, 0x64, 0x65, 0x6e, 0x73, 0x65,
  0x5f, 0x31, 0x5f, 0x32, 0x2f, 0x42, 0x69, 0x61, 0x73, 0x41, 0x64, 0x64,
  0x00, 0x00, 0x00, 0x00, 0x02, 0x00, 0x00, 0x00, 0x01, 0x00, 0x00, 0x00,
  0x10, 0x00, 0x00, 0x00, 0x4e, 0xff, 0xff, 0xff, 0x00, 0x00, 0x00, 0x01,
  0x18, 0x00, 0x00, 0x00, 0x20, 0x00, 0x00, 0x00, 0x3c, 0x00, 0x00, 0x00,
  0x0d, 0x00, 0x00, 0x00, 0x00, 0x00, 0x00, 0x09, 0x88, 0x00, 0x00, 0x00,
  0x02, 0x00, 0x00, 0x00, 0xff, 0xff, 0xff, 0xff, 0x08, 0x00, 0x00, 0x00,
  0xfc, 0xf4, 0xff, 0xff, 0x08, 0x00, 0x00, 0x00, 0x10, 0x00, 0x00, 0x00,
  0x01, 0x00, 0x00, 0x00, 0x80, 0xff, 0xff, 0xff, 0xff, 0xff, 0xff, 0xff,
  0x01, 0x00, 0x00, 0x00, 0x4f, 0xb6, 0x5a, 0x3c, 0x52, 0x00, 0x00, 0x00,
  0x73, 0x65, 0x71, 0x75, 0x65, 0x6e, 0x74, 0x69, 0x61, 0x6c, 0x5f, 0x31,
  0x2f, 0x64, 0x65, 0x6e, 0x73, 0x65, 0x5f, 0x31, 0x2f, 0x4d, 0x61, 0x74,
  0x4d, 0x75, 0x6c, 0x3b, 0x73, 0x65, 0x71, 0x75, 0x65, 0x6e, 0x74, 0x69,
  0x61, 0x6c, 0x5f, 0x31, 0x2f, 0x64, 0x65, 0x6e, 0x73, 0x65, 0x5f, 0x31,
  0x2f, 0x52, 0x65, 0x6c, 0x75, 0x3b, 0x73, 0x65, 0x71, 0x75, 0x65, 0x6e,
  0x74, 0x69, 0x61, 0x6c, 0x5f, 0x31, 0x2f, 0x64, 0x65, 0x6e, 0x73, 0x65,
  0x5f, 0x31, 0x2f, 0x42, 0x69, 0x61, 0x73, 0x41, 0x64, 0x64, 0x00, 0x00,
  0x02, 0x00, 0x00, 0x00, 0x01, 0x00, 0x00, 0x00, 0x08, 0x00, 0x00, 0x00,
  0x00, 0x00, 0x16, 0x00, 0x20, 0x00, 0x1c, 0x00, 0x1b, 0x00, 0x14, 0x00,
  0x10, 0x00, 0x0c, 0x00, 0x00, 0x00, 0x00, 0x00, 0x08, 0x00, 0x07, 0x00,
  0x16, 0x00, 0x00, 0x00, 0x00, 0x00, 0x00, 0x01, 0x18, 0x00, 0x00, 0x00,
  0x20, 0x00, 0x00, 0x00, 0x40, 0x00, 0x00, 0x00, 0x0c, 0x00, 0x00, 0x00,
  0x00, 0x00, 0x00, 0x09, 0x48, 0x00, 0x00, 0x00, 0x02, 0x00, 0x00, 0x00,
  0xff, 0xff, 0xff, 0xff, 0x01, 0x00, 0x00, 0x00, 0xc4, 0xf5, 0xff, 0xff,
  0x08, 0x00, 0x00, 0x00, 0x14, 0x00, 0x00, 0x00, 0x01, 0x00, 0x00, 0x00,
  0x80, 0xff, 0xff, 0xff, 0xff, 0xff, 0xff, 0xff, 0x00, 0x00, 0x00, 0x00,
  0x01, 0x00, 0x00, 0x00, 0x8d, 0xc3, 0xc8, 0x3c, 0x0c, 0x00, 0x00, 0x00,
  0x74, 0x66, 0x6c, 0x2e, 0x71, 0x75, 0x61, 0x6e, 0x74, 0x69, 0x7a, 0x65,
  0x00, 0x00, 0x00, 0x00, 0x02, 0x00, 0x00, 0x00, 0x01, 0x00, 0x00, 0x00,
  0x01, 0x00, 0x00, 0x00, 0x3a, 0xf6, 0xff, 0xff, 0x00, 0x00, 0x00, 0x01,
  0x14, 0x00, 0x00, 0x00, 0x88, 0x00, 0x00, 0x00, 0x0b, 0x00, 0x00, 0x00,
  0x00, 0x00, 0x00, 0x09, 0x94, 0x00, 0x00, 0x00, 0x24, 0xf6, 0xff, 0xff,
  0x08, 0x00, 0x00, 0x00, 0x4c, 0x00, 0x00, 0x00, 0x08, 0x00, 0x00, 0x00,
  0x00, 0x00, 0x00, 0x00, 0x00, 0x00, 0x00, 0x00, 0x00, 0x00, 0x00, 0x00,
  0x00, 0x00, 0x00, 0x00, 0x00, 0x00, 0x00, 0x00, 0x00, 0x00, 0x00, 0x00,
  0x00, 0x00, 0x00, 0x00, 0x00, 0x00, 0x00, 0x00, 0x00, 0x00, 0x00, 0x00,
  0x00, 0x00, 0x00, 0x00, 0x00, 0x00, 0x00, 0x00, 0x00, 0x00, 0x00, 0x00,
  0x00, 0x00, 0x00, 0x00, 0x00, 0x00, 0x00, 0x00, 0x00, 0x00, 0x00, 0x00,
  0x00, 0x00, 0x00, 0x00, 0x00, 0x00, 0x00, 0x00, 0x08, 0x00, 0x00, 0x00,
  0xa0, 0x72, 0x43, 0x3a, 0xf8, 0x45, 0x03, 0x3b, 0x34, 0xfa, 0xb0, 0x39,
  0x48, 0x10, 0x94, 0x3b, 0x51, 0xea, 0xe5, 0x3a, 0xf5, 0xf5, 0x75, 0x3b,
  0xac, 0x82, 0x8e, 0x3b, 0x8e, 0x34, 0x45, 0x3b, 0x12, 0x00, 0x00, 0x00,
  0x74, 0x66, 0x6c, 0x2e, 0x70, 0x73, 0x65, 0x75, 0x64, 0x6f, 0x5f, 0x71,
  0x63, 0x6f, 0x6e, 0x73, 0x74, 0x39, 0x00, 0x00, 0x02, 0x00, 0x00, 0x00,
  0x08, 0x00, 0x00, 0x00, 0x01, 0x00, 0x00, 0x00, 0xf2, 0xf6, 0xff, 0xff,
  0x00, 0x00, 0x00, 0x01, 0x14, 0x00, 0x00, 0x00, 0x84, 0x00, 0x00, 0x00,
  0x0a, 0x00, 0x00, 0x00, 0x00, 0x00, 0x00, 0x02, 0x90, 0x00, 0x00, 0x00,
  0xdc, 0xf6, 0xff, 0xff, 0x08, 0x00, 0x00, 0x00, 0x48, 0x00, 0x00, 0x00,
  0x08, 0x00, 0x00, 0x00, 0x00, 0x00, 0x00, 0x00, 0x00, 0x00, 0x00, 0x00,
  0x00, 0x00, 0x00, 0x00, 0x00, 0x00, 0x00, 0x00, 0x00, 0x00, 0x00, 0x00,
  0x00, 0x00, 0x00, 0x00, 0x00, 0x00, 0x00, 0x00, 0x00, 0x00, 0x00, 0x00,
  0x00, 0x00, 0x00, 0x00, 0x00, 0x00, 0x00, 0x00, 0x00, 0x00, 0x00, 0x00,
  0x00, 0x00, 0x00, 0x00, 0x00, 0x00, 0x00, 0x00, 0x00, 0x00, 0x00, 0x00,
  0x00, 0x00, 0x00, 0x00, 0x00, 0x00, 0x00, 0x00, 0x08, 0x00, 0x00, 0x00,
  0xd9, 0x46, 0x99, 0x37, 0xe1, 0xe5, 0x4d, 0x38, 0xa9, 0xca, 0x0a, 0x37,
  0xa4, 0x3b, 0xe8, 0x38, 0xaf, 0x4e, 0x34, 0x38, 0x09, 0xe4, 0xc0, 0x38,
  0xe5, 0x85, 0xdf, 0x38, 0xb3, 0xa7, 0x9a, 0x38, 0x12, 0x00, 0x00, 0x00,
  0x74, 0x66, 0x6c, 0x2e, 0x70, 0x73, 0x65, 0x75, 0x64, 0x6f, 0x5f, 0x71,
  0x63, 0x6f, 0x6e, 0x73, 0x74, 0x38, 0x00, 0x00, 0x01, 0x00, 0x00, 0x00,
  0x08, 0x00, 0x00, 0x00, 0xa2, 0xf7, 0xff, 0xff, 0x00, 0x00, 0x00, 0x01,
  0x14, 0x00, 0x00, 0x00, 0xe8, 0x00, 0x00, 0x00, 0x09, 0x00, 0x00, 0x00,
  0x00, 0x00, 0x00, 0x09, 0xf4, 0x00, 0x00, 0x00, 0x8c, 0xf7, 0xff, 0xff,
  0x08, 0x00, 0x00, 0x00, 0x8c, 0x00, 0x00, 0x00, 0x10, 0x00, 0x00, 0x00,
  0x00, 0x00, 0x00, 0x00, 0x00, 0x00, 0x00, 0x00, 0x00, 0x00, 0x00, 0x00,
  0x00, 0x00, 0x00, 0x00, 0x00, 0x00, 0x00, 0x00, 0x00, 0x00, 0x00, 0x00,
  0x00, 0x00, 0x00, 0x00, 0x00, 0x00, 0x00, 0x00, 0x00, 0x00, 0x00, 0x00,
  0x00, 0x00, 0x00, 0x00, 0x00, 0x00, 0x00, 0x00, 0x00, 0x00, 0x00, 0x00,
  0x00, 0x00, 0x00, 0x00, 0x00, 0x00, 0x00, 0x00, 0x00, 0x00, 0x00, 0x00,
  0x00, 0x00, 0x00, 0x00, 0x00, 0x00, 0x00, 0x00, 0x00, 0x00, 0x00, 0x00,
  0x00, 0x00, 0x00, 0x00, 0x00, 0x00, 0x00, 0x00, 0x00, 0x00, 0x00, 0x00,
  0x00, 0x00, 0x00, 0x00, 0x00, 0x00, 0x00, 0x00, 0x00, 0x00, 0x00, 0x00,
  0x00, 0x00, 0x00, 0x00, 0x00, 0x00, 0x00, 0x00, 0x00, 0x00, 0x00, 0x00,
  0x00, 0x00, 0x00, 0x00, 0x00, 0x00, 0x00, 0x00, 0x00, 0x00, 0x00, 0x00,
  0x00, 0x00, 0x00, 0x00, 0x00, 0x00, 0x00, 0x00, 0x00, 0x00, 0x00, 0x00,
  0x10, 0x00, 0x00, 0x00, 0x2d, 0xec, 0xa5, 0x3b, 0xf8, 0x43, 0x48, 0x3b,
  0x24, 0x4a, 0x8a, 0x3b, 0x8d, 0xa1, 0x8b, 0x3b, 0xd8, 0x01, 0x6d, 0x3b,
  0xf2, 0xfc, 0x81, 0x3b, 0x10, 0x30, 0x60, 0x3b, 0x45, 0xfe, 0x7d, 0x3b,
  0xba, 0xd0, 0x91, 0x3b, 0xf4, 0x65, 0x65, 0x3b, 0xe8, 0xad, 0x6d, 0x3b,
  0x06, 0x71, 0x47, 0x3b, 0xb1, 0xf5, 0x52, 0x3b, 0xa9, 0x28, 0x5c, 0x3b,
  0xe2, 0x3e, 0x75, 0x3b, 0xee, 0xaa, 0x4e, 0x3b, 0x12, 0x00, 0x00, 0x00,
  0x74, 0x66, 0x6c, 0x2e, 0x70, 0x73, 0x65, 0x75, 0x64, 0x6f, 0x5f, 0x71,
  0x63, 0x6f, 0x6e, 0x73, 0x74, 0x37, 0x00, 0x00, 0x02, 0x00, 0x00, 0x00,
  0x10, 0x00, 0x00, 0x00, 0x08, 0x00, 0x00, 0x00, 0xba, 0xf8, 0xff, 0xff,
  0x00, 0x00, 0x00, 0x01, 0x14, 0x00, 0x00, 0x00, 0xe4, 0x00, 0x00, 0x00,
  0x08, 0x00, 0x00, 0x00, 0x00, 0x00, 0x00, 0x02, 0xf0, 0x00, 0x00, 0x00,
  0xa4, 0xf8, 0xff, 0xff, 0x08, 0x00, 0x00, 0x00, 0x88, 0x00, 0x00, 0x00,
  0x10, 0x00, 0x00, 0x00, 0x00, 0x00, 0x00, 0x00, 0x00, 0x00, 0x00, 0x00,
  0x00, 0x00, 0x00, 0x00, 0x00, 0x00, 0x00, 0x00, 0x00, 0x00, 0x00, 0x00,
  0x00, 0x00, 0x00, 0x00, 0x00, 0x00, 0x00, 0x00, 0x00, 0x00, 0x00, 0x00,
  0x00, 0x00, 0x00, 0x00, 0x00, 0x00, 0x00, 0x00, 0x00, 0x00, 0x00, 0x00,
  0x00, 0x00, 0x00, 0x00, 0x00, 0x00, 0x00, 0x00, 0x00, 0x00, 0x00, 0x00,
  0x00, 0x00, 0x00, 0x00, 0x00, 0x00, 0x00, 0x00, 0x00, 0x00, 0x00, 0x00,
  0x00, 0x00, 0x00, 0x00, 0x00, 0x00, 0x00, 0x00, 0x00, 0x00, 0x00, 0x00,
  0x00, 0x00, 0x00, 0x00, 0x00, 0x00, 0x00, 0x00, 0x00, 0x00, 0x00, 0x00,
  0x00, 0x00, 0x00, 0x00, 0x00, 0x00, 0x00, 0x00, 0x00, 0x00, 0x00, 0x00,
  0x00, 0x00, 0x00, 0x00, 0x00, 0x00, 0x00, 0x00, 0x00, 0x00, 0x00, 0x00,
  0x00, 0x00, 0x00, 0x00, 0x00, 0x00, 0x00, 0x00, 0x00, 0x00, 0x00, 0x00,
  0x10, 0x00, 0x00, 0x00, 0x47, 0xc1, 0x8d, 0x38, 0x7f, 0x18, 0x2b, 0x38,
  0x3c, 0x4b, 0x6c, 0x38, 0x04, 0x96, 0x6e, 0x38, 0x5a, 0x7c, 0x4a, 0x38,
  0xf0, 0x1b, 0x5e, 0x38, 0x95, 0x88, 0x3f, 0x38, 0x68, 0xff, 0x58, 0x38,
  0x2c, 0x27, 0x79, 0x38, 0x2f, 0xfc, 0x43, 0x38, 0x5b, 0x0f, 0x4b, 0x38,
  0x47, 0x64, 0x2a, 0x38, 0x74, 0x3b, 0x34, 0x38, 0x69, 0x17, 0x3c, 0x38,
  0x33, 0x86, 0x51, 0x38, 0xbc, 0x90, 0x30, 0x38, 0x12, 0x00, 0x00, 0x00,
  0x74, 0x66, 0x6c, 0x2e, 0x70, 0x73, 0x65, 0x75, 0x64, 0x6f, 0x5f, 0x71,
  0x63, 0x6f, 0x6e, 0x73, 0x74, 0x36, 0x00, 0x00, 0x01, 0x00, 0x00, 0x00,
  0x10, 0x00, 0x00, 0x00, 0xca, 0xf9, 0xff, 0xff, 0x00, 0x00, 0x00, 0x01,
  0x14, 0x00, 0x00, 0x00, 0xa8, 0x01, 0x00, 0x00, 0x07, 0x00, 0x00, 0x00,
  0x00, 0x00, 0x00, 0x09, 0xb4, 0x01, 0x00, 0x00, 0xb4, 0xf9, 0xff, 0xff,
  0x08, 0x00, 0x00, 0x00, 0x0c, 0x01, 0x00, 0x00, 0x20, 0x00, 0x00, 0x00,
  0x00, 0x00, 0x00, 0x00, 0x00, 0x00, 0x00, 0x00, 0x00, 0x00, 0x00, 0x00,
  0x00, 0x00, 0x00, 0x00, 0x00, 0x00, 0x00, 0x00, 0x00, 0x00, 0x00, 0x00,
  0x00, 0x00, 0x00, 0x00, 0x00, 0x00, 0x00, 0x00, 0x00, 0x00, 0x00, 0x00,
  0x00, 0x00, 0x00, 0x00, 0x00, 0x00, 0x00, 0x00, 0x00, 0x00, 0x00, 0x00,
  0x00, 0x00, 0x00, 0x00, 0x00, 0x00, 0x00, 0x00, 0x00, 0x00, 0x00, 0x00,
  0x00, 0x00, 0x00, 0x00, 0x00, 0x00, 0x00, 0x00, 0x00, 0x00, 0x00, 0x00,
  0x00, 0x00, 0x00, 0x00, 0x00, 0x00, 0x00, 0x00, 0x00, 0x00, 0x00, 0x00,
  0x00, 0x00, 0x00, 0x00, 0x00, 0x00, 0x00, 0x00, 0x00, 0x00, 0x00, 0x00,
  0x00, 0x00, 0x00, 0x00, 0x00, 0x00, 0x00, 0x00, 0x00, 0x00, 0x00, 0x00,
  0x00, 0x00, 0x00, 0x00, 0x00, 0x00, 0x00, 0x00, 0x00, 0x00, 0x00, 0x00,
  0x00, 0x00, 0x00, 0x00, 0x00, 0x00, 0x00, 0x00, 0x00, 0x00, 0x00, 0x00,
  0x00, 0x00, 0x00, 0x00, 0x00, 0x00, 0x00, 0x00, 0x00, 0x00, 0x00, 0x00,
  0x00, 0x00, 0x00, 0x00, 0x00, 0x00, 0x00, 0x00, 0x00, 0x00, 0x00, 0x00,
  0x00, 0x00, 0x00, 0x00, 0x00, 0x00, 0x00, 0x00, 0x00, 0x00, 0x00, 0x00,
  0x00, 0x00, 0x00, 0x00, 0x00, 0x00, 0x00, 0x00, 0x00, 0x00, 0x00, 0x00,
  0x00, 0x00, 0x00, 0x00, 0x00, 0x00, 0x00, 0x00, 0x00, 0x00, 0x00, 0x00,
  0x00, 0x00, 0x00, 0x00, 0x00, 0x00, 0x00, 0x00, 0x00, 0x00, 0x00, 0x00,
  0x00, 0x00, 0x00, 0x00, 0x00, 0x00, 0x00, 0x00, 0x00, 0x00, 0x00, 0x00,
  0x00, 0x00, 0x00, 0x00, 0x00, 0x00, 0x00, 0x00, 0x00, 0x00, 0x00, 0x00,
  0x00, 0x00, 0x00, 0x00, 0x00, 0x00, 0x00, 0x00, 0x00, 0x00, 0x00, 0x00,
  0x00, 0x00, 0x00, 0x00, 0x00, 0x00, 0x00, 0x00, 0x00, 0x00, 0x00, 0x00,
  0x00, 0x00, 0x00, 0x00, 0x00, 0x00, 0x00, 0x00, 0x20, 0x00, 0x00, 0x00,
  0x61, 0x0e, 0x90, 0x3b, 0x66, 0x39, 0x8f, 0x3b, 0x2c, 0x83, 0x9a, 0x3b,
  0xbf, 0x8e, 0x78, 0x3b, 0x6c, 0x39, 0x89, 0x3b, 0x7f, 0x35, 0x49, 0x3b,
  0x05, 0x3f, 0x54, 0x3b, 0x39, 0xde, 0x25, 0x3c, 0x27, 0xbc, 0x8f, 0x3b,
  0x22, 0x42, 0x3c, 0x3b, 0xc5, 0x79, 0xdd, 0x3b, 0xc5, 0x27, 0x2f, 0x3b,
  0xf5, 0x55, 0x90, 0x3b, 0xe8, 0x60, 0x45, 0x3b, 0x56, 0x39, 0x80, 0x3b,
  0x41, 0xdf, 0x5a, 0x3b, 0x38, 0x5d, 0x3a, 0x3b, 0x29, 0xa0, 0x8e, 0x3b,
  0x5f, 0x9d, 0x86, 0x3b, 0x04, 0xd8, 0x0d, 0x3b, 0x2e, 0x51, 0x31, 0x3b,
  0x39, 0x6e, 0x8c, 0x3b, 0x5b, 0xeb, 0xc8, 0x3b, 0xdc, 0xd1, 0x30, 0x3b,
  0x96, 0xe9, 0x88, 0x3b, 0x44, 0xfa, 0x26, 0x3b, 0x73, 0x06, 0x77, 0x3b,
  0x25, 0x11, 0x7e, 0x3b, 0xf0, 0xce, 0x23, 0x3b, 0x36, 0x6e, 0x80, 0x3b,
  0x08, 0x99, 0x2a, 0x3b, 0x3f, 0x83, 0x2d, 0x3b, 0x12, 0x00, 0x00, 0x00,
  0x74, 0x66, 0x6c, 0x2e, 0x70, 0x73, 0x65, 0x75, 0x64, 0x6f, 0x5f, 0x71,
  0x63, 0x6f, 0x6e, 0x73, 0x74, 0x35, 0x00, 0x00, 0x02, 0x00, 0x00, 0x00,
  0x20, 0x00, 0x00, 0x00, 0x10, 0x00, 0x00, 0x00, 0xa2, 0xfb, 0xff, 0xff,
  0x00, 0x00, 0x00, 0x01, 0x14, 0x00, 0x00, 0x00, 0xa4, 0x01, 0x00, 0x00,
  0x06, 0x00, 0x00, 0x00, 0x00, 0x00, 0x00, 0x02, 0xb0, 0x01, 0x00, 0x00,
  0x8c, 0xfb, 0xff, 0xff, 0x08, 0x00, 0x00, 0x00, 0x08, 0x01, 0x00, 0x00,
  0x20, 0x00, 0x00, 0x00, 0x00, 0x00, 0x00, 0x00, 0x00, 0x00, 0x00, 0x00,
  0x00, 0x00, 0x00, 0x00, 0x00, 0x00, 0x00, 0x00, 0x00, 0x00, 0x00, 0x00,
  0x00, 0x00, 0x00, 0x00, 0x00, 0x00, 0x00, 0x00, 0x00, 0x00, 0x00, 0x00,
  0x00, 0x00, 0x00, 0x00, 0x00, 0x00, 0x00, 0x00, 0x00, 0x00, 0x00, 0x00,
  0x00, 0x00, 0x00, 0x00, 0x00, 0x00, 0x00, 0x00, 0x00, 0x00, 0x00, 0x00,
  0x00, 0x00, 0x00, 0x00, 0x00, 0x00, 0x00, 0x00, 0x00, 0x00, 0x00, 0x00,
  0x00, 0x00, 0x00, 0x00, 0x00, 0x00, 0x00, 0x00, 0x00, 0x00, 0x00, 0x00,
  0x00, 0x00, 0x00, 0x00, 0x00, 0x00, 0x00, 0x00, 0x00, 0x00, 0x00, 0x00,
  0x00, 0x00, 0x00, 0x00, 0x00, 0x00, 0x00, 0x00, 0x00, 0x00, 0x00, 0x00,
  0x00, 0x00, 0x00, 0x00, 0x00, 0x00, 0x00, 0x00, 0x00, 0x00, 0x00, 0x00,
  0x00, 0x00, 0x00, 0x00, 0x00, 0x00, 0x00, 0x00, 0x00, 0x00, 0x00, 0x00,
  0x00, 0x00, 0x00, 0x00, 0x00, 0x00, 0x00, 0x00, 0x00, 0x00, 0x00, 0x00,
  0x00, 0x00, 0x00, 0x00, 0x00, 0x00, 0x00, 0x00, 0x00, 0x00, 0x00, 0x00,
  0x00, 0x00, 0x00, 0x00, 0x00, 0x00, 0x00, 0x00, 0x00, 0x00, 0x00, 0x00,
  0x00, 0x00, 0x00, 0x00, 0x00, 0x00, 0x00, 0x00, 0x00, 0x00, 0x00, 0x00,
  0x00, 0x00, 0x00, 0x00, 0x00, 0x00, 0x00, 0x00, 0x00, 0x00, 0x00, 0x00,
  0x00, 0x00, 0x00, 0x00, 0x00, 0x00, 0x00, 0x00, 0x00, 0x00, 0x00, 0x00,
  0x00, 0x00, 0x00, 0x00, 0x00, 0x00, 0x00, 0x00, 0x00, 0x00, 0x00, 0x00,
  0x00, 0x00, 0x00, 0x00, 0x00, 0x00, 0x00, 0x00, 0x00, 0x00, 0x00, 0x00,
  0x00, 0x00, 0x00, 0x00, 0x00, 0x00, 0x00, 0x00, 0x00, 0x00, 0x00, 0x00,
  0x00, 0x00, 0x00, 0x00, 0x00, 0x00, 0x00, 0x00, 0x00, 0x00, 0x00, 0x00,
  0x00, 0x00, 0x00, 0x00, 0x00, 0x00, 0x00, 0x00, 0x20, 0x00, 0x00, 0x00,
  0x40, 0xb0, 0x25, 0x38, 0x4a, 0xbb, 0x24, 0x38, 0x01, 0xb7, 0x31, 0x38,
  0xf4, 0xf0, 0x0e, 0x38, 0xa9, 0xd4, 0x1d, 0x38, 0x76, 0x6c, 0xe7, 0x37,
  0x48, 0x1e, 0xf4, 0x37, 0x99, 0xc6, 0xbe, 0x38, 0xad, 0x51, 0x25, 0x38,
  0x3e, 0x87, 0xd8, 0x37, 0xd6, 0xbb, 0x7e, 0x38, 0x2b, 0x75, 0xc9, 0x37,
  0x94, 0x02, 0x26, 0x38, 0x9f, 0x04, 0xe3, 0x37, 0x94, 0x7a, 0x13, 0x38,
  0x3b, 0xbd, 0xfb, 0x37, 0x83, 0x59, 0xd6, 0x37, 0x0a, 0x0b, 0x24, 0x38,
  0x4a, 0xd4, 0x1a, 0x38, 0xd7, 0x24, 0xa3, 0x37, 0xaf, 0xf1, 0xcb, 0x37,
  0xb7, 0x84, 0x21, 0x38, 0x30, 0x17, 0x67, 0x38, 0x3e, 0x5f, 0xcb, 0x37,
  0xd6, 0x78, 0x1d, 0x38, 0x4b, 0x0d, 0xc0, 0x37, 0x5a, 0x0f, 0x0e, 0x38,
  0x0d, 0x1c, 0x12, 0x38, 0x21, 0x68, 0xbc, 0x37, 0x65, 0xb7, 0x13, 0x38,
  0x3a, 0x37, 0xc4, 0x37, 0x7f, 0x91, 0xc7, 0x37, 0x12, 0x00, 0x00, 0x00,
  0x74, 0x66, 0x6c, 0x2e, 0x70, 0x73, 0x65, 0x75, 0x64, 0x6f, 0x5f, 0x71,
  0x63, 0x6f, 0x6e, 0x73, 0x74, 0x34, 0x00, 0x00, 0x01, 0x00, 0x00, 0x00,
  0x20, 0x00, 0x00, 0x00, 0x72, 0xfd, 0xff, 0xff, 0x00, 0x00, 0x00, 0x01,
  0x14, 0x00, 0x00, 0x00, 0xe8, 0x00, 0x00, 0x00, 0x05, 0x00, 0x00, 0x00,
  0x00, 0x00, 0x00, 0x09, 0xf4, 0x00, 0x00, 0x00, 0x5c, 0xfd, 0xff, 0xff,
  0x08, 0x00, 0x00, 0x00, 0x8c, 0x00, 0x00, 0x00, 0x10, 0x00, 0x00, 0x00,
  0x00, 0x00, 0x00, 0x00, 0x00, 0x00, 0x00, 0x00, 0x00, 0x00, 0x00, 0x00,
  0x00, 0x00, 0x00, 0x00, 0x00, 0x00, 0x00, 0x00, 0x00, 0x00, 0x00, 0x00,
  0x00, 0x00, 0x00, 0x00, 0x00, 0x00, 0x00, 0x00, 0x00, 0x00, 0x00, 0x00,
  0x00, 0x00, 0x00, 0x00, 0x00, 0x00, 0x00, 0x00, 0x00, 0x00, 0x00, 0x00,
  0x00, 0x00, 0x00, 0x00, 0x00, 0x00, 0x00, 0x00, 0x00, 0x00, 0x00, 0x00,
  0x00, 0x00, 0x00, 0x00, 0x00, 0x00, 0x00, 0x00, 0x00, 0x00, 0x00, 0x00,
  0x00, 0x00, 0x00, 0x00, 0x00, 0x00, 0x00, 0x00, 0x00, 0x00, 0x00, 0x00,
  0x00, 0x00, 0x00, 0x00, 0x00, 0x00, 0x00, 0x00, 0x00, 0x00, 0x00, 0x00,
  0x00, 0x00, 0x00, 0x00, 0x00, 0x00, 0x00, 0x00, 0x00, 0x00, 0x00, 0x00,
  0x00, 0x00, 0x00, 0x00, 0x00, 0x00, 0x00, 0x00, 0x00, 0x00, 0x00, 0x00,
  0x00, 0x00, 0x00, 0x00, 0x00, 0x00, 0x00, 0x00, 0x00, 0x00, 0x00, 0x00,
  0x10, 0x00, 0x00, 0x00, 0xbb, 0x12, 0x79, 0x3b, 0xfe, 0x60, 0x7a, 0x3b,
  0x5b, 0x99, 0x4b, 0x3b, 0x30, 0x0c, 0x04, 0x3c, 0xc1, 0x6a, 0x28, 0x3b,
  0xff, 0xd5, 0x31, 0x3b, 0x12, 0xbd, 0x44, 0x3b, 0x3b, 0xf8, 0x34, 0x3b,
  0x27, 0xe6, 0x3c, 0x3b, 0x92, 0x8e, 0x30, 0x3b, 0xbd, 0xd3, 0x09, 0x3c,
  0x6c, 0x7d, 0x31, 0x3b, 0x96, 0xd0, 0x87, 0x3b, 0x10, 0x13, 0x83, 0x3b,
  0x9d, 0x2b, 0xd1, 0x3b, 0x61, 0xdb, 0x86, 0x3b, 0x12, 0x00, 0x00, 0x00,
  0x74, 0x66, 0x6c, 0x2e, 0x70, 0x73, 0x65, 0x75, 0x64, 0x6f, 0x5f, 0x71,
  0x63, 0x6f, 0x6e, 0x73, 0x74, 0x33, 0x00, 0x00, 0x02, 0x00, 0x00, 0x00,
  0x10, 0x00, 0x00, 0x00, 0x20, 0x00, 0x00, 0x00, 0x8a, 0xfe, 0xff, 0xff,
  0x00, 0x00, 0x00, 0x01, 0x14, 0x00, 0x00, 0x00, 0xe4, 0x00, 0x00, 0x00,
  0x04, 0x00, 0x00, 0x00, 0x00, 0x00, 0x00, 0x02, 0xf0, 0x00, 0x00, 0x00,
  0x74, 0xfe, 0xff, 0xff, 0x08, 0x00, 0x00, 0x00, 0x88, 0x00, 0x00, 0x00,
  0x10, 0x00, 0x00, 0x00, 0x00, 0x00, 0x00, 0x00, 0x00, 0x00, 0x00, 0x00,
  0x00, 0x00, 0x00, 0x00, 0x00, 0x00, 0x00, 0x00, 0x00, 0x00, 0x00, 0x00,
  0x00, 0x00, 0x00, 0x00, 0x00, 0x00, 0x00, 0x00, 0x00, 0x00, 0x00, 0x00,
  0x00, 0x00, 0x00, 0x00, 0x00, 0x00, 0x00, 0x00, 0x00, 0x00, 0x00, 0x00,
  0x00, 0x00, 0x00, 0x00, 0x00, 0x00, 0x00, 0x00, 0x00, 0x00, 0x00, 0x00,
  0x00, 0x00, 0x00, 0x00, 0x00, 0x00, 0x00, 0x00, 0x00, 0x00, 0x00, 0x00,
  0x00, 0x00, 0x00, 0x00, 0x00, 0x00, 0x00, 0x00, 0x00, 0x00, 0x00, 0x00,
  0x00, 0x00, 0x00, 0x00, 0x00, 0x00, 0x00, 0x00, 0x00, 0x00, 0x00, 0x00,
  0x00, 0x00, 0x00, 0x00, 0x00, 0x00, 0x00, 0x00, 0x00, 0x00, 0x00, 0x00,
  0x00, 0x00, 0x00, 0x00, 0x00, 0x00, 0x00, 0x00, 0x00, 0x00, 0x00, 0x00,
  0x00, 0x00, 0x00, 0x00, 0x00, 0x00, 0x00, 0x00, 0x00, 0x00, 0x00, 0x00,
  0x10, 0x00, 0x00, 0x00, 0x8e, 0x59, 0xa7, 0x37, 0x24, 0x3a, 0xa8, 0x37,
  0xd4, 0xcb, 0x88, 0x37, 0x68, 0x71, 0x31, 0x38, 0xc3, 0x50, 0x62, 0x37,
  0xf1, 0xf8, 0x6e, 0x37, 0xcc, 0x2f, 0x84, 0x37, 0xf8, 0x2e, 0x73, 0x37,
  0xbd, 0xd6, 0x7d, 0x37, 0xf4, 0x40, 0x6d, 0x37, 0x99, 0x35, 0x39, 0x38,
  0xeb, 0x81, 0x6e, 0x37, 0x58, 0x81, 0xb6, 0x37, 0xa3, 0x22, 0xb0, 0x37,
  0x1e, 0x8a, 0x0c, 0x38, 0xd7, 0x37, 0xb5, 0x37, 0x12, 0x00, 0x00, 0x00,
  0x74, 0x66, 0x6c, 0x2e, 0x70, 0x73, 0x65, 0x75, 0x64, 0x6f, 0x5f, 0x71,
  0x63, 0x6f, 0x6e, 0x73, 0x74, 0x32, 0x00, 0x00, 0x01, 0x00, 0x00, 0x00,
  0x10, 0x00, 0x00, 0x00, 0x9a, 0xff, 0xff, 0xff, 0x00, 0x00, 0x00, 0x01,
  0x14, 0x00, 0x00, 0x00, 0x34, 0x00, 0x00, 0x00, 0x03, 0x00, 0x00, 0x00,
  0x00, 0x00, 0x00, 0x09, 0x40, 0x00, 0x00, 0x00, 0x84, 0xff, 0xff, 0xff,
  0x08, 0x00, 0x00, 0x00, 0x14, 0x00, 0x00, 0x00, 0x01, 0x00, 0x00, 0x00,
  0x00, 0x00, 0x00, 0x00, 0x00, 0x00, 0x00, 0x00, 0x00, 0x00, 0x00, 0x00,
  0x01, 0x00, 0x00, 0x00, 0xff, 0xe9, 0x27, 0x3c, 0x12, 0x00, 0x00, 0x00,
  0x74, 0x66, 0x6c, 0x2e, 0x70, 0x73, 0x65, 0x75, 0x64, 0x6f, 0x5f, 0x71,
  0x63, 0x6f, 0x6e, 0x73, 0x74, 0x31, 0x00, 0x00, 0x02, 0x00, 0x00, 0x00,
  0x01, 0x00, 0x00, 0x00, 0x10, 0x00, 0x00, 0x00, 0x00, 0x00, 0x16, 0x00,
  0x1c, 0x00, 0x18, 0x00, 0x17, 0x00, 0x10, 0x00, 0x0c, 0x00, 0x08, 0x00,
  0x00, 0x00, 0x00, 0x00, 0x00, 0x00, 0x07, 0x00, 0x16, 0x00, 0x00, 0x00,
  0x00, 0x00, 0x00, 0x01, 0x20, 0x00, 0x00, 0x00, 0x40, 0x00, 0x00, 0x00,
  0x02, 0x00, 0x00, 0x00, 0x00, 0x00, 0x00, 0x02, 0x4c, 0x00, 0x00, 0x00,
  0x0c, 0x00, 0x0c, 0x00, 0x00, 0x00, 0x00, 0x00, 0x08, 0x00, 0x04, 0x00,
  0x0c, 0x00, 0x00, 0x00, 0x08, 0x00, 0x00, 0x00, 0x14, 0x00, 0x00, 0x00,
  0x01, 0x00, 0x00, 0x00, 0x00, 0x00, 0x00, 0x00, 0x00, 0x00, 0x00, 0x00,
  0x00, 0x00, 0x00, 0x00, 0x01, 0x00, 0x00, 0x00, 0x7f, 0xeb, 0x8f, 0x38,
  0x11, 0x00, 0x00, 0x00, 0x74, 0x66, 0x6c, 0x2e, 0x70, 0x73, 0x65, 0x75,
  0x64, 0x6f, 0x5f, 0x71, 0x63, 0x6f, 0x6e, 0x73, 0x74, 0x00, 0x00, 0x00,
  0x01, 0x00, 0x00, 0x00, 0x01, 0x00, 0x00, 0x00, 0x00, 0x00, 0x16, 0x00,
  0x1c, 0x00, 0x18, 0x00, 0x00, 0x00, 0x14, 0x00, 0x10, 0x00, 0x0c, 0x00,
  0x00, 0x00, 0x00, 0x00, 0x08, 0x00, 0x07, 0x00, 0x16, 0x00, 0x00, 0x00,
  0x00, 0x00, 0x00, 0x01, 0x14, 0x00, 0x00, 0x00, 0x20, 0x00, 0x00, 0x00,
  0x20, 0x00, 0x00, 0x00, 0x01, 0x00, 0x00, 0x00, 0x3c, 0x00, 0x00, 0x00,
  0x02, 0x00, 0x00, 0x00, 0xff, 0xff, 0xff, 0xff, 0x01, 0x00, 0x00, 0x00,
  0x04, 0x00, 0x04, 0x00, 0x04, 0x00, 0x00, 0x00, 0x1e, 0x00, 0x00, 0x00,
  0x73, 0x65, 0x72, 0x76, 0x69, 0x6e, 0x67, 0x5f, 0x64, 0x65, 0x66, 0x61,
  0x75, 0x6c, 0x74, 0x5f, 0x6b, 0x65, 0x72, 0x61, 0x73, 0x5f, 0x74, 0x65,
  0x6e, 0x73, 0x6f, 0x72, 0x3a, 0x30, 0x00, 0x00, 0x02, 0x00, 0x00, 0x00,
  0x01, 0x00, 0x00, 0x00, 0x01, 0x00, 0x00, 0x00, 0x03, 0x00, 0x00, 0x00,
  0x44, 0x00, 0x00, 0x00, 0x24, 0x00, 0x00, 0x00, 0x04, 0x00, 0x00, 0x00,
  0xf0, 0xff, 0xff, 0xff, 0x06, 0x00, 0x00, 0x00, 0x02, 0x00, 0x00, 0x00,
  0x00, 0x00, 0x00, 0x06, 0x0c, 0x00, 0x10, 0x00, 0x0f, 0x00, 0x00, 0x00,
  0x08, 0x00, 0x04, 0x00, 0x0c, 0x00, 0x00, 0x00, 0x09, 0x00, 0x00, 0x00,
  0x04, 0x00, 0x00, 0x00, 0x00, 0x00, 0x00, 0x09, 0x0c, 0x00, 0x0c, 0x00,
  0x0b, 0x00, 0x00, 0x00, 0x00, 0x00, 0x04, 0x00, 0x0c, 0x00, 0x00, 0x00,
  0x72, 0x00, 0x00, 0x00, 0x00, 0x00, 0x00, 0x72
};
unsigned int models_complex_sine_model_quantized_tflite_len = 6704;
