unsigned char models_complex_sine_model_quantized_tflite[] = {
  0x20, 0x00, 0x00, 0x00, 0x54, 0x46, 0x4c, 0x33, 0x00, 0x00, 0x00, 0x00,
  0x14, 0x00, 0x20, 0x00, 0x1c, 0x00, 0x18, 0x00, 0x14, 0x00, 0x10, 0x00,
  0x0c, 0x00, 0x00, 0x00, 0x08, 0x00, 0x04, 0x00, 0x14, 0x00, 0x00, 0x00,
  0x1c, 0x00, 0x00, 0x00, 0x84, 0x00, 0x00, 0x00, 0xdc, 0x00, 0x00, 0x00,
  0x38, 0x16, 0x00, 0x00, 0x48, 0x16, 0x00, 0x00, 0x84, 0x21, 0x00, 0x00,
  0x03, 0x00, 0x00, 0x00, 0x01, 0x00, 0x00, 0x00, 0x04, 0x00, 0x00, 0x00,
  0x6e, 0xe9, 0xff, 0xff, 0x0c, 0x00, 0x00, 0x00, 0x1c, 0x00, 0x00, 0x00,
  0x38, 0x00, 0x00, 0x00, 0x0f, 0x00, 0x00, 0x00, 0x73, 0x65, 0x72, 0x76,
  0x69, 0x6e, 0x67, 0x5f, 0x64, 0x65, 0x66, 0x61, 0x75, 0x6c, 0x74, 0x00,
  0x01, 0x00, 0x00, 0x00, 0x04, 0x00, 0x00, 0x00, 0x98, 0xff, 0xff, 0xff,
  0x11, 0x00, 0x00, 0x00, 0x04, 0x00, 0x00, 0x00, 0x07, 0x00, 0x00, 0x00,
  0x64, 0x65, 0x6e, 0x73, 0x65, 0x5f, 0x34, 0x00, 0x01, 0x00, 0x00, 0x00,
  0x04, 0x00, 0x00, 0x00, 0x4a, 0xea, 0xff, 0xff, 0x04, 0x00, 0x00, 0x00,
  0x0b, 0x00, 0x00, 0x00, 0x64, 0x65, 0x6e, 0x73, 0x65, 0x5f, 0x69, 0x6e,
  0x70, 0x75, 0x74, 0x00, 0x02, 0x00, 0x00, 0x00, 0x34, 0x00, 0x00, 0x00,
  0x04, 0x00, 0x00, 0x00, 0xdc, 0xff, 0xff, 0xff, 0x14, 0x00, 0x00, 0x00,
  0x04, 0x00, 0x00, 0x00, 0x13, 0x00, 0x00, 0x00, 0x43, 0x4f, 0x4e, 0x56,
  0x45, 0x52, 0x53, 0x49, 0x4f, 0x4e, 0x5f, 0x4d, 0x45, 0x54, 0x41, 0x44,
  0x41, 0x54, 0x41, 0x00, 0x08, 0x00, 0x0c, 0x00, 0x08, 0x00, 0x04, 0x00,
  0x08, 0x00, 0x00, 0x00, 0x13, 0x00, 0x00, 0x00, 0x04, 0x00, 0x00, 0x00,
  0x13, 0x00, 0x00, 0x00, 0x6d, 0x69, 0x6e, 0x5f, 0x72, 0x75, 0x6e, 0x74,
  0x69, 0x6d, 0x65, 0x5f, 0x76, 0x65, 0x72, 0x73, 0x69, 0x6f, 0x6e, 0x00,
  0x15, 0x00, 0x00, 0x00, 0x58, 0x15, 0x00, 0x00, 0x50, 0x15, 0x00, 0x00,
  0x3c, 0x15, 0x00, 0x00, 0x14, 0x15, 0x00, 0x00, 0xc4, 0x14, 0x00, 0x00,
  0xb4, 0x0c, 0x00, 0x00, 0xa4, 0x0a, 0x00, 0x00, 0x94, 0x02, 0x00, 0x00,
  0x44, 0x02, 0x00, 0x00, 0x34, 0x01, 0x00, 0x00, 0xe4, 0x00, 0x00, 0x00,
  0xc4, 0x00, 0x00, 0x00, 0xbc, 0x00, 0x00, 0x00, 0xb4, 0x00, 0x00, 0x00,
  0xac, 0x00, 0x00, 0x00, 0xa4, 0x00, 0x00, 0x00, 0x9c, 0x00, 0x00, 0x00,
  0x94, 0x00, 0x00, 0x00, 0x8c, 0x00, 0x00, 0x00, 0x6c, 0x00, 0x00, 0x00,
  0x04, 0x00, 0x00, 0x00, 0x16, 0xeb, 0xff, 0xff, 0x04, 0x00, 0x00, 0x00,
  0x58, 0x00, 0x00, 0x00, 0x0c, 0x00, 0x00, 0x00, 0x08, 0x00, 0x0e, 0x00,
  0x08, 0x00, 0x04, 0x00, 0x08, 0x00, 0x00, 0x00, 0x10, 0x00, 0x00, 0x00,
  0x28, 0x00, 0x00, 0x00, 0x00, 0x00, 0x06, 0x00, 0x08, 0x00, 0x04, 0x00,
  0x06, 0x00, 0x00, 0x00, 0x04, 0x00, 0x00, 0x00, 0x01, 0x00, 0x00, 0x00,
  0xeb, 0x03, 0x00, 0x00, 0x00, 0x00, 0x0a, 0x00, 0x10, 0x00, 0x0c, 0x00,
  0x08, 0x00, 0x04, 0x00, 0x0a, 0x00, 0x00, 0x00, 0x02, 0x00, 0x00, 0x00,
  0x02, 0x00, 0x00, 0x00, 0x04, 0x00, 0x00, 0x00, 0x06, 0x00, 0x00, 0x00,
  0x32, 0x2e, 0x31, 0x35, 0x2e, 0x31, 0x00, 0x00, 0x7a, 0xeb, 0xff, 0xff,
  0x04, 0x00, 0x00, 0x00, 0x10, 0x00, 0x00, 0x00, 0x31, 0x2e, 0x31, 0x34,
  0x2e, 0x30, 0x00, 0x00, 0x00, 0x00, 0x00, 0x00, 0x00, 0x00, 0x00, 0x00,
  0x5c, 0xe0, 0xff, 0xff, 0x60, 0xe0, 0xff, 0xff, 0x64, 0xe0, 0xff, 0xff,
  0x68, 0xe0, 0xff, 0xff, 0x6c, 0xe0, 0xff, 0xff, 0x70, 0xe0, 0xff, 0xff,
  0x74, 0xe0, 0xff, 0xff, 0xb2, 0xeb, 0xff, 0xff, 0x04, 0x00, 0x00, 0x00,
  0x10, 0x00, 0x00, 0x00, 0x2c, 0x60, 0x4e, 0xfe, 0x23, 0xb1, 0x5f, 0x31,
  0x0d, 0x81, 0x91, 0x1e, 0x5a, 0x7a, 0xb5, 0x1f, 0xce, 0xeb, 0xff, 0xff,
  0x04, 0x00, 0x00, 0x00, 0x40, 0x00, 0x00, 0x00, 0x99, 0x01, 0x00, 0x00,
  0x74, 0x04, 0x00, 0x00, 0x42, 0xf8, 0xff, 0xff, 0x00, 0x00, 0x00, 0x00,
  0xf2, 0xff, 0xff, 0xff, 0x00, 0x00, 0x00, 0x00, 0x87, 0x02, 0x00, 0x00,
  0x13, 0xfb, 0xff, 0xff, 0x5a, 0xf9, 0xff, 0xff, 0x00, 0x00, 0x00, 0x00,
  0x00, 0x00, 0x00, 0x00, 0x3b, 0x02, 0x00, 0x00, 0x45, 0x07, 0x00, 0x00,
  0x97, 0xf8, 0xff, 0xff, 0x00, 0x00, 0x00, 0x00, 0x1e, 0xf9, 0xff, 0xff,
  0x1a, 0xec, 0xff, 0xff, 0x04, 0x00, 0x00, 0x00, 0x00, 0x01, 0x00, 0x00,
  0xcf, 0xf7, 0xf6, 0x39, 0x4e, 0x0a, 0x27, 0x28, 0xc9, 0xcc, 0xfc, 0xca,
  0xa9, 0x01, 0xd5, 0xd3, 0xfc, 0xb0, 0x0b, 0x0d, 0xaf, 0xf4, 0xbb, 0xd5,
  0x24, 0x4e, 0x47, 0x40, 0xfd, 0x4b, 0xec, 0xee, 0xb9, 0x0f, 0xff, 0xe1,
  0xdc, 0x1a, 0xd7, 0x1f, 0x0b, 0x32, 0xd3, 0xe6, 0x08, 0xcd, 0xd5, 0x3d,
  0x0c, 0x25, 0x0f, 0x22, 0x0a, 0xe1, 0x4a, 0xb8, 0xc4, 0x1b, 0x1d, 0xe3,
  0x0b, 0xa5, 0x4c, 0xf3, 0x05, 0xaa, 0x4f, 0x0a, 0x38, 0x28, 0x30, 0x30,
  0x65, 0x2c, 0x15, 0x23, 0xd4, 0x15, 0x15, 0x3f, 0x41, 0xd5, 0xc8, 0x38,
  0x26, 0xad, 0x35, 0x42, 0xf8, 0x03, 0xbf, 0x3b, 0x31, 0xed, 0x34, 0xd0,
  0x0c, 0xfb, 0xbf, 0x3a, 0xfc, 0x2b, 0x25, 0x2d, 0xd2, 0xd7, 0x38, 0x50,
  0x47, 0x03, 0x1e, 0xfc, 0xe6, 0xfb, 0xd0, 0x3d, 0x4d, 0xc6, 0xb7, 0xf4,
  0x17, 0x25, 0x0e, 0xd4, 0xef, 0x14, 0x53, 0xe7, 0x2d, 0x18, 0xfa, 0x34,
  0x24, 0x07, 0xcd, 0x42, 0x1e, 0xe2, 0xc0, 0x52, 0xc3, 0x28, 0x0e, 0x55,
  0xcd, 0x49, 0x43, 0xee, 0xe5, 0x43, 0xf6, 0x4e, 0x6f, 0x3f, 0xe4, 0x18,
  0xbc, 0x41, 0x20, 0x51, 0x13, 0xea, 0x37, 0xff, 0x57, 0x01, 0x43, 0xd7,
  0x33, 0xca, 0xe1, 0xd9, 0xc4, 0x4e, 0x28, 0x56, 0xd6, 0xb7, 0xc4, 0xd4,
  0xfe, 0xb4, 0x34, 0xe2, 0xd2, 0xbf, 0x0b, 0xff, 0x38, 0x81, 0x44, 0x08,
  0x40, 0xbc, 0x57, 0x05, 0xd2, 0xfa, 0x2e, 0x5d, 0x16, 0xc8, 0xbc, 0x03,
  0xe6, 0xff, 0xd4, 0xff, 0x11, 0x0d, 0xe4, 0x0c, 0x89, 0x51, 0x83, 0xaf,
  0x2c, 0x36, 0x04, 0xa5, 0x00, 0xde, 0xda, 0x48, 0xd0, 0xe7, 0x2c, 0x2d,
  0x2d, 0x3a, 0xc7, 0x38, 0xd5, 0x0e, 0x3f, 0x22, 0x21, 0xc0, 0x39, 0xfe,
  0x08, 0xe5, 0x37, 0xca, 0x05, 0x03, 0xef, 0x0d, 0x52, 0x30, 0xc5, 0xb5,
  0xdc, 0xba, 0x54, 0x3b, 0x26, 0xed, 0xff, 0xff, 0x04, 0x00, 0x00, 0x00,
  0x40, 0x00, 0x00, 0x00, 0x00, 0x00, 0x00, 0x00, 0x00, 0x00, 0x00, 0x00,
  0x71, 0x0d, 0x00, 0x00, 0x71, 0x0f, 0x00, 0x00, 0xa5, 0xf3, 0xff, 0xff,
  0xf1, 0x09, 0x00, 0x00, 0xde, 0x10, 0x00, 0x00, 0x00, 0x00, 0x00, 0x00,
  0xdc, 0x01, 0x00, 0x00, 0x09, 0xee, 0xff, 0xff, 0x63, 0xf8, 0xff, 0xff,
  0x5a, 0x00, 0x00, 0x00, 0x88, 0xf7, 0xff, 0xff, 0x91, 0x06, 0x00, 0x00,
  0xd3, 0xfe, 0xff, 0xff, 0xa6, 0xff, 0xff, 0xff, 0x72, 0xed, 0xff, 0xff,
  0x04, 0x00, 0x00, 0x00, 0x00, 0x08, 0x00, 0x00, 0x0e, 0x11, 0x08, 0xd9,
  0xeb, 0xd8, 0x20, 0xf0, 0x1c, 0x08, 0xdb, 0x21, 0x1f, 0xee, 0x09, 0x1d,
  0x24, 0x27, 0xf9, 0x07, 0xec, 0xfc, 0xe3, 0x07, 0x0a, 0x14, 0x30, 0xe5,
  0xe8, 0xf2, 0x11, 0xf3, 0x25, 0xe1, 0x06, 0x00, 0xfd, 0x28, 0xe6, 0xec,
  0xda, 0x0f, 0x23, 0xfc, 0x17, 0xfb, 0xe1, 0xfe, 0x03, 0xe3, 0x01, 0xdb,
  0xeb, 0x10, 0xd7, 0x27, 0x06, 0xe3, 0xe4, 0xfa, 0x08, 0x11, 0x29, 0xf0,
  0xe7, 0xda, 0xfa, 0xe0, 0x1a, 0x04, 0xfb, 0x0f, 0x1c, 0x0d, 0x1a, 0x08,
  0x12, 0x0d, 0x0a, 0x1e, 0xe5, 0x16, 0xf5, 0x02, 0x14, 0x16, 0x19, 0x1a,
  0x17, 0x1b, 0xef, 0x10, 0xf4, 0x3b, 0x03, 0x21, 0x03, 0x28, 0xb1, 0xfc,
  0xc8, 0x04, 0x03, 0xef, 0x16, 0xea, 0x1f, 0x0e, 0xe2, 0xc8, 0x20, 0x05,
  0xed, 0xe5, 0xfc, 0xfc, 0x23, 0xed, 0xe0, 0xdf, 0x1e, 0x07, 0xe0, 0xdc,
  0x08, 0xfe, 0x02, 0xed, 0x14, 0x19, 0xdf, 0x05, 0x06, 0x22, 0x12, 0x1e,
  0x0a, 0xe3, 0x24, 0x10, 0xf5, 0xc6, 0xf3, 0x0b, 0xf7, 0xf1, 0x28, 0x00,
  0x28, 0x14, 0xe7, 0x04, 0xe2, 0x32, 0x1d, 0xf3, 0x06, 0x1b, 0x0c, 0x06,
  0x00, 0xd9, 0x17, 0xf0, 0xfd, 0xed, 0x06, 0xe1, 0x03, 0x26, 0xe9, 0x23,
  0x12, 0x13, 0xfe, 0xe4, 0x03, 0xe5, 0x04, 0xfa, 0x03, 0xed, 0xf4, 0x00,
  0x1e, 0x23, 0x23, 0x1b, 0x2b, 0xe7, 0x21, 0x04, 0x28, 0xe4, 0xf3, 0xda,
  0xf3, 0x23, 0x09, 0x09, 0x1e, 0xec, 0x22, 0x1e, 0xcc, 0xb9, 0xed, 0x1b,
  0x0b, 0x14, 0x05, 0x4b, 0x0e, 0x21, 0x13, 0x1a, 0x05, 0x21, 0x08, 0xff,
  0x08, 0x33, 0x15, 0x14, 0xdb, 0x0c, 0xe1, 0xf2, 0xe8, 0xf9, 0x03, 0xe2,
  0xf9, 0x27, 0x24, 0xe4, 0x19, 0x1f, 0xf5, 0x02, 0xd7, 0xe7, 0x35, 0x36,
  0x1c, 0xf4, 0xe5, 0x1a, 0xcb, 0xfe, 0xcb, 0xda, 0x11, 0x40, 0xde, 0xfe,
  0xf1, 0x10, 0xf3, 0x34, 0xe8, 0xf6, 0x13, 0x15, 0xfc, 0x0f, 0xf6, 0xfd,
  0xe8, 0xb2, 0x00, 0xed, 0xeb, 0x18, 0x10, 0xe2, 0x14, 0xfe, 0x15, 0x28,
  0x13, 0x07, 0x04, 0x0b, 0xda, 0x24, 0x01, 0x0f, 0xe7, 0x25, 0xe4, 0x18,
  0xe0, 0x0b, 0xfa, 0xf3, 0x19, 0xea, 0xe9, 0x2c, 0x16, 0xe2, 0x08, 0xdd,
  0x29, 0x11, 0xfd, 0xfc, 0xe1, 0xf6, 0xef, 0x1e, 0x25, 0xee, 0xdb, 0xe4,
  0xec, 0xe0, 0xe4, 0x1d, 0xff, 0x1a, 0xd7, 0xef, 0xf1, 0x2a, 0xdf, 0x1b,
  0x20, 0xfd, 0x1c, 0xf6, 0x2a, 0xec, 0xe7, 0xf6, 0xe6, 0x01, 0xe4, 0x21,
  0x1d, 0x1a, 0x06, 0x28, 0xed, 0x1d, 0xe6, 0x07, 0xe7, 0xda, 0xe0, 0x14,
  0xfe, 0xed, 0xf5, 0xfa, 0xf7, 0xea, 0x12, 0xe9, 0xff, 0xe8, 0xf7, 0xf7,
  0xe2, 0xf3, 0xd7, 0x13, 0xe4, 0x0e, 0xc8, 0xef, 0x2b, 0x0a, 0x19, 0xe2,
  0x09, 0xef, 0x20, 0x26, 0x1c, 0x14, 0xda, 0xfc, 0x1c, 0xda, 0x01, 0x0e,
  0xe6, 0x0b, 0xd8, 0xda, 0xde, 0x17, 0x08, 0x24, 0x00, 0x09, 0xf2, 0x0a,
  0x19, 0x1f, 0x24, 0x0f, 0x21, 0x0b, 0xdf, 0x10, 0xff, 0xec, 0x07, 0xe3,
  0x11, 0xde, 0x22, 0x0e, 0x18, 0xe7, 0x37, 0x35, 0x20, 0xd8, 0xf2, 0x1b,
  0xec, 0xff, 0xb6, 0x13, 0xdd, 0x22, 0xdb, 0xe5, 0x02, 0xf2, 0xfb, 0x3c,
  0xd1, 0x0e, 0x12, 0xe0, 0x07, 0x15, 0xe0, 0x0a, 0xe9, 0x14, 0x0a, 0xdc,
  0x0b, 0xf6, 0xf7, 0x15, 0xfa, 0x1d, 0xe4, 0xfd, 0xf4, 0xd7, 0xed, 0x04,
  0x25, 0xea, 0xf2, 0xe1, 0xf7, 0xdd, 0x01, 0x24, 0xe6, 0xd8, 0xe5, 0x1e,
  0x85, 0xed, 0xe6, 0xf7, 0xf6, 0x65, 0xea, 0x0c, 0xe8, 0x08, 0x3b, 0xfb,
  0x04, 0xd9, 0x10, 0xf6, 0x86, 0xee, 0xf4, 0xf9, 0xe0, 0x4a, 0x04, 0x0b,
  0x22, 0x27, 0xcb, 0x57, 0xf6, 0xfc, 0x2b, 0xeb, 0xe3, 0x1d, 0xf8, 0x1f,
  0xbb, 0xe2, 0xe6, 0x16, 0x20, 0x17, 0xcb, 0x07, 0xe7, 0xd8, 0x1a, 0xe8,
  0x0f, 0xfd, 0x0c, 0xf5, 0xf9, 0x13, 0x0e, 0xe1, 0xf5, 0xdf, 0x39, 0xd7,
  0x19, 0x1a, 0x15, 0xd9, 0x09, 0x07, 0xe3, 0x28, 0xdf, 0xce, 0xe2, 0x1b,
  0xf0, 0xf6, 0x0d, 0xda, 0xd8, 0xf8, 0xf5, 0x20, 0xf1, 0xdb, 0x13, 0xf9,
  0xdd, 0x16, 0x20, 0xf8, 0x1a, 0xf4, 0xe7, 0x4d, 0xd0, 0x11, 0xe5, 0xdc,
  0xfe, 0xff, 0x22, 0x17, 0xfb, 0xae, 0x0c, 0xff, 0xf3, 0x02, 0x05, 0x04,
  0x09, 0x19, 0xdd, 0xd8, 0x28, 0xf0, 0xe2, 0x13, 0x10, 0xe8, 0xf2, 0x21,
  0xe0, 0xfa, 0x10, 0x1a, 0xef, 0xeb, 0x06, 0x00, 0x13, 0xe5, 0xff, 0xf9,
  0xf9, 0xe3, 0xff, 0xe5, 0x07, 0xe4, 0xfd, 0xf5, 0x0c, 0xe8, 0xf8, 0x0b,
  0xfa, 0xfb, 0xff, 0xec, 0xe0, 0x24, 0x24, 0x10, 0xf0, 0x01, 0xfe, 0xdc,
  0xda, 0xd4, 0x22, 0x24, 0xdf, 0x00, 0xd5, 0xf6, 0xf7, 0xec, 0xea, 0x0c,
  0xff, 0x1a, 0x24, 0x07, 0x1e, 0xdc, 0xfa, 0xe8, 0xf5, 0xf6, 0xd8, 0xca,
  0xfd, 0x60, 0xfc, 0x1e, 0xfd, 0xe5, 0xb3, 0x24, 0xfc, 0x19, 0x06, 0xe9,
  0x23, 0xec, 0x07, 0x0d, 0xe6, 0xe5, 0x0a, 0xdd, 0xf1, 0xf9, 0x3c, 0x1d,
  0xf1, 0x02, 0xef, 0xea, 0xd1, 0xdc, 0xc6, 0x0c, 0xec, 0x5d, 0xf4, 0x28,
  0x12, 0xe9, 0xfa, 0x1f, 0xfd, 0x08, 0x09, 0x1b, 0x23, 0xdb, 0x17, 0x23,
  0xfc, 0x34, 0x1f, 0xe7, 0xe5, 0xde, 0x48, 0xea, 0x12, 0xf7, 0xcf, 0xf7,
  0x09, 0x26, 0x29, 0xeb, 0x28, 0x05, 0x0d, 0x16, 0xde, 0xdc, 0xe4, 0x1e,
  0x1b, 0x14, 0x23, 0xef, 0x1f, 0xde, 0x02, 0xe4, 0x03, 0xe7, 0x27, 0xee,
  0x0a, 0x1b, 0xe1, 0xf8, 0xdf, 0x05, 0x02, 0xf0, 0xed, 0x08, 0x13, 0x22,
  0x0f, 0xeb, 0x19, 0x07, 0xd8, 0xff, 0x03, 0xfd, 0x15, 0xf8, 0xfd, 0x28,
  0x1d, 0x23, 0x13, 0xe2, 0x35, 0x22, 0xd7, 0xed, 0xf3, 0x23, 0xe5, 0xf6,
  0xda, 0x1d, 0xd5, 0xda, 0x16, 0xe8, 0x18, 0x1c, 0xd4, 0xfe, 0xdb, 0x20,
  0xd8, 0x21, 0x24, 0xe6, 0x21, 0xf9, 0xf3, 0xef, 0x24, 0x2f, 0x09, 0x11,
  0x45, 0xe2, 0xf4, 0x0a, 0xf8, 0x1e, 0x01, 0xe0, 0x0b, 0xfc, 0x15, 0x09,
  0xf3, 0x17, 0x24, 0x06, 0xf9, 0x1f, 0x0d, 0xdb, 0xe9, 0xfa, 0x21, 0x31,
  0x21, 0xef, 0x01, 0xeb, 0xc3, 0xdd, 0xd1, 0xd6, 0xdf, 0x50, 0xe9, 0xe9,
  0xee, 0xe4, 0x12, 0xe2, 0xe3, 0xec, 0xd9, 0xdf, 0x18, 0x05, 0x1d, 0x14,
  0x1a, 0x0c, 0xf7, 0xf5, 0xf9, 0x29, 0x19, 0xe0, 0x0d, 0x20, 0x00, 0x22,
  0x0f, 0x0a, 0x02, 0x09, 0x0c, 0x27, 0xdd, 0x26, 0xed, 0xdd, 0xfe, 0xf0,
  0x0d, 0xf6, 0x05, 0x03, 0x20, 0xfd, 0x15, 0x26, 0x23, 0xe5, 0x0a, 0x08,
  0xe1, 0x0a, 0x15, 0xd3, 0xfc, 0xfc, 0x06, 0x23, 0x28, 0x10, 0x0e, 0x2d,
  0x0e, 0xfc, 0x26, 0xe8, 0x21, 0xf4, 0xde, 0x22, 0xf9, 0x2c, 0x26, 0x1f,
  0x26, 0xe2, 0x10, 0x0e, 0x01, 0x13, 0xf7, 0x18, 0x02, 0xe8, 0x14, 0xf7,
  0xd9, 0xf1, 0xd7, 0x12, 0xf9, 0xdd, 0x18, 0x02, 0xe6, 0xdc, 0xe4, 0x13,
  0xe8, 0xf3, 0xee, 0x16, 0xfa, 0x28, 0x13, 0x15, 0x24, 0xe0, 0x0d, 0xe1,
  0x22, 0xd4, 0xe0, 0x03, 0xf6, 0x02, 0x04, 0x28, 0x23, 0x29, 0xfe, 0xd7,
  0x1c, 0x26, 0x0e, 0x10, 0xf5, 0x46, 0xdb, 0x00, 0x0e, 0x07, 0x1a, 0x2c,
  0xce, 0x05, 0xed, 0x0a, 0xb8, 0xe4, 0xc4, 0xef, 0x0f, 0x1e, 0x1e, 0xf3,
  0xee, 0xe5, 0x2f, 0x21, 0xff, 0xd9, 0xfc, 0xfc, 0xff, 0xca, 0xc9, 0xea,
  0x16, 0x5f, 0x24, 0x0f, 0xdb, 0xfb, 0xf7, 0xf8, 0x24, 0x06, 0xf8, 0xe8,
  0x13, 0x23, 0x03, 0x0b, 0xe6, 0x07, 0xf9, 0x1d, 0xfc, 0xf6, 0xde, 0x3b,
  0x00, 0x2c, 0x25, 0xf9, 0xf7, 0xfd, 0xdf, 0xef, 0xbd, 0xd6, 0xf1, 0x27,
  0x04, 0x1b, 0x18, 0xe4, 0x20, 0xe8, 0x0c, 0x03, 0xdd, 0xfc, 0xfd, 0xff,
  0xe3, 0xe1, 0xe1, 0x1f, 0x0c, 0xe1, 0xf5, 0xe9, 0xee, 0xfc, 0xd8, 0xe6,
  0x07, 0xd8, 0xed, 0xe0, 0x28, 0xfa, 0x14, 0x1d, 0xe9, 0x28, 0x28, 0x09,
  0xf7, 0x0a, 0xfc, 0x18, 0xf4, 0xed, 0xc8, 0xd7, 0xde, 0x45, 0xeb, 0x1b,
  0xd8, 0x20, 0xeb, 0xf6, 0xd8, 0xeb, 0xe2, 0xfe, 0x0d, 0xdf, 0xf8, 0x0f,
  0xf2, 0xd8, 0x28, 0x07, 0xdb, 0x1a, 0xd8, 0x0a, 0xe9, 0x07, 0xe5, 0x20,
  0x27, 0xd9, 0xd8, 0xff, 0x06, 0x24, 0xf0, 0xe7, 0xe3, 0x16, 0xeb, 0xe8,
  0x00, 0xf1, 0xe5, 0x21, 0xef, 0x0e, 0xe2, 0xe0, 0xf2, 0xec, 0x00, 0xf9,
  0x05, 0xdc, 0xb8, 0x25, 0x17, 0xf6, 0xfa, 0x23, 0x04, 0x1c, 0xeb, 0x0e,
  0xdd, 0xa2, 0xec, 0xe0, 0x0d, 0x23, 0xf5, 0x28, 0xfd, 0x20, 0xda, 0x12,
  0x81, 0xe1, 0xab, 0x2a, 0xf2, 0xc3, 0x24, 0xfb, 0xf4, 0x07, 0xdf, 0x18,
  0xc7, 0x0b, 0x13, 0xed, 0xe2, 0x07, 0xe5, 0x1a, 0xcd, 0x97, 0xf7, 0x1e,
  0xd8, 0x05, 0xca, 0xdf, 0x1c, 0xdc, 0xfc, 0x0b, 0x0d, 0x20, 0xe6, 0x11,
  0x1d, 0xd5, 0x0d, 0xf0, 0x08, 0x03, 0x20, 0xfc, 0xe2, 0xda, 0x0f, 0x21,
  0xeb, 0xce, 0x12, 0x0a, 0xd3, 0x17, 0x06, 0xec, 0xe6, 0xe6, 0xe2, 0xf7,
  0xfa, 0xf7, 0x20, 0x20, 0xe5, 0x0a, 0xe3, 0x12, 0x16, 0xe1, 0xdc, 0x08,
  0xe5, 0xf8, 0x0c, 0xf3, 0xdc, 0xe2, 0x0d, 0x0f, 0x1a, 0x25, 0x1a, 0x27,
  0xe3, 0xda, 0xfa, 0xf5, 0x19, 0x17, 0xc4, 0x2f, 0xd6, 0x20, 0x02, 0x16,
  0x19, 0xfc, 0xed, 0x27, 0xf1, 0xc8, 0x01, 0xdb, 0xf6, 0x02, 0x35, 0x2f,
  0xfe, 0x0d, 0xf6, 0xf7, 0x03, 0x21, 0x07, 0xd8, 0x17, 0x57, 0x1f, 0x25,
  0x05, 0xe6, 0x07, 0x13, 0xe6, 0xdf, 0xe4, 0xec, 0xe2, 0xe1, 0x00, 0x03,
  0x1a, 0x1b, 0x01, 0xee, 0x25, 0xf3, 0xdc, 0x0d, 0xf4, 0xde, 0xf9, 0x1b,
  0xf3, 0xed, 0xe3, 0x20, 0xe8, 0xeb, 0xe3, 0xec, 0x1e, 0xf5, 0xe0, 0x07,
  0xd9, 0x03, 0x24, 0xf1, 0x14, 0xe6, 0xd8, 0x16, 0xed, 0xb6, 0xf7, 0x28,
  0x0b, 0x23, 0xe2, 0x3f, 0xf6, 0xe5, 0x23, 0xda, 0xea, 0xdf, 0xf5, 0x2d,
  0xaa, 0x9f, 0xf4, 0x02, 0x05, 0xf3, 0xf4, 0x21, 0x15, 0x0f, 0x0a, 0xe7,
  0xf9, 0xec, 0x13, 0x0a, 0xde, 0x06, 0x19, 0xfb, 0xef, 0xd9, 0xfa, 0x1d,
  0xf3, 0x0d, 0x0f, 0x0a, 0x20, 0x09, 0xf4, 0xda, 0xe6, 0x17, 0x13, 0x1a,
  0xfe, 0xf4, 0xf0, 0x14, 0x10, 0xf3, 0xfc, 0xd8, 0x13, 0x0c, 0xe0, 0xf5,
  0xe6, 0x25, 0x19, 0x27, 0x1d, 0xe1, 0xe1, 0x21, 0xe7, 0x1e, 0x21, 0xf5,
  0xfe, 0xea, 0x1c, 0xd9, 0xfc, 0xbf, 0x1b, 0x20, 0x08, 0x27, 0x45, 0x1f,
  0xf4, 0xf2, 0xf4, 0xe3, 0xd4, 0xc6, 0xe4, 0x15, 0xd3, 0x49, 0x25, 0xe6,
  0xe8, 0xe1, 0xe2, 0x0a, 0x01, 0x1b, 0xf8, 0xfc, 0x20, 0x23, 0x08, 0xfa,
  0xf9, 0x2a, 0xf8, 0xfc, 0xfe, 0xdf, 0xf8, 0x4c, 0xcf, 0x17, 0x0b, 0x1f,
  0x0a, 0xf1, 0xfd, 0x1b, 0xe9, 0xc3, 0x25, 0x23, 0xf9, 0xde, 0xde, 0xd7,
  0x16, 0x01, 0xe8, 0x1b, 0x2c, 0x16, 0x34, 0xd8, 0x1d, 0xd7, 0xf7, 0x1e,
  0xef, 0xd9, 0xeb, 0x6f, 0xdd, 0x23, 0x16, 0x27, 0xf9, 0xfd, 0xdc, 0x17,
  0xe4, 0xc4, 0x04, 0xf6, 0xdf, 0xe7, 0x01, 0x1a, 0x22, 0x10, 0xef, 0x16,
  0x22, 0xf7, 0x17, 0xf0, 0x30, 0x27, 0x12, 0xe1, 0xec, 0xd8, 0x02, 0x04,
  0xfa, 0x0b, 0xe7, 0xe3, 0xfd, 0xe9, 0x1a, 0xeb, 0x1f, 0x17, 0x1a, 0x16,
  0x0d, 0x01, 0x45, 0x0d, 0xe5, 0xe0, 0x07, 0xe4, 0xb5, 0xbd, 0xa8, 0x1b,
  0x13, 0x68, 0xf3, 0x14, 0x15, 0xfc, 0x0d, 0xd2, 0xfe, 0x15, 0xe1, 0xfe,
  0xf7, 0x1b, 0x10, 0x24, 0x30, 0x13, 0x07, 0x07, 0xe3, 0x26, 0xe3, 0x02,
  0x28, 0xfd, 0xec, 0x1c, 0xed, 0xea, 0x0b, 0x08, 0xde, 0x13, 0x0b, 0x0c,
  0xfa, 0x08, 0xf1, 0x17, 0xe2, 0x23, 0x23, 0x24, 0x0f, 0xdd, 0xdf, 0x10,
  0x15, 0xf4, 0xdf, 0xf0, 0x19, 0xe9, 0x12, 0x13, 0xf3, 0xe7, 0xde, 0xdb,
  0x1c, 0xe5, 0x1e, 0xe2, 0x0a, 0x08, 0x18, 0xfb, 0xfd, 0xe0, 0x2c, 0x31,
  0x10, 0xfa, 0xe0, 0x18, 0xde, 0xf0, 0xcf, 0xf4, 0xf8, 0x26, 0x20, 0x14,
  0xeb, 0xf7, 0xd8, 0x23, 0x10, 0xe1, 0xdd, 0x0d, 0x18, 0xe5, 0x24, 0xee,
  0xf9, 0xda, 0xe9, 0x0d, 0x14, 0x1a, 0xf9, 0x01, 0xee, 0xdd, 0x22, 0xe2,
  0xda, 0x0f, 0xe7, 0xf6, 0x06, 0x07, 0x07, 0x02, 0xff, 0xf1, 0xf9, 0xed,
  0xdd, 0xf2, 0x1d, 0xf3, 0x15, 0x0f, 0xea, 0xd4, 0xdf, 0x37, 0x0f, 0xe3,
  0x1f, 0x0f, 0xde, 0xfd, 0xdd, 0x1a, 0xf1, 0x14, 0xf0, 0xdd, 0xdd, 0x0c,
  0x12, 0x0d, 0xe2, 0xf9, 0xfe, 0xfc, 0xf7, 0xe0, 0xef, 0x1e, 0xec, 0xfe,
  0x20, 0x0b, 0xf7, 0x04, 0x09, 0xe9, 0x23, 0x14, 0x28, 0x0f, 0x06, 0xf5,
  0x19, 0xf8, 0x07, 0xfb, 0xd8, 0xe5, 0xfc, 0x15, 0xda, 0x20, 0xe9, 0xdd,
  0xdd, 0x28, 0xe5, 0xdc, 0xe9, 0xfe, 0x1f, 0x1e, 0xd5, 0xe8, 0xfa, 0x20,
  0x03, 0xe3, 0xf1, 0x29, 0xe9, 0x0a, 0x02, 0xe1, 0xe7, 0x13, 0x1c, 0xf6,
  0xfc, 0x10, 0x06, 0x06, 0xd8, 0x00, 0x1c, 0xe4, 0x10, 0x0c, 0x03, 0xe3,
  0xeb, 0x28, 0xd9, 0xf7, 0x05, 0xe9, 0x01, 0x0c, 0xe6, 0x27, 0xfb, 0xdb,
  0x15, 0xda, 0x11, 0xfe, 0x00, 0x0d, 0x05, 0x1a, 0xe4, 0x22, 0x20, 0x03,
  0xdb, 0xf7, 0xe0, 0x15, 0xf5, 0x20, 0x34, 0x14, 0xf0, 0x19, 0xdb, 0xea,
  0xfe, 0xc6, 0xe0, 0x07, 0xd4, 0x60, 0x0b, 0xed, 0xeb, 0x25, 0xde, 0x21,
  0xd9, 0x12, 0xde, 0x0a, 0xef, 0x0e, 0xdb, 0xec, 0x22, 0xfa, 0x25, 0xfd,
  0x1d, 0xf3, 0xe7, 0xcf, 0x1f, 0xfb, 0x17, 0xdd, 0x02, 0x1f, 0x16, 0xe7,
  0x12, 0xe4, 0x28, 0x0f, 0xea, 0x0a, 0xd9, 0x61, 0xdc, 0x1f, 0x0a, 0x08,
  0xe3, 0x22, 0xe2, 0xf8, 0x0f, 0xaf, 0x26, 0xdb, 0x0f, 0x0c, 0xce, 0xda,
  0x13, 0x07, 0xfc, 0xe6, 0x13, 0x09, 0xfc, 0xf7, 0xfd, 0xd8, 0xdd, 0x13,
  0x00, 0xf7, 0xc8, 0xe1, 0xe9, 0x11, 0xf1, 0x1b, 0xd8, 0x1c, 0x18, 0xf0,
  0x17, 0xf4, 0xf0, 0x1b, 0xf6, 0x05, 0xde, 0xc4, 0x40, 0x00, 0xde, 0x1c,
  0xfc, 0x22, 0x03, 0x10, 0x2b, 0xe1, 0x08, 0xf4, 0x22, 0x0a, 0x00, 0xeb,
  0xf6, 0xe4, 0xd5, 0xe4, 0x03, 0x1d, 0xf5, 0xfc, 0xe1, 0x03, 0xd7, 0xf3,
  0xf1, 0xda, 0x0e, 0xde, 0xfb, 0x0c, 0xf5, 0x06, 0x1e, 0x04, 0xda, 0x0a,
  0xf4, 0x0c, 0xea, 0x1e, 0xf0, 0xec, 0x1e, 0x2d, 0xdc, 0xea, 0xe5, 0xd9,
  0x1b, 0x1e, 0x1f, 0xf3, 0x23, 0x46, 0x1c, 0xfd, 0x0a, 0x08, 0x2a, 0xe8,
  0xfa, 0x23, 0xf6, 0xf7, 0x19, 0x01, 0xe8, 0x04, 0x01, 0x17, 0xee, 0xfc,
  0xe6, 0x06, 0xdd, 0x03, 0x1c, 0xfd, 0xef, 0x12, 0x26, 0xdb, 0xdf, 0xe2,
  0xe7, 0xde, 0xd7, 0xd8, 0x0a, 0xf2, 0x1e, 0x08, 0xdf, 0x11, 0xdf, 0x0b,
  0xf8, 0x05, 0xf1, 0x17, 0x0f, 0xe5, 0x20, 0x11, 0x1a, 0xfa, 0xeb, 0x1d,
  0x05, 0x17, 0x23, 0x23, 0x24, 0xf7, 0x1f, 0x19, 0xe4, 0xee, 0xfc, 0xf1,
  0xe0, 0xdf, 0xe2, 0xd9, 0xf3, 0x11, 0xdc, 0x22, 0xf1, 0xe7, 0xe7, 0x25,
  0x1d, 0xde, 0x25, 0xf2, 0x11, 0xf9, 0xf2, 0xe5, 0xe8, 0x0c, 0xd5, 0xd8,
  0x0a, 0x2c, 0x28, 0xea, 0x13, 0x17, 0x1c, 0xdc, 0x03, 0xf3, 0xd7, 0xe4,
  0xed, 0x08, 0xeb, 0xeb, 0x15, 0xd7, 0x28, 0xe0, 0xed, 0xf5, 0xf2, 0xf2,
  0x05, 0xff, 0xf0, 0x0b, 0x0e, 0x02, 0x12, 0xfb, 0xd4, 0x00, 0x18, 0x16,
  0xca, 0x0b, 0x0e, 0xfe, 0x7e, 0xf5, 0xff, 0xff, 0x04, 0x00, 0x00, 0x00,
  0x00, 0x02, 0x00, 0x00, 0x49, 0xfe, 0xff, 0xff, 0x72, 0x00, 0x00, 0x00,
  0x56, 0xfd, 0xff, 0xff, 0x00, 0x00, 0x00, 0x00, 0x20, 0xfb, 0xff, 0xff,
  0xe5, 0x08, 0x00, 0x00, 0x54, 0x0f, 0x00, 0x00, 0xa9, 0xff, 0xff, 0xff,
  0x72, 0x01, 0x00, 0x00, 0x93, 0xee, 0xff, 0xff, 0x5f, 0xfc, 0xff, 0xff,
  0x32, 0xf9, 0xff, 0xff, 0x90, 0x02, 0x00, 0x00, 0xbd, 0x04, 0x00, 0x00,
  0x48, 0xfc, 0xff, 0xff, 0xe0, 0x08, 0x00, 0x00, 0x27, 0x0e, 0x00, 0x00,
  0xa0, 0x00, 0x00, 0x00, 0x6a, 0xf9, 0xff, 0xff, 0x00, 0x00, 0x00, 0x00,
  0x07, 0xfe, 0xff, 0xff, 0x36, 0xfe, 0xff, 0xff, 0x63, 0xfe, 0xff, 0xff,
  0x6a, 0xf9, 0xff, 0xff, 0xbe, 0xff, 0xff, 0xff, 0x68, 0xff, 0xff, 0xff,
  0xb8, 0x0b, 0x00, 0x00, 0x3a, 0x01, 0x00, 0x00, 0xa6, 0xfd, 0xff, 0xff,
  0x3b, 0x0b, 0x00, 0x00, 0xe2, 0x05, 0x00, 0x00, 0x65, 0x11, 0x00, 0x00,
  0x8f, 0x04, 0x00, 0x00, 0x93, 0xfa, 0xff, 0xff, 0x00, 0x00, 0x00, 0x00,
  0x7b, 0x0c, 0x00, 0x00, 0x00, 0x00, 0x00, 0x00, 0xff, 0xfa, 0xff, 0xff,
  0x4f, 0xfe, 0xff, 0xff, 0xea, 0xfd, 0xff, 0xff, 0xd6, 0x0d, 0x00, 0x00,
  0xc0, 0x09, 0x00, 0x00, 0x8b, 0x08, 0x00, 0x00, 0x07, 0x06, 0x00, 0x00,
  0xa9, 0xee, 0xff, 0xff, 0x02, 0x03, 0x00, 0x00, 0xbc, 0x01, 0x00, 0x00,
  0xb8, 0xf3, 0xff, 0xff, 0xe2, 0xfd, 0xff, 0xff, 0xdf, 0xe8, 0xff, 0xff,
  0xc3, 0xf1, 0xff, 0xff, 0x05, 0x08, 0x00, 0x00, 0x6b, 0xff, 0xff, 0xff,
  0xc1, 0xf6, 0xff, 0xff, 0xe2, 0xed, 0xff, 0xff, 0xa1, 0xe4, 0xff, 0xff,
  0x5f, 0x0d, 0x00, 0x00, 0x00, 0x00, 0x00, 0x00, 0x1d, 0xfe, 0xff, 0xff,
  0x81, 0xff, 0xff, 0xff, 0xdf, 0x06, 0x00, 0x00, 0x2b, 0x0b, 0x00, 0x00,
  0x15, 0xfd, 0xff, 0xff, 0x8c, 0x13, 0x00, 0x00, 0x6d, 0xff, 0xff, 0xff,
  0x00, 0x00, 0x00, 0x00, 0xb4, 0x05, 0x00, 0x00, 0x00, 0x00, 0x00, 0x00,
  0x00, 0x00, 0x00, 0x00, 0x64, 0xff, 0xff, 0xff, 0x8a, 0x07, 0x00, 0x00,
  0x63, 0xfe, 0xff, 0xff, 0x46, 0x15, 0x00, 0x00, 0x3a, 0xf9, 0xff, 0xff,
  0x5a, 0x03, 0x00, 0x00, 0x3d, 0x08, 0x00, 0x00, 0x1e, 0xfe, 0xff, 0xff,
  0xe1, 0x0a, 0x00, 0x00, 0x73, 0xff, 0xff, 0xff, 0x61, 0xfe, 0xff, 0xff,
  0x00, 0x00, 0x00, 0x00, 0x63, 0x03, 0x00, 0x00, 0x27, 0x18, 0x00, 0x00,
  0xb0, 0x03, 0x00, 0x00, 0x56, 0x0a, 0x00, 0x00, 0x6f, 0xfe, 0xff, 0xff,
  0xd6, 0x0c, 0x00, 0x00, 0xdb, 0x07, 0x00, 0x00, 0x80, 0xfe, 0xff, 0xff,
  0xa7, 0x10, 0x00, 0x00, 0x64, 0xeb, 0xff, 0xff, 0xff, 0x20, 0x00, 0x00,
  0x4a, 0xf7, 0xff, 0xff, 0xc6, 0xfe, 0xff, 0xff, 0xd1, 0x0c, 0x00, 0x00,
  0xc4, 0xec, 0xff, 0xff, 0x69, 0xff, 0xff, 0xff, 0xbb, 0x1a, 0x00, 0x00,
  0x6e, 0xff, 0xff, 0xff, 0xf6, 0x08, 0x00, 0x00, 0xb2, 0xff, 0xff, 0xff,
  0xbc, 0xfc, 0xff, 0xff, 0x93, 0x01, 0x00, 0x00, 0xd9, 0xfd, 0xff, 0xff,
  0xd8, 0x03, 0x00, 0x00, 0x64, 0xfd, 0xff, 0xff, 0x6d, 0xfd, 0xff, 0xff,
  0x4e, 0xfb, 0xff, 0xff, 0x00, 0x00, 0x00, 0x00, 0xba, 0xf9, 0xff, 0xff,
  0xad, 0x06, 0x00, 0x00, 0xdd, 0xfe, 0xff, 0xff, 0xda, 0xf2, 0xff, 0xff,
  0x8b, 0x12, 0x00, 0x00, 0x9d, 0x01, 0x00, 0x00, 0x2c, 0xfe, 0xff, 0xff,
  0xf6, 0xdf, 0xff, 0xff, 0x0c, 0x00, 0x00, 0x00, 0x46, 0xff, 0xff, 0xff,
  0x9e, 0xfd, 0xff, 0xff, 0x21, 0xfe, 0xff, 0xff, 0x00, 0x00, 0x00, 0x00,
  0x35, 0xfd, 0xff, 0xff, 0xda, 0xfb, 0xff, 0xff, 0x00, 0x00, 0x00, 0x00,
  0x5a, 0xef, 0xff, 0xff, 0x00, 0x00, 0x00, 0x00, 0x43, 0x0f, 0x00, 0x00,
  0x8a, 0xf7, 0xff, 0xff, 0x04, 0x00, 0x00, 0x00, 0x00, 0x08, 0x00, 0x00,
  0x05, 0x09, 0x13, 0x10, 0xe6, 0xfd, 0x29, 0xf6, 0xfb, 0xe4, 0xe8, 0x15,
  0x08, 0x0c, 0x08, 0xeb, 0x2a, 0xfd, 0x01, 0x1a, 0x08, 0x15, 0x1f, 0xe6,
  0xea, 0xfe, 0x10, 0xf9, 0xef, 0xf0, 0x08, 0x22, 0x1d, 0xf7, 0x04, 0x0a,
  0x1a, 0x06, 0xe5, 0xf9, 0x25, 0x06, 0x04, 0xf0, 0xd7, 0x1b, 0x15, 0xdc,
  0xf4, 0x11, 0x0a, 0x0a, 0x15, 0xea, 0xfa, 0xdf, 0x23, 0xfd, 0xe6, 0xef,
  0x24, 0xfe, 0x0e, 0x12, 0x1d, 0xe1, 0xe9, 0x0c, 0xeb, 0x0e, 0x05, 0x0d,
  0xc8, 0xf7, 0x01, 0x2a, 0x13, 0x19, 0x0e, 0xed, 0xe7, 0xdb, 0xd5, 0x1e,
  0xf8, 0xe4, 0xee, 0xf0, 0x0f, 0x1b, 0xe8, 0x2e, 0x00, 0xed, 0x0f, 0xfa,
  0x0d, 0x08, 0x04, 0x03, 0xe8, 0xe2, 0x09, 0x0a, 0xf0, 0xe1, 0x19, 0x0f,
  0x12, 0x0a, 0x13, 0xef, 0xe8, 0x2c, 0x0b, 0xf9, 0x81, 0x11, 0xfd, 0xf3,
  0xe8, 0xe7, 0x01, 0x1b, 0x16, 0xfe, 0xef, 0x10, 0xfb, 0x00, 0x17, 0x05,
  0xf3, 0x18, 0x29, 0xfd, 0x19, 0xde, 0xfa, 0x00, 0xed, 0xeb, 0x00, 0xf2,
  0x15, 0x02, 0xee, 0x0e, 0xf9, 0xfa, 0xe4, 0x0b, 0x14, 0xe8, 0xc0, 0x1b,
  0xeb, 0xcb, 0xea, 0xfb, 0xea, 0x0d, 0x15, 0x01, 0x16, 0x08, 0x11, 0x1e,
  0xc0, 0x23, 0xe8, 0x06, 0xe0, 0x1c, 0xf1, 0xf3, 0xec, 0xe3, 0x1c, 0xe7,
  0x00, 0xe9, 0x0c, 0xec, 0x10, 0x18, 0xff, 0x16, 0xd9, 0xe5, 0xee, 0x09,
  0x1b, 0xe3, 0xe2, 0x08, 0x0b, 0x15, 0x04, 0xf7, 0xcc, 0xd9, 0xe8, 0x09,
  0x11, 0x00, 0xfd, 0xff, 0xf8, 0xde, 0xc2, 0xe7, 0xf6, 0xec, 0x03, 0xfa,
  0x05, 0x1b, 0xfd, 0x17, 0xfb, 0xeb, 0xc8, 0xed, 0x0f, 0x09, 0x14, 0xec,
  0xfc, 0xf9, 0x08, 0xf1, 0xff, 0x01, 0xfb, 0xf6, 0xe4, 0xf6, 0xe5, 0xe4,
  0x0e, 0x22, 0xea, 0x0d, 0x8c, 0xfc, 0x10, 0xf3, 0xef, 0xe9, 0x0d, 0x20,
  0xfd, 0xdc, 0x02, 0xfc, 0x03, 0xee, 0xee, 0xec, 0xcf, 0x1b, 0x23, 0xef,
  0x1e, 0xe5, 0x05, 0xef, 0x00, 0x1a, 0xdb, 0xdc, 0x08, 0x05, 0xeb, 0x07,
  0xf0, 0xdc, 0x0c, 0xf0, 0xea, 0xf3, 0xd6, 0x06, 0x04, 0xd5, 0x02, 0x11,
  0x17, 0x07, 0xe5, 0x0e, 0xf4, 0xec, 0xf1, 0xe4, 0xfa, 0x16, 0xd6, 0xfc,
  0xe7, 0xea, 0x1b, 0xe5, 0x13, 0xde, 0xf5, 0xea, 0x18, 0xf9, 0xed, 0x07,
  0x0c, 0x0e, 0xfb, 0xe9, 0xde, 0xda, 0x12, 0x0e, 0xfc, 0x0d, 0xda, 0x0e,
  0xee, 0xf3, 0x0c, 0xfc, 0x0c, 0x19, 0xd8, 0xfb, 0xf8, 0x38, 0xf3, 0x11,
  0xe6, 0xf9, 0x31, 0xf8, 0xf7, 0xee, 0x1d, 0xe4, 0x0e, 0x3a, 0xd3, 0x23,
  0xe6, 0xfd, 0xe3, 0xe1, 0xfc, 0x12, 0x17, 0xca, 0xf9, 0xec, 0xff, 0x1c,
  0x14, 0xf5, 0xf1, 0xf4, 0x0a, 0xe4, 0x03, 0x02, 0xe5, 0x0f, 0x04, 0xfd,
  0xe9, 0xf8, 0x09, 0xf5, 0x09, 0x06, 0xeb, 0xed, 0xf4, 0xea, 0x1a, 0x15,
  0xe4, 0xe7, 0xf0, 0xe6, 0xf8, 0xfa, 0x11, 0x10, 0x08, 0xe8, 0x1e, 0x12,
  0x1e, 0x02, 0xe9, 0x17, 0xf7, 0xf5, 0xe7, 0xec, 0xe5, 0xfd, 0xf1, 0xf6,
  0x04, 0x19, 0x12, 0x11, 0x08, 0xff, 0x1c, 0xf3, 0xf5, 0xe5, 0xe9, 0x15,
  0xee, 0xf9, 0x07, 0x13, 0x1b, 0xfd, 0xf3, 0x0e, 0x0f, 0x0e, 0xfd, 0x0b,
  0x18, 0x0e, 0x15, 0xf4, 0x1d, 0xe2, 0x0e, 0x04, 0xef, 0xff, 0xfa, 0xe6,
  0xe2, 0xf4, 0x01, 0x12, 0x0b, 0x05, 0xf5, 0xf6, 0xf6, 0x1d, 0xe8, 0xe5,
  0xe6, 0xee, 0xf6, 0xff, 0x1a, 0xfe, 0x11, 0x06, 0x03, 0xf8, 0xe6, 0x19,
  0xf7, 0xff, 0xe9, 0xe7, 0xea, 0x10, 0x0a, 0x0c, 0xf7, 0xef, 0xe6, 0x1c,
  0xea, 0xf0, 0x1a, 0x17, 0xf1, 0xe4, 0xf6, 0x06, 0xea, 0x0c, 0x17, 0x17,
  0xfb, 0x01, 0x08, 0x15, 0x17, 0x07, 0xe4, 0xf0, 0x03, 0xf8, 0xe2, 0x05,
  0x1a, 0xed, 0xec, 0xee, 0x18, 0x0e, 0xfa, 0x12, 0x02, 0x18, 0xd3, 0x0c,
  0x1a, 0x06, 0x04, 0x02, 0xe3, 0xe7, 0x07, 0x1c, 0x13, 0xdb, 0xed, 0x2e,
  0x10, 0xeb, 0x00, 0xe5, 0xf2, 0x0d, 0xed, 0xc8, 0xfc, 0xef, 0x0f, 0xfd,
  0xec, 0x00, 0x0e, 0x1a, 0x18, 0xe9, 0xf8, 0xf5, 0xe4, 0xee, 0xe2, 0xf6,
  0x0e, 0xfc, 0x24, 0xd4, 0x10, 0x01, 0x0f, 0xeb, 0x0f, 0x0c, 0x04, 0x00,
  0xf5, 0xde, 0xf1, 0xeb, 0x0f, 0xf3, 0xd7, 0xe2, 0x15, 0x24, 0x0a, 0x18,
  0x0a, 0xf4, 0xf3, 0xe5, 0x13, 0x15, 0xf6, 0x24, 0xf5, 0x10, 0x01, 0xfc,
  0x0e, 0x17, 0x05, 0xee, 0x00, 0x09, 0x1c, 0xf4, 0xe0, 0x0a, 0xeb, 0x25,
  0xea, 0x18, 0x1a, 0x02, 0x14, 0x12, 0x30, 0xf2, 0xe4, 0x14, 0xf8, 0x06,
  0x09, 0x02, 0x1b, 0x0a, 0x17, 0xf4, 0x1d, 0xe7, 0xf8, 0xdb, 0x18, 0x0b,
  0x04, 0xe0, 0x18, 0x0c, 0xff, 0x10, 0xf7, 0x4d, 0xce, 0x0c, 0x00, 0xe6,
  0xff, 0x11, 0x01, 0xfa, 0xfb, 0xe8, 0xfb, 0x0a, 0xfb, 0x18, 0x11, 0xf1,
  0x0c, 0xed, 0xe2, 0x18, 0xf6, 0xf6, 0xf3, 0x0d, 0xee, 0xff, 0x0c, 0xe4,
  0x09, 0x17, 0xf3, 0x05, 0x0c, 0xe8, 0x1d, 0xf4, 0x13, 0xfd, 0xf9, 0xe1,
  0x16, 0xea, 0x1b, 0xe4, 0xf6, 0xf8, 0x1c, 0x0b, 0xe6, 0xe3, 0xe9, 0xf5,
  0x18, 0x11, 0x11, 0x15, 0x01, 0xfa, 0x19, 0xe5, 0x06, 0xff, 0xf6, 0xeb,
  0xde, 0xeb, 0x11, 0xf8, 0xef, 0x05, 0xf2, 0xde, 0xec, 0xf7, 0xf7, 0x06,
  0x16, 0x13, 0xfb, 0x0a, 0x02, 0xfc, 0x04, 0xdf, 0x1a, 0x1a, 0x08, 0x1b,
  0x01, 0xfd, 0xed, 0xe0, 0x05, 0xf0, 0xde, 0xeb, 0xde, 0xdf, 0x11, 0x14,
  0xf3, 0x06, 0xfc, 0x15, 0xfd, 0x05, 0xf6, 0xe8, 0x01, 0xe6, 0x05, 0x05,
  0xfd, 0x06, 0x1c, 0xec, 0xfe, 0x02, 0x0e, 0xf0, 0xe9, 0x04, 0xe5, 0x0c,
  0xf8, 0xfc, 0xeb, 0x17, 0xf1, 0x06, 0xf5, 0x02, 0xe2, 0x08, 0xf4, 0x12,
  0xfe, 0xe7, 0x09, 0xee, 0x06, 0x06, 0x07, 0x14, 0x12, 0x08, 0xed, 0xfd,
  0x02, 0x03, 0x01, 0xe2, 0x05, 0x17, 0x02, 0x1d, 0xfc, 0xe5, 0xe9, 0xf5,
  0xf0, 0x1c, 0xd8, 0x02, 0x0f, 0xe6, 0xf3, 0xe4, 0xec, 0xff, 0xeb, 0xde,
  0x0d, 0x1a, 0x1a, 0xe8, 0xe2, 0x12, 0xe4, 0xe9, 0x24, 0xf8, 0x0a, 0xe9,
  0xfb, 0x0e, 0x18, 0xeb, 0x17, 0x18, 0xf6, 0x15, 0x17, 0xf7, 0xeb, 0xf2,
  0xe6, 0xe7, 0x0b, 0x13, 0xf7, 0xf3, 0x15, 0x0d, 0xf8, 0x0e, 0x00, 0xe9,
  0x20, 0x27, 0xe9, 0xe7, 0xe6, 0xfb, 0xf6, 0xf4, 0xea, 0x08, 0x24, 0xf8,
  0x0a, 0x19, 0xf9, 0xdc, 0x16, 0xfb, 0x22, 0x05, 0x0b, 0x0f, 0xef, 0xfd,
  0xea, 0xcb, 0xef, 0xdd, 0x00, 0x06, 0x19, 0x15, 0xf5, 0x0b, 0xef, 0x1c,
  0xf1, 0x09, 0xf4, 0xec, 0xf2, 0xec, 0x00, 0x08, 0x70, 0x01, 0x1d, 0xf1,
  0x06, 0x12, 0xfe, 0x01, 0xee, 0xf3, 0xf1, 0xe3, 0xed, 0x0e, 0x0d, 0x05,
  0xed, 0xf3, 0xf3, 0xe3, 0xea, 0xfd, 0xe6, 0x13, 0xf9, 0xf0, 0xf8, 0xf4,
  0xf6, 0x02, 0x19, 0x1c, 0x10, 0x1a, 0xe2, 0xfc, 0x0c, 0xf1, 0x0b, 0x00,
  0x05, 0x00, 0xe4, 0xed, 0x10, 0xf0, 0xf3, 0x08, 0x13, 0xf0, 0xf5, 0xf5,
  0x1a, 0xfd, 0xfb, 0xe3, 0x07, 0x07, 0x04, 0xf2, 0x15, 0x06, 0x0e, 0x11,
  0xfd, 0x14, 0xea, 0x1e, 0x0a, 0x02, 0x06, 0x01, 0xee, 0xf9, 0xe3, 0xec,
  0x06, 0xf1, 0x0a, 0x18, 0x1b, 0x1e, 0xe4, 0x06, 0xea, 0xfd, 0x0e, 0x14,
  0xee, 0x04, 0xfd, 0x0e, 0x0e, 0xe4, 0x16, 0xfd, 0xef, 0xfe, 0xf0, 0xf1,
  0x1a, 0x17, 0x19, 0x06, 0xe1, 0x1e, 0xe9, 0x1c, 0xf8, 0xe8, 0xe4, 0x04,
  0x1b, 0xf2, 0x02, 0xe1, 0x18, 0xff, 0x16, 0xe8, 0x0a, 0x19, 0x04, 0x0d,
  0x05, 0xf3, 0x0e, 0x13, 0xf9, 0x07, 0x1b, 0xf1, 0x1c, 0xfc, 0xf1, 0xfe,
  0x11, 0x09, 0xef, 0xe2, 0xe4, 0x0c, 0x09, 0x11, 0x0c, 0x10, 0x12, 0x12,
  0xee, 0xf1, 0xec, 0x1d, 0x03, 0x00, 0x14, 0xd5, 0x09, 0xfc, 0x02, 0xf4,
  0xf2, 0xf2, 0xfe, 0x13, 0x08, 0x1e, 0xed, 0x09, 0x18, 0xe2, 0xfc, 0x10,
  0x17, 0x09, 0x0d, 0xe2, 0xfa, 0x09, 0x11, 0xf1, 0xd6, 0x07, 0x07, 0xf5,
  0x1b, 0xec, 0x08, 0x13, 0xf3, 0xfe, 0x0d, 0xf0, 0x0e, 0x08, 0xf7, 0x02,
  0xe3, 0xef, 0xed, 0xf1, 0x07, 0xe3, 0x0b, 0xd7, 0x0e, 0x05, 0xe6, 0xf0,
  0x1d, 0x05, 0xe2, 0x1e, 0x0f, 0x13, 0x15, 0x02, 0x20, 0xe5, 0x1a, 0xfc,
  0xf2, 0x24, 0x15, 0xe2, 0xed, 0x03, 0xf2, 0xea, 0x1c, 0xfe, 0x02, 0xc2,
  0x1c, 0x1a, 0xe9, 0x0c, 0xed, 0xdd, 0x19, 0xe2, 0x16, 0xe9, 0x1b, 0x11,
  0x00, 0x0b, 0x04, 0x19, 0x01, 0xf7, 0xfa, 0x0f, 0xf6, 0xea, 0x09, 0x12,
  0x60, 0x12, 0xff, 0xea, 0xea, 0x04, 0x0b, 0x06, 0x0b, 0xee, 0xf4, 0xdb,
  0xff, 0xea, 0xed, 0xec, 0xe0, 0xeb, 0x1f, 0x04, 0x0f, 0xd7, 0xeb, 0xe0,
  0x19, 0xeb, 0x03, 0xd3, 0x13, 0x1b, 0xf1, 0x0f, 0xdc, 0x0d, 0xe5, 0xef,
  0xed, 0x19, 0xfb, 0x15, 0x12, 0xe7, 0xd0, 0x1d, 0xfb, 0x00, 0xf6, 0x02,
  0x07, 0x1a, 0xe1, 0xf9, 0xd8, 0x15, 0xfa, 0x02, 0xdf, 0x05, 0x0a, 0xe6,
  0x0c, 0xeb, 0xf0, 0xe4, 0xf8, 0xf9, 0xfd, 0xee, 0xf5, 0xf4, 0xf0, 0x0c,
  0xcd, 0xd8, 0x01, 0x1c, 0x02, 0x0d, 0xf0, 0x0c, 0x17, 0x15, 0x0c, 0xf8,
  0x19, 0x0a, 0xef, 0x19, 0xe7, 0x21, 0x02, 0x11, 0x14, 0x07, 0x3d, 0xef,
  0x1b, 0x02, 0xff, 0xd4, 0xf4, 0x1b, 0xe8, 0xff, 0xfe, 0x04, 0xd1, 0x04,
  0xff, 0x17, 0xeb, 0xf7, 0x0f, 0xf5, 0xfb, 0xe2, 0x06, 0xf7, 0x17, 0x00,
  0xf2, 0x07, 0xee, 0xf0, 0x06, 0x0a, 0xf3, 0x09, 0xf1, 0x16, 0xec, 0xe1,
  0x01, 0x08, 0x00, 0x01, 0xf5, 0xfb, 0xea, 0x19, 0x1f, 0xdb, 0xff, 0xf8,
  0xfd, 0xfe, 0x0b, 0x13, 0xfb, 0xd1, 0xdb, 0xde, 0x21, 0xef, 0x0d, 0xcd,
  0x28, 0x01, 0xf7, 0x06, 0xd9, 0x0c, 0xe7, 0xf7, 0xff, 0xf0, 0xf5, 0xf3,
  0xfd, 0xde, 0xe1, 0x26, 0xf6, 0xe9, 0x18, 0x08, 0xe1, 0xfc, 0x00, 0x10,
  0xce, 0x26, 0x01, 0x16, 0xd6, 0x15, 0xf0, 0xd8, 0x08, 0x03, 0xe3, 0xe2,
  0xfa, 0xdd, 0x05, 0xe4, 0x0b, 0x03, 0x0c, 0xee, 0xfc, 0xcf, 0xff, 0x18,
  0x1b, 0xe4, 0xf2, 0xf5, 0x1b, 0x08, 0x26, 0xfc, 0x33, 0x00, 0xfc, 0x13,
  0x1b, 0x2d, 0x01, 0x1e, 0x1b, 0xfa, 0x4b, 0x15, 0x12, 0xf1, 0xfd, 0xe1,
  0xf8, 0x3e, 0xdd, 0x40, 0xff, 0x02, 0xe8, 0xd7, 0xfc, 0x1b, 0xfd, 0xd9,
  0xf1, 0x19, 0x27, 0xf7, 0xf0, 0x17, 0x13, 0x0f, 0x0c, 0x1b, 0xda, 0x0b,
  0xf6, 0x0b, 0x20, 0x0c, 0xdf, 0xe3, 0xe3, 0xdd, 0xe3, 0x13, 0x0f, 0x06,
  0xf6, 0x02, 0xe7, 0x20, 0xf6, 0x0a, 0xf0, 0x09, 0x0c, 0x15, 0x03, 0x02,
  0xe6, 0x03, 0xfd, 0x15, 0xfd, 0x1a, 0x17, 0x09, 0x1c, 0xfd, 0x1a, 0x1e,
  0x10, 0x04, 0x04, 0x00, 0x0a, 0xf8, 0x1f, 0x24, 0x02, 0x1a, 0x10, 0xfb,
  0x06, 0xed, 0x04, 0xf9, 0xe6, 0x16, 0x14, 0xf1, 0x0d, 0xed, 0xf7, 0x1e,
  0xf0, 0x07, 0x05, 0xdb, 0x12, 0xd8, 0x04, 0xed, 0x19, 0x14, 0xfd, 0xfb,
  0x1c, 0xe2, 0xeb, 0x15, 0x11, 0xe3, 0x03, 0xf9, 0xfe, 0x00, 0xdd, 0x0c,
  0x1b, 0xfe, 0xf6, 0xf3, 0xdf, 0xce, 0xec, 0xfc, 0xfc, 0xf7, 0x17, 0xfe,
  0xef, 0xf4, 0xe1, 0xf3, 0x0a, 0xe5, 0x18, 0x00, 0x19, 0x23, 0xd8, 0x38,
  0x09, 0x1c, 0xf8, 0xe9, 0xee, 0x17, 0xe2, 0xeb, 0xf7, 0xf4, 0x04, 0x0e,
  0xed, 0x0e, 0x1d, 0x15, 0x11, 0x19, 0xf1, 0xe9, 0x02, 0xf4, 0xff, 0xf4,
  0xbd, 0xe3, 0xf2, 0xfc, 0x09, 0xed, 0x10, 0x07, 0xef, 0xdd, 0xe2, 0x17,
  0x0e, 0xfd, 0xf3, 0x1c, 0x11, 0xfe, 0xfb, 0x03, 0x09, 0x11, 0x1b, 0x13,
  0xea, 0xf5, 0xfd, 0xe8, 0xf7, 0xef, 0xe7, 0x10, 0x05, 0xe6, 0xfc, 0x20,
  0x02, 0xfb, 0x06, 0x0b, 0xfc, 0xea, 0x13, 0xe5, 0x1b, 0x17, 0xfb, 0x0b,
  0xf6, 0x04, 0xe8, 0x01, 0x05, 0xf7, 0xd9, 0x17, 0x1b, 0xe2, 0x0d, 0xfd,
  0xf4, 0xf7, 0x20, 0x0c, 0x11, 0x1c, 0xf0, 0x09, 0xdf, 0x08, 0x0a, 0x1c,
  0x01, 0xd1, 0x15, 0xd8, 0x13, 0xee, 0xde, 0x1d, 0xe9, 0xe5, 0x00, 0xe6,
  0x1e, 0xff, 0xdc, 0xeb, 0x22, 0xd0, 0x02, 0xf4, 0xeb, 0x14, 0x3c, 0xe7,
  0xdd, 0x1e, 0x0a, 0xdd, 0x14, 0xf9, 0x28, 0xe1, 0x04, 0xfa, 0xec, 0x0f,
  0xf0, 0xc0, 0x0c, 0xf6, 0xf2, 0xe5, 0xe5, 0x1b, 0x12, 0xf8, 0xed, 0x11,
  0xf2, 0x08, 0xf4, 0xe3, 0x0f, 0x06, 0x13, 0xe4, 0x6c, 0xe4, 0xf5, 0x07,
  0xfe, 0x17, 0x17, 0xe8, 0xf5, 0x0d, 0x06, 0x08, 0xfe, 0xee, 0x07, 0xea,
  0xe2, 0x00, 0x14, 0x0f, 0xed, 0xf1, 0xf9, 0xea, 0xe8, 0x0e, 0x18, 0x02,
  0x0f, 0x1e, 0x0f, 0xfa, 0xe1, 0xf1, 0xf9, 0x19, 0x0c, 0xf2, 0x07, 0x26,
  0x00, 0x26, 0x09, 0xfc, 0x1b, 0x21, 0x18, 0xf4, 0xf3, 0x06, 0xe2, 0xf8,
  0x24, 0x06, 0xfd, 0x1b, 0xf9, 0xfb, 0x17, 0x0d, 0x0c, 0xea, 0xe7, 0x0f,
  0xec, 0x14, 0xe2, 0xec, 0xfb, 0x07, 0x0e, 0x17, 0x16, 0x03, 0xf1, 0x13,
  0x08, 0x02, 0xfa, 0xe4, 0x09, 0xe8, 0x08, 0x06, 0xd6, 0xcd, 0x01, 0x05,
  0x13, 0x2c, 0x17, 0xfa, 0x1b, 0x07, 0xec, 0x1b, 0x21, 0x0c, 0x1f, 0x16,
  0xf9, 0x2d, 0xff, 0x1e, 0x00, 0xe3, 0x00, 0xe9, 0xfa, 0x2c, 0xfa, 0x1a,
  0xfc, 0xe1, 0x10, 0x07, 0x07, 0xf1, 0x17, 0x04, 0x01, 0xf9, 0x1e, 0xe9,
  0xe8, 0x11, 0xeb, 0xe6, 0x9e, 0x0f, 0x18, 0xec, 0xf1, 0xe1, 0x17, 0x06,
  0xea, 0x0c, 0xe3, 0x0b, 0xf7, 0xe4, 0x10, 0xe6, 0x0c, 0x05, 0x0d, 0x1a,
  0xfb, 0xe9, 0xf3, 0xe8, 0x18, 0x20, 0xf0, 0x1e, 0xf6, 0xf9, 0x19, 0x03,
  0x16, 0xf5, 0x15, 0x01, 0x08, 0x15, 0x15, 0x24, 0x13, 0x10, 0xf0, 0x15,
  0xef, 0xea, 0x1d, 0x0e, 0x09, 0x02, 0x0e, 0xf1, 0xf1, 0x20, 0xf8, 0x1a,
  0xe9, 0x07, 0xf3, 0xfb, 0x06, 0x14, 0x0f, 0xf8, 0x17, 0x13, 0xdf, 0x0f,
  0x0c, 0xe1, 0x1a, 0x06, 0x0c, 0x0e, 0xf2, 0x1e, 0x01, 0x05, 0x16, 0xf5,
  0x17, 0xf0, 0x05, 0x17, 0xc6, 0xdb, 0xd5, 0x02, 0xe3, 0xf8, 0x05, 0xe7,
  0xe3, 0xe1, 0xcf, 0xfd, 0x0c, 0x0d, 0x0b, 0x0f, 0x0d, 0xfd, 0xff, 0x17,
  0x0c, 0xf8, 0x04, 0x16, 0xe8, 0x39, 0xfc, 0x14, 0x11, 0x0f, 0x15, 0xf4,
  0xf9, 0x19, 0xfe, 0x12, 0x1f, 0xf2, 0x16, 0xec, 0xf1, 0x17, 0xfa, 0xf1,
  0x95, 0x09, 0x03, 0x0d, 0x11, 0x0c, 0x1f, 0xfd, 0xf0, 0xe9, 0xfb, 0x0a,
  0xea, 0xf4, 0x05, 0xf9, 0xed, 0xed, 0x18, 0xe5, 0x10, 0xf6, 0x01, 0x02,
  0xf2, 0xf3, 0xec, 0xee, 0x0e, 0xea, 0xee, 0x1e, 0x0d, 0x15, 0x1f, 0xe2,
  0x04, 0x0c, 0xdc, 0xf1, 0xea, 0xd2, 0x0f, 0x00, 0x09, 0x04, 0xe7, 0x02,
  0x1f, 0x09, 0xe6, 0x0f, 0x0b, 0x14, 0xe1, 0x0c, 0xe1, 0x19, 0x07, 0xf2,
  0x00, 0xee, 0x0a, 0xec, 0x02, 0x0d, 0xf6, 0xe2, 0x1d, 0xf1, 0xf6, 0x13,
  0x0a, 0xfc, 0xe7, 0x14, 0x03, 0xe9, 0xf0, 0xe5, 0x0b, 0xe2, 0xe6, 0xdd,
  0x30, 0x0c, 0x06, 0x1f, 0xe1, 0x17, 0xf0, 0x16, 0xf9, 0x25, 0x1f, 0xfe,
  0xff, 0xf2, 0x0a, 0xe7, 0xf7, 0x2f, 0xdd, 0x20, 0xf8, 0xf1, 0xee, 0x0c,
  0xf8, 0x1c, 0x14, 0xf4, 0xfe, 0xe9, 0x07, 0x04, 0x1a, 0xfc, 0x1f, 0x16,
  0xe1, 0xe1, 0xe9, 0x12, 0xf2, 0x0d, 0x14, 0xfb, 0xfc, 0xfb, 0xfd, 0xfb,
  0xf6, 0x16, 0xff, 0xec, 0x10, 0x05, 0x0d, 0xe9, 0x96, 0xff, 0xff, 0xff,
  0x04, 0x00, 0x00, 0x00, 0x40, 0x00, 0x00, 0x00, 0x96, 0x0b, 0x00, 0x00,
  0xd0, 0x06, 0x00, 0x00, 0x20, 0x12, 0x00, 0x00, 0x18, 0xff, 0xff, 0xff,
  0xb6, 0x0a, 0x00, 0x00, 0x4b, 0xfc, 0xff, 0xff, 0xe5, 0xfb, 0xff, 0xff,
  0xb5, 0xfe, 0xff, 0xff, 0xa6, 0xf8, 0xff, 0xff, 0x0b, 0x12, 0x00, 0x00,
  0x53, 0x16, 0x00, 0x00, 0xa4, 0x05, 0x00, 0x00, 0xe7, 0xf5, 0xff, 0xff,
  0x7a, 0x09, 0x00, 0x00, 0x33, 0x06, 0x00, 0x00, 0x86, 0x12, 0x00, 0x00,
  0xe2, 0xff, 0xff, 0xff, 0x04, 0x00, 0x00, 0x00, 0x10, 0x00, 0x00, 0x00,
  0xd7, 0xc0, 0x7f, 0x38, 0xc3, 0x4c, 0x67, 0x02, 0x48, 0x43, 0x54, 0x9c,
  0x22, 0xaf, 0xad, 0x77, 0x00, 0x00, 0x06, 0x00, 0x08, 0x00, 0x04, 0x00,
  0x06, 0x00, 0x00, 0x00, 0x04, 0x00, 0x00, 0x00, 0x04, 0x00, 0x00, 0x00,
  0xa9, 0xfd, 0xff, 0xff, 0xdc, 0xf4, 0xff, 0xff, 0xe0, 0xf4, 0xff, 0xff,
  0x0f, 0x00, 0x00, 0x00, 0x4d, 0x4c, 0x49, 0x52, 0x20, 0x43, 0x6f, 0x6e,
  0x76, 0x65, 0x72, 0x74, 0x65, 0x64, 0x2e, 0x00, 0x01, 0x00, 0x00, 0x00,
  0x14, 0x00, 0x00, 0x00, 0x00, 0x00, 0x0e, 0x00, 0x18, 0x00, 0x14, 0x00,
  0x10, 0x00, 0x0c, 0x00, 0x08, 0x00, 0x04, 0x00, 0x0e, 0x00, 0x00, 0x00,
  0x14, 0x00, 0x00, 0x00, 0x1c, 0x00, 0x00, 0x00, 0xb8, 0x01, 0x00, 0x00,
  0xbc, 0x01, 0x00, 0x00, 0xc0, 0x01, 0x00, 0x00, 0x04, 0x00, 0x00, 0x00,
  0x6d, 0x61, 0x69, 0x6e, 0x00, 0x00, 0x00, 0x00, 0x07, 0x00, 0x00, 0x00,
  0x80, 0x01, 0x00, 0x00, 0x30, 0x01, 0x00, 0x00, 0xe4, 0x00, 0x00, 0x00,
  0xa8, 0x00, 0x00, 0x00, 0x6c, 0x00, 0x00, 0x00, 0x34, 0x00, 0x00, 0x00,
  0x10, 0x00, 0x00, 0x00, 0x00, 0x00, 0x0a, 0x00, 0x10, 0x00, 0x0c, 0x00,
  0x08, 0x00, 0x04, 0x00, 0x0a, 0x00, 0x00, 0x00, 0x0c, 0x00, 0x00, 0x00,
  0x10, 0x00, 0x00, 0x00, 0x02, 0x00, 0x00, 0x00, 0x01, 0x00, 0x00, 0x00,
  0x11, 0x00, 0x00, 0x00, 0x01, 0x00, 0x00, 0x00, 0x10, 0x00, 0x00, 0x00,
  0x22, 0xff, 0xff, 0xff, 0x14, 0x00, 0x00, 0x00, 0x00, 0x00, 0x00, 0x08,
  0x10, 0x00, 0x00, 0x00, 0x14, 0x00, 0x00, 0x00, 0x01, 0x00, 0x00, 0x00,
  0x98, 0xf5, 0xff, 0xff, 0x01, 0x00, 0x00, 0x00, 0x10, 0x00, 0x00, 0x00,
  0x03, 0x00, 0x00, 0x00, 0x0f, 0x00, 0x00, 0x00, 0x02, 0x00, 0x00, 0x00,
  0x01, 0x00, 0x00, 0x00, 0x56, 0xff, 0xff, 0xff, 0x14, 0x00, 0x00, 0x00,
  0x00, 0x00, 0x00, 0x08, 0x14, 0x00, 0x00, 0x00, 0x18, 0x00, 0x00, 0x00,
  0x01, 0x00, 0x00, 0x00, 0x46, 0xff, 0xff, 0xff, 0x00, 0x00, 0x00, 0x01,
  0x01, 0x00, 0x00, 0x00, 0x0f, 0x00, 0x00, 0x00, 0x03, 0x00, 0x00, 0x00,
  0x0e, 0x00, 0x00, 0x00, 0x04, 0x00, 0x00, 0x00, 0x03, 0x00, 0x00, 0x00,
  0x8e, 0xff, 0xff, 0xff, 0x14, 0x00, 0x00, 0x00, 0x00, 0x00, 0x00, 0x08,
  0x14, 0x00, 0x00, 0x00, 0x18, 0x00, 0x00, 0x00, 0x01, 0x00, 0x00, 0x00,
  0x7e, 0xff, 0xff, 0xff, 0x00, 0x00, 0x00, 0x01, 0x01, 0x00, 0x00, 0x00,
  0x0e, 0x00, 0x00, 0x00, 0x03, 0x00, 0x00, 0x00, 0x0d, 0x00, 0x00, 0x00,
  0x06, 0x00, 0x00, 0x00, 0x05, 0x00, 0x00, 0x00, 0xc6, 0xff, 0xff, 0xff,
  0x14, 0x00, 0x00, 0x00, 0x00, 0x00, 0x00, 0x08, 0x14, 0x00, 0x00, 0x00,
  0x18, 0x00, 0x00, 0x00, 0x01, 0x00, 0x00, 0x00, 0xb6, 0xff, 0xff, 0xff,
  0x00, 0x00, 0x00, 0x01, 0x01, 0x00, 0x00, 0x00, 0x0d, 0x00, 0x00, 0x00,
  0x03, 0x00, 0x00, 0x00, 0x0c, 0x00, 0x00, 0x00, 0x08, 0x00, 0x00, 0x00,
  0x07, 0x00, 0x00, 0x00, 0x00, 0x00, 0x0e, 0x00, 0x1a, 0x00, 0x14, 0x00,
  0x10, 0x00, 0x0c, 0x00, 0x0b, 0x00, 0x04, 0x00, 0x0e, 0x00, 0x00, 0x00,
  0x1c, 0x00, 0x00, 0x00, 0x00, 0x00, 0x00, 0x08, 0x1c, 0x00, 0x00, 0x00,
  0x20, 0x00, 0x00, 0x00, 0x01, 0x00, 0x00, 0x00, 0x00, 0x00, 0x06, 0x00,
  0x08, 0x00, 0x07, 0x00, 0x06, 0x00, 0x00, 0x00, 0x00, 0x00, 0x00, 0x01,
  0x01, 0x00, 0x00, 0x00, 0x0c, 0x00, 0x00, 0x00, 0x03, 0x00, 0x00, 0x00,
  0x0b, 0x00, 0x00, 0x00, 0x0a, 0x00, 0x00, 0x00, 0x09, 0x00, 0x00, 0x00,
  0x00, 0x00, 0x0a, 0x00, 0x0c, 0x00, 0x00, 0x00, 0x08, 0x00, 0x04, 0x00,
  0x0a, 0x00, 0x00, 0x00, 0x08, 0x00, 0x00, 0x00, 0x0c, 0x00, 0x00, 0x00,
  0x01, 0x00, 0x00, 0x00, 0x0b, 0x00, 0x00, 0x00, 0x01, 0x00, 0x00, 0x00,
  0x00, 0x00, 0x00, 0x00, 0x01, 0x00, 0x00, 0x00, 0x11, 0x00, 0x00, 0x00,
  0x01, 0x00, 0x00, 0x00, 0x00, 0x00, 0x00, 0x00, 0x12, 0x00, 0x00, 0x00,
  0xf0, 0x08, 0x00, 0x00, 0x50, 0x08, 0x00, 0x00, 0xc8, 0x07, 0x00, 0x00,
  0x4c, 0x07, 0x00, 0x00, 0xe0, 0x06, 0x00, 0x00, 0x64, 0x06, 0x00, 0x00,
  0xf8, 0x05, 0x00, 0x00, 0x7c, 0x05, 0x00, 0x00, 0x10, 0x05, 0x00, 0x00,
  0x9c, 0x04, 0x00, 0x00, 0x30, 0x04, 0x00, 0x00, 0xbc, 0x03, 0x00, 0x00,
  0xf8, 0x02, 0x00, 0x00, 0x44, 0x02, 0x00, 0x00, 0x90, 0x01, 0x00, 0x00,
  0xdc, 0x00, 0x00, 0x00, 0x60, 0x00, 0x00, 0x00, 0x04, 0x00, 0x00, 0x00,
  0x6e, 0xf7, 0xff, 0xff, 0x00, 0x00, 0x00, 0x01, 0x14, 0x00, 0x00, 0x00,
  0x1c, 0x00, 0x00, 0x00, 0x1c, 0x00, 0x00, 0x00, 0x12, 0x00, 0x00, 0x00,
  0x34, 0x00, 0x00, 0x00, 0x02, 0x00, 0x00, 0x00, 0xff, 0xff, 0xff, 0xff,
  0x01, 0x00, 0x00, 0x00, 0x58, 0xf7, 0xff, 0xff, 0x19, 0x00, 0x00, 0x00,
  0x53, 0x74, 0x61, 0x74, 0x65, 0x66, 0x75, 0x6c, 0x50, 0x61, 0x72, 0x74,
  0x69, 0x74, 0x69, 0x6f, 0x6e, 0x65, 0x64, 0x43, 0x61, 0x6c, 0x6c, 0x3a,
  0x30, 0x00, 0x00, 0x00, 0x02, 0x00, 0x00, 0x00, 0x01, 0x00, 0x00, 0x00,
  0x01, 0x00, 0x00, 0x00, 0xce, 0xfc, 0xff, 0xff, 0x00, 0x00, 0x00, 0x01,
  0x18, 0x00, 0x00, 0x00, 0x20, 0x00, 0x00, 0x00, 0x3c, 0x00, 0x00, 0x00,
  0x11, 0x00, 0x00, 0x00, 0x00, 0x00, 0x00, 0x09, 0x50, 0x00, 0x00, 0x00,
  0x02, 0x00, 0x00, 0x00, 0xff, 0xff, 0xff, 0xff, 0x01, 0x00, 0x00, 0x00,
  0x5c, 0xf8, 0xff, 0xff, 0x08, 0x00, 0x00, 0x00, 0x10, 0x00, 0x00, 0x00,
  0x01, 0x00, 0x00, 0x00, 0x01, 0x00, 0x00, 0x00, 0x00, 0x00, 0x00, 0x00,
  0x01, 0x00, 0x00, 0x00, 0x0f, 0x95, 0x02, 0x3c, 0x1a, 0x00, 0x00, 0x00,
  0x53, 0x74, 0x61, 0x74, 0x65, 0x66, 0x75, 0x6c, 0x50, 0x61, 0x72, 0x74,
  0x69, 0x74, 0x69, 0x6f, 0x6e, 0x65, 0x64, 0x43, 0x61, 0x6c, 0x6c, 0x3a,
  0x30, 0x31, 0x00, 0x00, 0x02, 0x00, 0x00, 0x00, 0x01, 0x00, 0x00, 0x00,
  0x01, 0x00, 0x00, 0x00, 0x46, 0xfd, 0xff, 0xff, 0x00, 0x00, 0x00, 0x01,
  0x18, 0x00, 0x00, 0x00, 0x20, 0x00, 0x00, 0x00, 0x40, 0x00, 0x00, 0x00,
  0x10, 0x00, 0x00, 0x00, 0x00, 0x00, 0x00, 0x09, 0x88, 0x00, 0x00, 0x00,
  0x02, 0x00, 0x00, 0x00, 0xff, 0xff, 0xff, 0xff, 0x10, 0x00, 0x00, 0x00,
  0xd4, 0xf8, 0xff, 0xff, 0x08, 0x00, 0x00, 0x00, 0x14, 0x00, 0x00, 0x00,
  0x01, 0x00, 0x00, 0x00, 0x80, 0xff, 0xff, 0xff, 0xff, 0xff, 0xff, 0xff,
  0x00, 0x00, 0x00, 0x00, 0x01, 0x00, 0x00, 0x00, 0x91, 0xcc, 0xb9, 0x3b,
  0x4c, 0x00, 0x00, 0x00, 0x73, 0x65, 0x71, 0x75, 0x65, 0x6e, 0x74, 0x69,
  0x61, 0x6c, 0x2f, 0x64, 0x65, 0x6e, 0x73, 0x65, 0x5f, 0x33, 0x2f, 0x4d,
  0x61, 0x74, 0x4d, 0x75, 0x6c, 0x3b, 0x73, 0x65, 0x71, 0x75, 0x65, 0x6e,
  0x74, 0x69, 0x61, 0x6c, 0x2f, 0x64, 0x65, 0x6e, 0x73, 0x65, 0x5f, 0x33,
  0x2f, 0x52, 0x65, 0x6c, 0x75, 0x3b, 0x73, 0x65, 0x71, 0x75, 0x65, 0x6e,
  0x74, 0x69, 0x61, 0x6c, 0x2f, 0x64, 0x65, 0x6e, 0x73, 0x65, 0x5f, 0x33,
  0x2f, 0x42, 0x69, 0x61, 0x73, 0x41, 0x64, 0x64, 0x00, 0x00, 0x00, 0x00,
  0x02, 0x00, 0x00, 0x00, 0x01, 0x00, 0x00, 0x00, 0x10, 0x00, 0x00, 0x00,
  0xf6, 0xfd, 0xff, 0xff, 0x00, 0x00, 0x00, 0x01, 0x18, 0x00, 0x00, 0x00,
  0x20, 0x00, 0x00, 0x00, 0x40, 0x00, 0x00, 0x00, 0x0f, 0x00, 0x00, 0x00,
  0x00, 0x00, 0x00, 0x09, 0x88, 0x00, 0x00, 0x00, 0x02, 0x00, 0x00, 0x00,
  0xff, 0xff, 0xff, 0xff, 0x80, 0x00, 0x00, 0x00, 0x84, 0xf9, 0xff, 0xff,
  0x08, 0x00, 0x00, 0x00, 0x14, 0x00, 0x00, 0x00, 0x01, 0x00, 0x00, 0x00,
  0x80, 0xff, 0xff, 0xff, 0xff, 0xff, 0xff, 0xff, 0x00, 0x00, 0x00, 0x00,
  0x01, 0x00, 0x00, 0x00, 0xe9, 0xfb, 0x5a, 0x3b, 0x4c, 0x00, 0x00, 0x00,
  0x73, 0x65, 0x71, 0x75, 0x65, 0x6e, 0x74, 0x69, 0x61, 0x6c, 0x2f, 0x64,
  0x65, 0x6e, 0x73, 0x65, 0x5f, 0x32, 0x2f, 0x4d, 0x61, 0x74, 0x4d, 0x75,
  0x6c, 0x3b, 0x73, 0x65, 0x71, 0x75, 0x65, 0x6e, 0x74, 0x69, 0x61, 0x6c,
  0x2f, 0x64, 0x65, 0x6e, 0x73, 0x65, 0x5f, 0x32, 0x2f, 0x52, 0x65, 0x6c,
  0x75, 0x3b, 0x73, 0x65, 0x71, 0x75, 0x65, 0x6e, 0x74, 0x69, 0x61, 0x6c,
  0x2f, 0x64, 0x65, 0x6e, 0x73, 0x65, 0x5f, 0x32, 0x2f, 0x42, 0x69, 0x61,
  0x73, 0x41, 0x64, 0x64, 0x00, 0x00, 0x00, 0x00, 0x02, 0x00, 0x00, 0x00,
  0x01, 0x00, 0x00, 0x00, 0x80, 0x00, 0x00, 0x00, 0xa6, 0xfe, 0xff, 0xff,
  0x00, 0x00, 0x00, 0x01, 0x18, 0x00, 0x00, 0x00, 0x20, 0x00, 0x00, 0x00,
  0x40, 0x00, 0x00, 0x00, 0x0e, 0x00, 0x00, 0x00, 0x00, 0x00, 0x00, 0x09,
  0x88, 0x00, 0x00, 0x00, 0x02, 0x00, 0x00, 0x00, 0xff, 0xff, 0xff, 0xff,
  0x10, 0x00, 0x00, 0x00, 0x34, 0xfa, 0xff, 0xff, 0x08, 0x00, 0x00, 0x00,
  0x14, 0x00, 0x00, 0x00, 0x01, 0x00, 0x00, 0x00, 0x80, 0xff, 0xff, 0xff,
  0xff, 0xff, 0xff, 0xff, 0x00, 0x00, 0x00, 0x00, 0x01, 0x00, 0x00, 0x00,
  0xa0, 0xe0, 0xd7, 0x3b, 0x4c, 0x00, 0x00, 0x00, 0x73, 0x65, 0x71, 0x75,
  0x65, 0x6e, 0x74, 0x69, 0x61, 0x6c, 0x2f, 0x64, 0x65, 0x6e, 0x73, 0x65,
  0x5f, 0x31, 0x2f, 0x4d, 0x61, 0x74, 0x4d, 0x75, 0x6c, 0x3b, 0x73, 0x65,
  0x71, 0x75, 0x65, 0x6e, 0x74, 0x69, 0x61, 0x6c, 0x2f, 0x64, 0x65, 0x6e,
  0x73, 0x65, 0x5f, 0x31, 0x2f, 0x52, 0x65, 0x6c, 0x75, 0x3b, 0x73, 0x65,
  0x71, 0x75, 0x65, 0x6e, 0x74, 0x69, 0x61, 0x6c, 0x2f, 0x64, 0x65, 0x6e,
  0x73, 0x65, 0x5f, 0x31, 0x2f, 0x42, 0x69, 0x61, 0x73, 0x41, 0x64, 0x64,
  0x00, 0x00, 0x00, 0x00, 0x02, 0x00, 0x00, 0x00, 0x01, 0x00, 0x00, 0x00,
  0x10, 0x00, 0x00, 0x00, 0x56, 0xff, 0xff, 0xff, 0x00, 0x00, 0x00, 0x01,
  0x18, 0x00, 0x00, 0x00, 0x20, 0x00, 0x00, 0x00, 0x40, 0x00, 0x00, 0x00,
  0x0d, 0x00, 0x00, 0x00, 0x00, 0x00, 0x00, 0x09, 0x80, 0x00, 0x00, 0x00,
  0x02, 0x00, 0x00, 0x00, 0xff, 0xff, 0xff, 0xff, 0x10, 0x00, 0x00, 0x00,
  0xe4, 0xfa, 0xff, 0xff, 0x08, 0x00, 0x00, 0x00, 0x14, 0x00, 0x00, 0x00,
  0x01, 0x00, 0x00, 0x00, 0x80, 0xff, 0xff, 0xff, 0xff, 0xff, 0xff, 0xff,
  0x00, 0x00, 0x00, 0x00, 0x01, 0x00, 0x00, 0x00, 0xc8, 0x91, 0x3a, 0x3c,
  0x46, 0x00, 0x00, 0x00, 0x73, 0x65, 0x71, 0x75, 0x65, 0x6e, 0x74, 0x69,
  0x61, 0x6c, 0x2f, 0x64, 0x65, 0x6e, 0x73, 0x65, 0x2f, 0x4d, 0x61, 0x74,
  0x4d, 0x75, 0x6c, 0x3b, 0x73, 0x65, 0x71, 0x75, 0x65, 0x6e, 0x74, 0x69,
  0x61, 0x6c, 0x2f, 0x64, 0x65, 0x6e, 0x73, 0x65, 0x2f, 0x52, 0x65, 0x6c,
  0x75, 0x3b, 0x73, 0x65, 0x71, 0x75, 0x65, 0x6e, 0x74, 0x69, 0x61, 0x6c,
  0x2f, 0x64, 0x65, 0x6e, 0x73, 0x65, 0x2f, 0x42, 0x69, 0x61, 0x73, 0x41,
  0x64, 0x64, 0x00, 0x00, 0x02, 0x00, 0x00, 0x00, 0x01, 0x00, 0x00, 0x00,
  0x10, 0x00, 0x00, 0x00, 0x00, 0x00, 0x16, 0x00, 0x20, 0x00, 0x1c, 0x00,
  0x1b, 0x00, 0x14, 0x00, 0x10, 0x00, 0x0c, 0x00, 0x00, 0x00, 0x00, 0x00,
  0x08, 0x00, 0x07, 0x00, 0x16, 0x00, 0x00, 0x00, 0x00, 0x00, 0x00, 0x01,
  0x18, 0x00, 0x00, 0x00, 0x20, 0x00, 0x00, 0x00, 0x40, 0x00, 0x00, 0x00,
  0x0c, 0x00, 0x00, 0x00, 0x00, 0x00, 0x00, 0x09, 0x48, 0x00, 0x00, 0x00,
  0x02, 0x00, 0x00, 0x00, 0xff, 0xff, 0xff, 0xff, 0x01, 0x00, 0x00, 0x00,
  0xa4, 0xfb, 0xff, 0xff, 0x08, 0x00, 0x00, 0x00, 0x14, 0x00, 0x00, 0x00,
  0x01, 0x00, 0x00, 0x00, 0x80, 0xff, 0xff, 0xff, 0xff, 0xff, 0xff, 0xff,
  0x00, 0x00, 0x00, 0x00, 0x01, 0x00, 0x00, 0x00, 0x76, 0x4b, 0xc9, 0x3c,
  0x0c, 0x00, 0x00, 0x00, 0x74, 0x66, 0x6c, 0x2e, 0x71, 0x75, 0x61, 0x6e,
  0x74, 0x69, 0x7a, 0x65, 0x00, 0x00, 0x00, 0x00, 0x02, 0x00, 0x00, 0x00,
  0x01, 0x00, 0x00, 0x00, 0x01, 0x00, 0x00, 0x00, 0x1a, 0xfc, 0xff, 0xff,
  0x00, 0x00, 0x00, 0x01, 0x14, 0x00, 0x00, 0x00, 0x34, 0x00, 0x00, 0x00,
  0x0b, 0x00, 0x00, 0x00, 0x00, 0x00, 0x00, 0x09, 0x44, 0x00, 0x00, 0x00,
  0x04, 0xfc, 0xff, 0xff, 0x08, 0x00, 0x00, 0x00, 0x14, 0x00, 0x00, 0x00,
  0x01, 0x00, 0x00, 0x00, 0x00, 0x00, 0x00, 0x00, 0x00, 0x00, 0x00, 0x00,
  0x00, 0x00, 0x00, 0x00, 0x01, 0x00, 0x00, 0x00, 0xfd, 0xc8, 0x84, 0x3b,
  0x17, 0x00, 0x00, 0x00, 0x73, 0x65, 0x71, 0x75, 0x65, 0x6e, 0x74, 0x69,
  0x61, 0x6c, 0x2f, 0x64, 0x65, 0x6e, 0x73, 0x65, 0x2f, 0x4d, 0x61, 0x74,
  0x4d, 0x75, 0x6c, 0x00, 0x02, 0x00, 0x00, 0x00, 0x10, 0x00, 0x00, 0x00,
  0x01, 0x00, 0x00, 0x00, 0x82, 0xfc, 0xff, 0xff, 0x00, 0x00, 0x00, 0x01,
  0x14, 0x00, 0x00, 0x00, 0x30, 0x00, 0x00, 0x00, 0x0a, 0x00, 0x00, 0x00,
  0x00, 0x00, 0x00, 0x02, 0x50, 0x00, 0x00, 0x00, 0x6c, 0xfc, 0xff, 0xff,
  0x08, 0x00, 0x00, 0x00, 0x10, 0x00, 0x00, 0x00, 0x01, 0x00, 0x00, 0x00,
  0x00, 0x00, 0x00, 0x00, 0x00, 0x00, 0x00, 0x00, 0x01, 0x00, 0x00, 0x00,
  0xe5, 0xd1, 0xd0, 0x38, 0x27, 0x00, 0x00, 0x00, 0x73, 0x65, 0x71, 0x75,
  0x65, 0x6e, 0x74, 0x69, 0x61, 0x6c, 0x2f, 0x64, 0x65, 0x6e, 0x73, 0x65,
  0x2f, 0x42, 0x69, 0x61, 0x73, 0x41, 0x64, 0x64, 0x2f, 0x52, 0x65, 0x61,
  0x64, 0x56, 0x61, 0x72, 0x69, 0x61, 0x62, 0x6c, 0x65, 0x4f, 0x70, 0x00,
  0x01, 0x00, 0x00, 0x00, 0x10, 0x00, 0x00, 0x00, 0xf2, 0xfc, 0xff, 0xff,
  0x00, 0x00, 0x00, 0x01, 0x14, 0x00, 0x00, 0x00, 0x30, 0x00, 0x00, 0x00,
  0x09, 0x00, 0x00, 0x00, 0x00, 0x00, 0x00, 0x09, 0x44, 0x00, 0x00, 0x00,
  0xdc, 0xfc, 0xff, 0xff, 0x08, 0x00, 0x00, 0x00, 0x10, 0x00, 0x00, 0x00,
  0x01, 0x00, 0x00, 0x00, 0x00, 0x00, 0x00, 0x00, 0x00, 0x00, 0x00, 0x00,
  0x01, 0x00, 0x00, 0x00, 0x07, 0x5b, 0xa0, 0x3b, 0x19, 0x00, 0x00, 0x00,
  0x73, 0x65, 0x71, 0x75, 0x65, 0x6e, 0x74, 0x69, 0x61, 0x6c, 0x2f, 0x64,
  0x65, 0x6e, 0x73, 0x65, 0x5f, 0x31, 0x2f, 0x4d, 0x61, 0x74, 0x4d, 0x75,
  0x6c, 0x00, 0x00, 0x00, 0x02, 0x00, 0x00, 0x00, 0x10, 0x00, 0x00, 0x00,
  0x10, 0x00, 0x00, 0x00, 0x5a, 0xfd, 0xff, 0xff, 0x00, 0x00, 0x00, 0x01,
  0x14, 0x00, 0x00, 0x00, 0x34, 0x00, 0x00, 0x00, 0x08, 0x00, 0x00, 0x00,
  0x00, 0x00, 0x00, 0x02, 0x58, 0x00, 0x00, 0x00, 0x44, 0xfd, 0xff, 0xff,
  0x08, 0x00, 0x00, 0x00, 0x14, 0x00, 0x00, 0x00, 0x01, 0x00, 0x00, 0x00,
  0x00, 0x00, 0x00, 0x00, 0x00, 0x00, 0x00, 0x00, 0x00, 0x00, 0x00, 0x00,
  0x01, 0x00, 0x00, 0x00, 0xe8, 0xba, 0x69, 0x38, 0x29, 0x00, 0x00, 0x00,
  0x73, 0x65, 0x71, 0x75, 0x65, 0x6e, 0x74, 0x69, 0x61, 0x6c, 0x2f, 0x64,
  0x65, 0x6e, 0x73, 0x65, 0x5f, 0x31, 0x2f, 0x42, 0x69, 0x61, 0x73, 0x41,
  0x64, 0x64, 0x2f, 0x52, 0x65, 0x61, 0x64, 0x56, 0x61, 0x72, 0x69, 0x61,
  0x62, 0x6c, 0x65, 0x4f, 0x70, 0x00, 0x00, 0x00, 0x01, 0x00, 0x00, 0x00,
  0x10, 0x00, 0x00, 0x00, 0xd2, 0xfd, 0xff, 0xff, 0x00, 0x00, 0x00, 0x01,
  0x14, 0x00, 0x00, 0x00, 0x30, 0x00, 0x00, 0x00, 0x07, 0x00, 0x00, 0x00,
  0x00, 0x00, 0x00, 0x09, 0x44, 0x00, 0x00, 0x00, 0xbc, 0xfd, 0xff, 0xff,
  0x08, 0x00, 0x00, 0x00, 0x10, 0x00, 0x00, 0x00, 0x01, 0x00, 0x00, 0x00,
  0x00, 0x00, 0x00, 0x00, 0x00, 0x00, 0x00, 0x00, 0x01, 0x00, 0x00, 0x00,
  0x52, 0xb5, 0xa2, 0x3b, 0x19, 0x00, 0x00, 0x00, 0x73, 0x65, 0x71, 0x75,
  0x65, 0x6e, 0x74, 0x69, 0x61, 0x6c, 0x2f, 0x64, 0x65, 0x6e, 0x73, 0x65,
  0x5f, 0x32, 0x2f, 0x4d, 0x61, 0x74, 0x4d, 0x75, 0x6c, 0x00, 0x00, 0x00,
  0x02, 0x00, 0x00, 0x00, 0x80, 0x00, 0x00, 0x00, 0x10, 0x00, 0x00, 0x00,
  0x3a, 0xfe, 0xff, 0xff, 0x00, 0x00, 0x00, 0x01, 0x14, 0x00, 0x00, 0x00,
  0x34, 0x00, 0x00, 0x00, 0x06, 0x00, 0x00, 0x00, 0x00, 0x00, 0x00, 0x02,
  0x58, 0x00, 0x00, 0x00, 0x24, 0xfe, 0xff, 0xff, 0x08, 0x00, 0x00, 0x00,
  0x14, 0x00, 0x00, 0x00, 0x01, 0x00, 0x00, 0x00, 0x00, 0x00, 0x00, 0x00,
  0x00, 0x00, 0x00, 0x00, 0x00, 0x00, 0x00, 0x00, 0x01, 0x00, 0x00, 0x00,
  0x0c, 0x35, 0x09, 0x38, 0x29, 0x00, 0x00, 0x00, 0x73, 0x65, 0x71, 0x75,
  0x65, 0x6e, 0x74, 0x69, 0x61, 0x6c, 0x2f, 0x64, 0x65, 0x6e, 0x73, 0x65,
  0x5f, 0x32, 0x2f, 0x42, 0x69, 0x61, 0x73, 0x41, 0x64, 0x64, 0x2f, 0x52,
  0x65, 0x61, 0x64, 0x56, 0x61, 0x72, 0x69, 0x61, 0x62, 0x6c, 0x65, 0x4f,
  0x70, 0x00, 0x00, 0x00, 0x01, 0x00, 0x00, 0x00, 0x80, 0x00, 0x00, 0x00,
  0xb2, 0xfe, 0xff, 0xff, 0x00, 0x00, 0x00, 0x01, 0x14, 0x00, 0x00, 0x00,
  0x30, 0x00, 0x00, 0x00, 0x05, 0x00, 0x00, 0x00, 0x00, 0x00, 0x00, 0x09,
  0x44, 0x00, 0x00, 0x00, 0x9c, 0xfe, 0xff, 0xff, 0x08, 0x00, 0x00, 0x00,
  0x10, 0x00, 0x00, 0x00, 0x01, 0x00, 0x00, 0x00, 0x00, 0x00, 0x00, 0x00,
  0x00, 0x00, 0x00, 0x00, 0x01, 0x00, 0x00, 0x00, 0xe3, 0x7a, 0xd8, 0x3b,
  0x19, 0x00, 0x00, 0x00, 0x73, 0x65, 0x71, 0x75, 0x65, 0x6e, 0x74, 0x69,
  0x61, 0x6c, 0x2f, 0x64, 0x65, 0x6e, 0x73, 0x65, 0x5f, 0x33, 0x2f, 0x4d,
  0x61, 0x74, 0x4d, 0x75, 0x6c, 0x00, 0x00, 0x00, 0x02, 0x00, 0x00, 0x00,
  0x10, 0x00, 0x00, 0x00, 0x80, 0x00, 0x00, 0x00, 0x1a, 0xff, 0xff, 0xff,
  0x00, 0x00, 0x00, 0x01, 0x14, 0x00, 0x00, 0x00, 0x34, 0x00, 0x00, 0x00,
  0x04, 0x00, 0x00, 0x00, 0x00, 0x00, 0x00, 0x02, 0x58, 0x00, 0x00, 0x00,
  0x04, 0xff, 0xff, 0xff, 0x08, 0x00, 0x00, 0x00, 0x14, 0x00, 0x00, 0x00,
  0x01, 0x00, 0x00, 0x00, 0x00, 0x00, 0x00, 0x00, 0x00, 0x00, 0x00, 0x00,
  0x00, 0x00, 0x00, 0x00, 0x01, 0x00, 0x00, 0x00, 0xab, 0x2d, 0xb9, 0x37,
  0x29, 0x00, 0x00, 0x00, 0x73, 0x65, 0x71, 0x75, 0x65, 0x6e, 0x74, 0x69,
  0x61, 0x6c, 0x2f, 0x64, 0x65, 0x6e, 0x73, 0x65, 0x5f, 0x33, 0x2f, 0x42,
  0x69, 0x61, 0x73, 0x41, 0x64, 0x64, 0x2f, 0x52, 0x65, 0x61, 0x64, 0x56,
  0x61, 0x72, 0x69, 0x61, 0x62, 0x6c, 0x65, 0x4f, 0x70, 0x00, 0x00, 0x00,
  0x01, 0x00, 0x00, 0x00, 0x10, 0x00, 0x00, 0x00, 0x92, 0xff, 0xff, 0xff,
  0x00, 0x00, 0x00, 0x01, 0x14, 0x00, 0x00, 0x00, 0x34, 0x00, 0x00, 0x00,
  0x03, 0x00, 0x00, 0x00, 0x00, 0x00, 0x00, 0x09, 0x48, 0x00, 0x00, 0x00,
  0x7c, 0xff, 0xff, 0xff, 0x08, 0x00, 0x00, 0x00, 0x14, 0x00, 0x00, 0x00,
  0x01, 0x00, 0x00, 0x00, 0x00, 0x00, 0x00, 0x00, 0x00, 0x00, 0x00, 0x00,
  0x00, 0x00, 0x00, 0x00, 0x01, 0x00, 0x00, 0x00, 0xd3, 0x2b, 0xb3, 0x3b,
  0x19, 0x00, 0x00, 0x00, 0x73, 0x65, 0x71, 0x75, 0x65, 0x6e, 0x74, 0x69,
  0x61, 0x6c, 0x2f, 0x64, 0x65, 0x6e, 0x73, 0x65, 0x5f, 0x34, 0x2f, 0x4d,
  0x61, 0x74, 0x4d, 0x75, 0x6c, 0x00, 0x00, 0x00, 0x02, 0x00, 0x00, 0x00,
  0x01, 0x00, 0x00, 0x00, 0x10, 0x00, 0x00, 0x00, 0x00, 0x00, 0x16, 0x00,
  0x1c, 0x00, 0x18, 0x00, 0x17, 0x00, 0x10, 0x00, 0x0c, 0x00, 0x08, 0x00,
  0x00, 0x00, 0x00, 0x00, 0x00, 0x00, 0x07, 0x00, 0x16, 0x00, 0x00, 0x00,
  0x00, 0x00, 0x00, 0x01, 0x20, 0x00, 0x00, 0x00, 0x40, 0x00, 0x00, 0x00,
  0x02, 0x00, 0x00, 0x00, 0x00, 0x00, 0x00, 0x02, 0x64, 0x00, 0x00, 0x00,
  0x0c, 0x00, 0x0c, 0x00, 0x00, 0x00, 0x00, 0x00, 0x08, 0x00, 0x04, 0x00,
  0x0c, 0x00, 0x00, 0x00, 0x08, 0x00, 0x00, 0x00, 0x14, 0x00, 0x00, 0x00,
  0x01, 0x00, 0x00, 0x00, 0x00, 0x00, 0x00, 0x00, 0x00, 0x00, 0x00, 0x00,
  0x00, 0x00, 0x00, 0x00, 0x01, 0x00, 0x00, 0x00, 0xd8, 0x09, 0x02, 0x38,
  0x29, 0x00, 0x00, 0x00, 0x73, 0x65, 0x71, 0x75, 0x65, 0x6e, 0x74, 0x69,
  0x61, 0x6c, 0x2f, 0x64, 0x65, 0x6e, 0x73, 0x65, 0x5f, 0x34, 0x2f, 0x42,
  0x69, 0x61, 0x73, 0x41, 0x64, 0x64, 0x2f, 0x52, 0x65, 0x61, 0x64, 0x56,
  0x61, 0x72, 0x69, 0x61, 0x62, 0x6c, 0x65, 0x4f, 0x70, 0x00, 0x00, 0x00,
  0x01, 0x00, 0x00, 0x00, 0x01, 0x00, 0x00, 0x00, 0x00, 0x00, 0x16, 0x00,
  0x1c, 0x00, 0x18, 0x00, 0x00, 0x00, 0x14, 0x00, 0x10, 0x00, 0x0c, 0x00,
  0x00, 0x00, 0x00, 0x00, 0x08, 0x00, 0x07, 0x00, 0x16, 0x00, 0x00, 0x00,
  0x00, 0x00, 0x00, 0x01, 0x14, 0x00, 0x00, 0x00, 0x20, 0x00, 0x00, 0x00,
  0x20, 0x00, 0x00, 0x00, 0x01, 0x00, 0x00, 0x00, 0x3c, 0x00, 0x00, 0x00,
  0x02, 0x00, 0x00, 0x00, 0xff, 0xff, 0xff, 0xff, 0x01, 0x00, 0x00, 0x00,
  0x04, 0x00, 0x04, 0x00, 0x04, 0x00, 0x00, 0x00, 0x1d, 0x00, 0x00, 0x00,
  0x73, 0x65, 0x72, 0x76, 0x69, 0x6e, 0x67, 0x5f, 0x64, 0x65, 0x66, 0x61,
  0x75, 0x6c, 0x74, 0x5f, 0x64, 0x65, 0x6e, 0x73, 0x65, 0x5f, 0x69, 0x6e,
  0x70, 0x75, 0x74, 0x3a, 0x30, 0x00, 0x00, 0x00, 0x02, 0x00, 0x00, 0x00,
  0x01, 0x00, 0x00, 0x00, 0x01, 0x00, 0x00, 0x00, 0x03, 0x00, 0x00, 0x00,
  0x44, 0x00, 0x00, 0x00, 0x24, 0x00, 0x00, 0x00, 0x04, 0x00, 0x00, 0x00,
  0xf0, 0xff, 0xff, 0xff, 0x06, 0x00, 0x00, 0x00, 0x02, 0x00, 0x00, 0x00,
  0x00, 0x00, 0x00, 0x06, 0x0c, 0x00, 0x10, 0x00, 0x0f, 0x00, 0x00, 0x00,
  0x08, 0x00, 0x04, 0x00, 0x0c, 0x00, 0x00, 0x00, 0x09, 0x00, 0x00, 0x00,
  0x04, 0x00, 0x00, 0x00, 0x00, 0x00, 0x00, 0x09, 0x0c, 0x00, 0x0c, 0x00,
  0x0b, 0x00, 0x00, 0x00, 0x00, 0x00, 0x04, 0x00, 0x0c, 0x00, 0x00, 0x00,
  0x72, 0x00, 0x00, 0x00, 0x00, 0x00, 0x00, 0x72
};
unsigned int models_complex_sine_model_quantized_tflite_len = 8720;
